{
  "version": "1.0",
  "truncation": null,
  "padding": null,
  "added_tokens": [
    {
      "id": 0,
      "content": "<|pad|>",
      "single_word": false,
      "lstrip": false,
      "rstrip": false,
      "normalized": false,
      "special": true
    },
    {
      "id": 1,
      "content": "<|endoftext|>",
      "single_word": false,
      "lstrip": false,
      "rstrip": false,
      "normalized": false,
      "special": true
    },
    {
      "id": 2,
      "content": "<|user|>",
      "single_word": false,
      "lstrip": false,
      "rstrip": false,
      "normalized": false,
      "special": true
    },
    {
      "id": 3,
      "content": "<|assistant|>",
      "single_word": false,
      "lstrip": false,
      "rstrip": false,
      "normalized": false,
      "special": true
    },
    {
      "id": 4,
      "content": "<|context|>",
      "single_word": false,
      "lstrip": false,
      "rstrip": false,
      "normalized": false,
      "special": true
    }
  ],
  "normalizer": null,
  "pre_tokenizer": {
    "type": "ByteLevel",
    "add_prefix_space": false,
    "trim_offsets": true,
    "use_regex": true
  },
  "post_processor": {
    "type": "ByteLevel",
    "add_prefix_space": true,
    "trim_offsets": false,
    "use_regex": true
  },
  "decoder": {
    "type": "ByteLevel",
    "add_prefix_space": true,
    "trim_offsets": true,
    "use_regex": true
  },
  "model": {
    "type": "BPE",
    "dropout": null,
    "unk_token": null,
    "continuing_subword_prefix": null,
    "end_of_word_suffix": null,
    "fuse_unk": false,
    "byte_fallback": true,
    "ignore_merges": false,
    "vocab": {
      "<|pad|>": 0,
      "<|endoftext|>": 1,
      "<|user|>": 2,
      "<|assistant|>": 3,
      "<|context|>": 4,
      "!": 5,
      "\"": 6,
      "#": 7,
      "$": 8,
      "%": 9,
      "&": 10,
      "'": 11,
      "(": 12,
      ")": 13,
      "*": 14,
      "+": 15,
      ",": 16,
      "-": 17,
      ".": 18,
      "/": 19,
      "0": 20,
      "1": 21,
      "2": 22,
      "3": 23,
      "4": 24,
      "5": 25,
      "6": 26,
      "7": 27,
      "8": 28,
      "9": 29,
      ":": 30,
      ";": 31,
      "<": 32,
      "=": 33,
      ">": 34,
      "?": 35,
      "@": 36,
      "A": 37,
      "B": 38,
      "C": 39,
      "D": 40,
      "E": 41,
      "F": 42,
      "G": 43,
      "H": 44,
      "I": 45,
      "J": 46,
      "K": 47,
      "L": 48,
      "M": 49,
      "N": 50,
      "O": 51,
      "P": 52,
      "Q": 53,
      "R": 54,
      "S": 55,
      "T": 56,
      "U": 57,
      "V": 58,
      "W": 59,
      "X": 60,
      "Y": 61,
      "Z": 62,
      "[": 63,
      "\\": 64,
      "]": 65,
      "^": 66,
      "_": 67,
      "`": 68,
      "a": 69,
      "b": 70,
      "c": 71,
      "d": 72,
      "e": 73,
      "f": 74,
      "g": 75,
      "h": 76,
      "i": 77,
      "j": 78,
      "k": 79,
      "l": 80,
      "m": 81,
      "n": 82,
      "o": 83,
      "p": 84,
      "q": 85,
      "r": 86,
      "s": 87,
      "t": 88,
      "u": 89,
      "v": 90,
      "w": 91,
      "x": 92,
      "y": 93,
      "z": 94,
      "{": 95,
      "|": 96,
      "}": 97,
      "~": 98,
      "¡": 99,
      "¢": 100,
      "£": 101,
      "¤": 102,
      "¥": 103,
      "¦": 104,
      "§": 105,
      "¨": 106,
      "©": 107,
      "ª": 108,
      "«": 109,
      "¬": 110,
      "®": 111,
      "¯": 112,
      "°": 113,
      "±": 114,
      "²": 115,
      "³": 116,
      "´": 117,
      "µ": 118,
      "¶": 119,
      "·": 120,
      "¸": 121,
      "¹": 122,
      "º": 123,
      "»": 124,
      "¼": 125,
      "½": 126,
      "¾": 127,
      "¿": 128,
      "À": 129,
      "Á": 130,
      "Â": 131,
      "Ã": 132,
      "Ä": 133,
      "Å": 134,
      "Æ": 135,
      "Ç": 136,
      "È": 137,
      "É": 138,
      "Ê": 139,
      "Ë": 140,
      "Ì": 141,
      "Í": 142,
      "Î": 143,
      "Ï": 144,
      "Ð": 145,
      "Ñ": 146,
      "Ò": 147,
      "Ó": 148,
      "Ô": 149,
      "Õ": 150,
      "Ö": 151,
      "×": 152,
      "Ø": 153,
      "Ù": 154,
      "Ú": 155,
      "Û": 156,
      "Ü": 157,
      "Ý": 158,
      "Þ": 159,
      "ß": 160,
      "à": 161,
      "á": 162,
      "â": 163,
      "ã": 164,
      "ä": 165,
      "å": 166,
      "æ": 167,
      "ç": 168,
      "è": 169,
      "é": 170,
      "ê": 171,
      "ë": 172,
      "ì": 173,
      "í": 174,
      "î": 175,
      "ï": 176,
      "ð": 177,
      "ñ": 178,
      "ò": 179,
      "ó": 180,
      "ô": 181,
      "õ": 182,
      "ö": 183,
      "÷": 184,
      "ø": 185,
      "ù": 186,
      "ú": 187,
      "û": 188,
      "ü": 189,
      "ý": 190,
      "þ": 191,
      "ÿ": 192,
      "Ā": 193,
      "ā": 194,
      "Ă": 195,
      "ă": 196,
      "Ą": 197,
      "ą": 198,
      "Ć": 199,
      "ć": 200,
      "Ĉ": 201,
      "ĉ": 202,
      "Ċ": 203,
      "ċ": 204,
      "Č": 205,
      "č": 206,
      "Ď": 207,
      "ď": 208,
      "Đ": 209,
      "đ": 210,
      "Ē": 211,
      "ē": 212,
      "Ĕ": 213,
      "ĕ": 214,
      "Ė": 215,
      "ė": 216,
      "Ę": 217,
      "ę": 218,
      "Ě": 219,
      "ě": 220,
      "Ĝ": 221,
      "ĝ": 222,
      "Ğ": 223,
      "ğ": 224,
      "Ġ": 225,
      "ġ": 226,
      "Ģ": 227,
      "ģ": 228,
      "Ĥ": 229,
      "ĥ": 230,
      "Ħ": 231,
      "ħ": 232,
      "Ĩ": 233,
      "ĩ": 234,
      "Ī": 235,
      "ī": 236,
      "Ĭ": 237,
      "ĭ": 238,
      "Į": 239,
      "į": 240,
      "İ": 241,
      "ı": 242,
      "Ĳ": 243,
      "ĳ": 244,
      "Ĵ": 245,
      "ĵ": 246,
      "Ķ": 247,
      "ķ": 248,
      "ĸ": 249,
      "Ĺ": 250,
      "ĺ": 251,
      "Ļ": 252,
      "ļ": 253,
      "Ľ": 254,
      "ľ": 255,
      "Ŀ": 256,
      "ŀ": 257,
      "Ł": 258,
      "ł": 259,
      "Ń": 260,
      "ie": 261,
      "ÅĤ": 262,
      "Ġp": 263,
      "Ġw": 264,
      "ow": 265,
      "na": 266,
      "st": 267,
      "ni": 268,
      "Ġz": 269,
      "cz": 270,
      "ÄĻ": 271,
      "ch": 272,
      "Äħ": 273,
      "rz": 274,
      "Ġs": 275,
      "Ã³": 276,
      "ra": 277,
      "nie": 278,
      "Ġd": 279,
      "Ġo": 280,
      "Å¼": 281,
      "ro": 282,
      "Ġt": 283,
      "Ġk": 284,
      "ÅĽ": 285,
      "Ġm": 286,
      "ne": 287,
      "Ġpo": 288,
      "Ġi": 289,
      "sz": 290,
      "Ġna": 291,
      "ny": 292,
      "li": 293,
      "dz": 294,
      "je": 295,
      "ia": 296,
      "go": 297,
      "ka": 298,
      "le": 299,
      "rze": 300,
      "ki": 301,
      "ar": 302,
      "iÄĻ": 303,
      "ÅĤa": 304,
      "re": 305,
      "Ġb": 306,
      "Ã³w": 307,
      "owa": 308,
      "Ġdo": 309,
      "Äĩ": 310,
      "la": 311,
      "âĢ": 312,
      "Ġza": 313,
      "nia": 314,
      "ci": 315,
      "er": 316,
      "wa": 317,
      "ĠP": 318,
      "ko": 319,
      "sta": 320,
      "Ġ1": 321,
      "or": 322,
      "Ġa": 323,
      "ja": 324,
      "mi": 325,
      "rzy": 326,
      "no": 327,
      "ta": 328,
      "ce": 329,
      "Ġu": 330,
      "Ġwy": 331,
      "ty": 332,
      "Ġje": 333,
      "ĠW": 334,
      "da": 335,
      "kie": 336,
      "ku": 337,
      "ÅĤo": 338,
      "Ġ(": 339,
      "jÄħ": 340,
      "cy": 341,
      "ĠS": 342,
      "Ġprze": 343,
      "ĠsiÄĻ": 344,
      "ĠâĢ": 345,
      "te": 346,
      "Ġnie": 347,
      "ÅĦ": 348,
      "ry": 349,
      "Ġg": 350,
      "Å¼e": 351,
      "Ġro": 352,
      "Ġko": 353,
      "po": 354,
      "en": 355,
      "ĠM": 356,
      "czy": 357,
      "cze": 358,
      "ma": 359,
      "wo": 360,
      "ĠK": 361,
      "ÅĽci": 362,
      "cie": 363,
      "dy": 364,
      "tu": 365,
      "ski": 366,
      "nych": 367,
      "wi": 368,
      "ĠâĢĵ": 369,
      "Ġod": 370,
      "owe": 371,
      "owy": 372,
      "Ġ2": 373,
      "cj": 374,
      "lo": 375,
      "to": 376,
      "ca": 377,
      "lu": 378,
      "ru": 379,
      "ÅĤy": 380,
      "ĠB": 381,
      "Ġte": 382,
      "ĠA": 383,
      "wie": 384,
      "ĠN": 385,
      "Ġ19": 386,
      "dzie": 387,
      "Ġf": 388,
      "ĠC": 389,
      "zy": 390,
      "ĠT": 391,
      "em": 392,
      "skie": 393,
      "do": 394,
      "Å¼y": 395,
      "tÃ³": 396,
      "za": 397,
      "ĠD": 398,
      "my": 399,
      "Ġmo": 400,
      "szy": 401,
      "ĠR": 402,
      "Ġma": 403,
      "Ġja": 404,
      "cza": 405,
      "mie": 406,
      "ĠJ": 407,
      "is": 408,
      "Ġst": 409,
      "Ġjest": 410,
      "ga": 411,
      "ĠPo": 412,
      "Ġprzy": 413,
      "cji": 414,
      "in": 415,
      "ĠktÃ³": 416,
      "pa": 417,
      "Ġto": 418,
      "ĠO": 419,
      "ÅĤu": 420,
      "ĠZ": 421,
      "Ġty": 422,
      "sze": 423,
      "raz": 424,
      "Ġby": 425,
      "du": 426,
      "by": 427,
      "on": 428,
      "Ġta": 429,
      "dzi": 430,
      "nej": 431,
      "ĠG": 432,
      "owie": 433,
      "ĠĊ": 434,
      "rÃ³": 435,
      "an": 436,
      "00": 437,
      "ÅĽÄĩ": 438,
      "Ġpro": 439,
      "nego": 440,
      "si": 441,
      "de": 442,
      "Ġdz": 443,
      "mo": 444,
      "ĠÅĽ": 445,
      "Ġin": 446,
      "ĠL": 447,
      "ĠI": 448,
      "Ġob": 449,
      "Ġpod": 450,
      "gi": 451,
      "mu": 452,
      "co": 453,
      "Ġe": 454,
      "owo": 455,
      "wia": 456,
      "cho": 457,
      "nÄħ": 458,
      "Ġre": 459,
      "Ġwie": 460,
      "nym": 461,
      "ĠÅ¼e": 462,
      "Ġmie": 463,
      "Ġsz": 464,
      "wy": 465,
      "sa": 466,
      "cja": 467,
      "Ġsp": 468,
      "ob": 469,
      "Ġcz": 470,
      "ska": 471,
      "Ġroz": 472,
      "il": 473,
      "Ġpra": 474,
      "Ġsta": 475,
      "Ġpa": 476,
      "cia": 477,
      "ier": 478,
      "owi": 479,
      "kÃ³w": 480,
      "sy": 481,
      "Ġh": 482,
      "Ġprzez": 483,
      "bi": 484,
      "kt": 485,
      "niu": 486,
      "Ġka": 487,
      "Ġli": 488,
      "ĠF": 489,
      "osta": 490,
      "ur": 491,
      "sza": 492,
      "Ġr": 493,
      "Ġlu": 494,
      "Åº": 495,
      "ĠH": 496,
      "sp": 497,
      "Ġwo": 498,
      "âĢĿ": 499,
      "niej": 500,
      "Ġze": 501,
      "Ġroku": 502,
      "os": 503,
      "sty": 504,
      "gra": 505,
      "Ġjed": 506,
      "Ġoraz": 507,
      "ĠE": 508,
      "dni": 509,
      "ba": 510,
      "Ã³ÅĤ": 511,
      "ĠNa": 512,
      "ĠâĢŀ": 513,
      "pu": 514,
      "Ġch": 515,
      "pie": 516,
      "owych": 517,
      "un": 518,
      "al": 519,
      "dze": 520,
      "fi": 521,
      "we": 522,
      "ez": 523,
      "czas": 524,
      "Ġn": 525,
      "bie": 526,
      "Ġla": 527,
      "pe": 528,
      "owej": 529,
      "skiego": 530,
      "ter": 531,
      "kÅĤa": 532,
      "js": 533,
      "jÄĻ": 534,
      "ek": 535,
      "01": 536,
      "ĠU": 537,
      "Ġkon": 538,
      "pi": 539,
      "Ġzna": 540,
      "Ġ-": 541,
      "Ġdla": 542,
      "stÄĻ": 543,
      "Ġzosta": 544,
      "Ġni": 545,
      "noÅĽci": 546,
      "Ġsa": 547,
      "sto": 548,
      "ju": 549,
      "Ġczy": 550,
      "men": 551,
      "ran": 552,
      "Ġco": 553,
      "Ġtak": 554,
      "ud": 555,
      "ĠÅ": 556,
      "ona": 557,
      "pis": 558,
      "Ġnaj": 559,
      ").": 560,
      "Ġjak": 561,
      "mia": 562,
      "ĠsÄħ": 563,
      "Ġspo": 564,
      "gu": 565,
      "ĠktÃ³ry": 566,
      "ÅĤe": 567,
      "zna": 568,
      "Ġgo": 569,
      "ĠktÃ³re": 570,
      "Ġ3": 571,
      "Ġdzie": 572,
      "Ġle": 573,
      "io": 574,
      "su": 575,
      "Å¼a": 576,
      "rowa": 577,
      "jÄħcy": 578,
      "..": 579,
      "bo": 580,
      "wÃ³": 581,
      "Ġ200": 582,
      "dzia": 583,
      "sie": 584,
      "pra": 585,
      "),": 586,
      "lski": 587,
      "cyj": 588,
      "czÄħ": 589,
      "me": 590,
      "kÄħ": 591,
      "Ġtym": 592,
      "skiej": 593,
      "ĠMa": 594,
      "Ġmi": 595,
      "Ġpow": 596,
      "nd": 597,
      "bli": 598,
      "cu": 599,
      "19": 600,
      "Ġda": 601,
      "tÃ³w": 602,
      "Ġmia": 603,
      "rza": 604,
      "so": 605,
      "ĠZa": 606,
      "ĠJe": 607,
      "nika": 608,
      "rzÄħ": 609,
      "owego": 610,
      "towa": 611,
      "ĠKo": 612,
      "czne": 613,
      "Ġra": 614,
      "doc": 615,
      "|>": 616,
      "<|": 617,
      "jÄħc": 618,
      "ery": 619,
      "kowa": 620,
      "ze": 621,
      "Ġ201": 622,
      "ÅĤÄħ": 623,
      "rod": 624,
      "Ġok": 625,
      "Ġlub": 626,
      "Ġjako": 627,
      "tor": 628,
      "Ġce": 629,
      "spo": 630,
      "czo": 631,
      "Ġprzed": 632,
      "um": 633,
      "cki": 634,
      "Ġmiejs": 635,
      "ÅĦski": 636,
      "nÄĻ": 637,
      "stÄĻp": 638,
      "dzo": 639,
      "ri": 640,
      "Ġ18": 641,
      "cha": 642,
      "jÄħce": 643,
      "wiÄħ": 644,
      "Ġwi": 645,
      "ĠKa": 646,
      "ĠJa": 647,
      "zu": 648,
      "ierw": 649,
      "Ġsy": 650,
      "nu": 651,
      "niem": 652,
      "Ġmu": 653,
      "iÄĻk": 654,
      "Ġde": 655,
      "Ġme": 656,
      "ĠPa": 657,
      "âĢĵ": 658,
      "ĠwÅĤa": 659,
      "Ġfi": 660,
      "Po": 661,
      "dza": 662,
      "Ġwz": 663,
      "rÄĻ": 664,
      "el": 665,
      "ÅĽcie": 666,
      "ĠNie": 667,
      "kiem": 668,
      "bu": 669,
      "nik": 670,
      "Ġczas": 671,
      "lko": 672,
      "ÅĤÃ³w": 673,
      "ti": 674,
      "Ġswo": 675,
      "dzy": 676,
      "szyst": 677,
      "tra": 678,
      "Ġwe": 679,
      "iaÅĤa": 680,
      "cje": 681,
      "ĠCh": 682,
      "stwa": 683,
      "Ġbar": 684,
      "Ġba": 685,
      "for": 686,
      "Ġale": 687,
      "tem": 688,
      "ĠczÄĻ": 689,
      "cznych": 690,
      "Ġpoz": 691,
      "ÄĻd": 692,
      "Ġbo": 693,
      "noÅĽÄĩ": 694,
      "Ġ4": 695,
      "ĠrÃ³w": 696,
      "Ġbez": 697,
      "Ġar": 698,
      "ist": 699,
      "cznie": 700,
      "kÄĻ": 701,
      "ĠWy": 702,
      "Ġtego": 703,
      "Ġpi": 704,
      "Ġos": 705,
      "lÄħ": 706,
      "tach": 707,
      "ckie": 708,
      "ĠmoÅ¼": 709,
      "ĠÅ¼y": 710,
      "Ġjego": 711,
      "owym": 712,
      "ls": 713,
      "ĠmoÅ¼e": 714,
      "war": 715,
      "siÄħ": 716,
      "siÄĻ": 717,
      "cÃ³w": 718,
      "ĠtakÅ¼e": 719,
      "cjÄĻ": 720,
      "Ġ5": 721,
      "szcze": 722,
      "ji": 723,
      "sÅĤa": 724,
      "ÅĽli": 725,
      "owania": 726,
      "he": 727,
      "Ġca": 728,
      "Ã³r": 729,
      "Å¼o": 730,
      "Ġwszyst": 731,
      "lej": 732,
      "Ġpierw": 733,
      "se": 734,
      "Ġpe": 735,
      "nak": 736,
      "kty": 737,
      "kÅĤad": 738,
      "ĠDo": 739,
      "kow": 740,
      "ĠteÅ¼": 741,
      "Ġsie": 742,
      "ng": 743,
      "tni": 744,
      "ĠX": 745,
      "rÃ³Å¼": 746,
      "Ġju": 747,
      "ĠdziaÅĤa": 748,
      "Ġgru": 749,
      "Ã³l": 750,
      "ĠV": 751,
      "ory": 752,
      "ĠbyÅĤ": 753,
      "Ġdu": 754,
      "czny": 755,
      "Ġ199": 756,
      "ktu": 757,
      "ĠMi": 758,
      "Ġpowie": 759,
      "Ã³b": 760,
      "Ġwyko": 761,
      "ii": 762,
      "niÄĻ": 763,
      "Ġwar": 764,
      "nt": 765,
      "nieÅ¼": 766,
      "ÅĤem": 767,
      "Ġc": 768,
      "owanie": 769,
      "ĠRo": 770,
      "ste": 771,
      "szka": 772,
      "Ġlo": 773,
      "ĠÅļ": 774,
      "res": 775,
      "Ġwsp": 776,
      "II": 777,
      "Ġku": 778,
      "Ġtra": 779,
      "ciÄħ": 780,
      "ĠMar": 781,
      "ĠÅĽwia": 782,
      "bra": 783,
      "zm": 784,
      "ct": 785,
      "sko": 786,
      "pad": 787,
      "Ġpre": 788,
      "rem": 789,
      "owÄħ": 790,
      "ĠrÃ³wnieÅ¼": 791,
      "ÄĻdzie": 792,
      "Ġspra": 793,
      "owaÄĩ": 794,
      "szych": 795,
      "czÄĻ": 796,
      "Ġ\"": 797,
      "Ġ6": 798,
      "owaÅĤ": 799,
      "ec": 800,
      "ha": 801,
      "cznej": 802,
      "py": 803,
      "Ġtylko": 804,
      "Ġdy": 805,
      "Ġstro": 806,
      "Ġkom": 807,
      "sÅĤu": 808,
      "Ġog": 809,
      "ĠRa": 810,
      "Ġwa": 811,
      "Ġof": 812,
      "tego": 813,
      "ĠzostaÅĤ": 814,
      "ĠSz": 815,
      "stra": 816,
      "kich": 817,
      "Ġich": 818,
      "Ġor": 819,
      "sia": 820,
      "im": 821,
      "Ġsk": 822,
      "iÄĻdzy": 823,
      "ĠjuÅ¼": 824,
      "Ġznaj": 825,
      "ĠWar": 826,
      "Ġjednak": 827,
      "trzy": 828,
      "Ġop": 829,
      "ĠMo": 830,
      "skim": 831,
      "rÄħ": 832,
      "dzenia": 833,
      "Ġau": 834,
      "trz": 835,
      "Ġpla": 836,
      "lÄĻ": 837,
      "tka": 838,
      "Ġtu": 839,
      "Ġwyda": 840,
      "lar": 841,
      "wiÄĻ": 842,
      "Ġdru": 843,
      "gie": 844,
      "den": 845,
      "ge": 846,
      "prze": 847,
      "Na": 848,
      "dnie": 849,
      "ĠBo": 850,
      "Ġrze": 851,
      "Ġgra": 852,
      "Ġsamo": 853,
      "gani": 854,
      "Ġprodu": 855,
      "fe": 856,
      "uro": 857,
      "nymi": 858,
      "nek": 859,
      "zie": 860,
      "ĠwiÄĻ": 861,
      "Ġno": 862,
      "cÄħ": 863,
      "Ġjej": 864,
      "skich": 865,
      "ĠuÅ¼y": 866,
      "powie": 867,
      "Ġnale": 868,
      "Ġnad": 869,
      "ĠbyÄĩ": 870,
      "lity": 871,
      "szÄħ": 872,
      "ĠSta": 873,
      "stwo": 874,
      "lne": 875,
      "tr": 876,
      "lem": 877,
      "ĠWie": 878,
      "ĠLe": 879,
      "tk": 880,
      "ĠRe": 881,
      "ÅĤam": 882,
      "nii": 883,
      "Ġlatach": 884,
      "ns": 885,
      "nio": 886,
      "Ġkra": 887,
      "jÄħcych": 888,
      "Ġlat": 889,
      "Ġfa": 890,
      "ĠIn": 891,
      "Ġbardzo": 892,
      "ĠTo": 893,
      "Ġsu": 894,
      "Ġpolski": 895,
      "czenia": 896,
      "ĠWo": 897,
      "rÃ³d": 898,
      "Ġry": 899,
      "Ġ7": 900,
      "Ġmar": 901,
      "Ġfor": 902,
      "fa": 903,
      "prowa": 904,
      "ĠTa": 905,
      "ÅĽnie": 906,
      "now": 907,
      "tar": 908,
      "Ġpar": 909,
      "pisy": 910,
      "dzÄħ": 911,
      "mery": 912,
      "ĠbÄĻdzie": 913,
      "ner": 914,
      "tki": 915,
      "ali": 916,
      "mina": 917,
      "Ġbi": 918,
      "Ġcie": 919,
      "tnie": 920,
      "ĠLi": 921,
      "wiÄħza": 922,
      "Ġmog": 923,
      "tek": 924,
      "ĠPrze": 925,
      "unk": 926,
      "Ġ197": 927,
      "Ġ194": 928,
      "Ġsto": 929,
      "Przy": 930,
      "Ġpu": 931,
      "szym": 932,
      "Ġ8": 933,
      "cznego": 934,
      "trze": 935,
      "Ġokre": 936,
      "ĠmoÅ¼na": 937,
      "owany": 938,
      "Ġ15": 939,
      "stem": 940,
      "tro": 941,
      "Ġkil": 942,
      "Ġser": 943,
      "szej": 944,
      "nowi": 945,
      "logi": 946,
      "Ġwoj": 947,
      "Å¼Äħ": 948,
      "owane": 949,
      "Ġraz": 950,
      "ĠbyÅĤo": 951,
      "th": 952,
      "Ġ17": 953,
      "Ġim": 954,
      "Ġcho": 955,
      "od": 956,
      "Ġnaz": 957,
      "Ġga": 958,
      "Ġ198": 959,
      "gro": 960,
      "Ġpraw": 961,
      "sk": 962,
      "forma": 963,
      "Ġsob": 964,
      "kach": 965,
      "ĠSa": 966,
      "Ġkie": 967,
      "dziaÅĤ": 968,
      "rzu": 969,
      "kim": 970,
      "ing": 971,
      "Ġten": 972,
      "Ġbra": 973,
      "...": 974,
      "Ġele": 975,
      "ers": 976,
      "ĠOd": 977,
      "ĠrÃ³Å¼": 978,
      "ĠWarsza": 979,
      "Ġtej": 980,
      "stu": 981,
      "Ġmieszka": 982,
      "Ġal": 983,
      "czna": 984,
      "Ġgdy": 985,
      "Ġ20": 986,
      "nikÃ³w": 987,
      "ĠkaÅ¼": 988,
      "Ġkolej": 989,
      "stw": 990,
      "Ġwieku": 991,
      "ĠBa": 992,
      "Ġszko": 993,
      "ej": 994,
      "czenie": 995,
      "dzt": 996,
      "Ġpowsta": 997,
      "szo": 998,
      "dziej": 999,
      "ĠÅĤa": 1000,
      "ol": 1001,
      "ĠPols": 1002,
      "Ġsty": 1003,
      "dÅĤu": 1004,
      "Ġdob": 1005,
      "meryka": 1006,
      "cej": 1007,
      "ĠbyÅĤa": 1008,
      "staw": 1009,
      "fia": 1010,
      "ktor": 1011,
      "Ġjedno": 1012,
      "kar": 1013,
      "Ġwoje": 1014,
      "rzÄĻ": 1015,
      "ĠTe": 1016,
      "ck": 1017,
      "rzo": 1018,
      "dÃ³w": 1019,
      "Ġbu": 1020,
      "Ġkar": 1021,
      "lny": 1022,
      "Ġ10": 1023,
      "pro": 1024,
      "Za": 1025,
      "oba": 1026,
      "pre": 1027,
      "nku": 1028,
      "czu": 1029,
      "Ġswoje": 1030,
      "Ġfil": 1031,
      "Ġru": 1032,
      "stÄħ": 1033,
      "nÃ³w": 1034,
      "Ġpie": 1035,
      "pisa": 1036,
      "ÅĽmy": 1037,
      "Ġ9": 1038,
      "oru": 1039,
      "Ġ16": 1040,
      "szta": 1041,
      "dob": 1042,
      "nÄĻtrz": 1043,
      "ciu": 1044,
      "Ġnau": 1045,
      "owia": 1046,
      "lnych": 1047,
      "liwo": 1048,
      "dar": 1049,
      "Ġkla": 1050,
      "Ġpowo": 1051,
      "ĠktÃ³ra": 1052,
      "ĠkrÃ³": 1053,
      "âĢĿ.": 1054,
      "Ġcze": 1055,
      "di": 1056,
      "ĠÅģ": 1057,
      "Ġdro": 1058,
      "wiet": 1059,
      "Ġpolity": 1060,
      "ĠWa": 1061,
      "trzyma": 1062,
      "wier": 1063,
      "ks": 1064,
      "Ã³d": 1065,
      "praw": 1066,
      "bud": 1067,
      "Ġpol": 1068,
      "der": 1069,
      "Ġoko": 1070,
      "kaza": 1071,
      "stÄĻpu": 1072,
      "rzysta": 1073,
      "mar": 1074,
      "lni": 1075,
      "Ġzd": 1076,
      "ul": 1077,
      "kre": 1078,
      "ĠAr": 1079,
      "kcji": 1080,
      "zen": 1081,
      "Ġ12": 1082,
      "istor": 1083,
      "mÃ³w": 1084,
      "Ġorgani": 1085,
      "ĠgÅĤÃ³w": 1086,
      "Ġodpowie": 1087,
      "Ġprac": 1088,
      "wnÄĻtrz": 1089,
      "Ã³Åº": 1090,
      "ene": 1091,
      "Ġ193": 1092,
      "chni": 1093,
      "ĠII": 1094,
      "Ġstos": 1095,
      "tÄĻ": 1096,
      "ĠPolsce": 1097,
      "ĠmiÄĻdzy": 1098,
      "Ġdoda": 1099,
      "pÅĤy": 1100,
      "Ġspe": 1101,
      "chi": 1102,
      "ĠĠ": 1103,
      "tych": 1104,
      "stru": 1105,
      "kry": 1106,
      "Ġznajdu": 1107,
      "Przypisy": 1108,
      "Ġgmi": 1109,
      "wania": 1110,
      "Ġzw": 1111,
      "kra": 1112,
      "dnia": 1113,
      "ÅĤowie": 1114,
      "ĠdÅĤu": 1115,
      "szcza": 1116,
      "ÅĤÄĻ": 1117,
      "wu": 1118,
      "maty": 1119,
      "nem": 1120,
      "ort": 1121,
      "ren": 1122,
      "Ġtrze": 1123,
      "Ġprowa": 1124,
      "log": 1125,
      "strze": 1126,
      "Ġmiejsce": 1127,
      "Ġmiejsc": 1128,
      "ĠPolski": 1129,
      "lnie": 1130,
      "||": 1131,
      "18": 1132,
      "ser": 1133,
      "Ġgdzie": 1134,
      "szego": 1135,
      "mier": 1136,
      "zi": 1137,
      "koÅĦ": 1138,
      "tku": 1139,
      "ÅĦstwa": 1140,
      "ÅĤka": 1141,
      "ĠKra": 1142,
      "Ġposta": 1143,
      "tera": 1144,
      "Ġbud": 1145,
      "siada": 1146,
      "ĠwiÄĻk": 1147,
      "Ġpomo": 1148,
      "ÅĦskiego": 1149,
      "et": 1150,
      "ĠPro": 1151,
      "kÅĤada": 1152,
      "Ġszy": 1153,
      "Ġfir": 1154,
      "cer": 1155,
      "cznym": 1156,
      "lan": 1157,
      "leg": 1158,
      "Ġrozpo": 1159,
      "ĠwspÃ³ÅĤ": 1160,
      "wÃ³dzt": 1161,
      "ĠCo": 1162,
      "chodzi": 1163,
      "ber": 1164,
      "Ġsze": 1165,
      "ÅĤoÅĽci": 1166,
      "ĠczÄĻÅĽci": 1167,
      "Ġad": 1168,
      "kiej": 1169,
      "wet": 1170,
      "gÃ³l": 1171,
      "ĠosÃ³b": 1172,
      "ĠPol": 1173,
      "Ġusta": 1174,
      "kro": 1175,
      "Ġspos": 1176,
      "Ġ14": 1177,
      "zacji": 1178,
      "Ġaby": 1179,
      "Ġczer": 1180,
      "ckiego": 1181,
      "kiego": 1182,
      "cjÄħ": 1183,
      "lnego": 1184,
      "sÅĤaw": 1185,
      "lnej": 1186,
      "chu": 1187,
      "ĠDa": 1188,
      "âĢĿ,": 1189,
      "cka": 1190,
      "waÄĩ": 1191,
      "ve": 1192,
      "Ġsobie": 1193,
      "ĠWi": 1194,
      "Ġ196": 1195,
      "zo": 1196,
      "us": 1197,
      "200": 1198,
      "tÄħ": 1199,
      "ary": 1200,
      "dowa": 1201,
      "Ġjeszcze": 1202,
      "waÅĤ": 1203,
      "tura": 1204,
      "Ġpoda": 1205,
      "nad": 1206,
      "waÅ¼": 1207,
      "daw": 1208,
      "usz": 1209,
      "Ġzdo": 1210,
      "Ġosta": 1211,
      "lep": 1212,
      "miÄĻ": 1213,
      "Ġfunk": 1214,
      "ho": 1215,
      "ĠCz": 1216,
      "Ġwyso": 1217,
      "dÄĻ": 1218,
      "zji": 1219,
      "ÅĤon": 1220,
      "jemy": 1221,
      "ĠEuro": 1222,
      "ĠMe": 1223,
      "tru": 1224,
      "Ġszcze": 1225,
      "ĠktÃ³rych": 1226,
      "gen": 1227,
      "ĠFran": 1228,
      "Ġpracy": 1229,
      "Ġpodczas": 1230,
      "ĠOr": 1231,
      "Ġso": 1232,
      "jÄĻzy": 1233,
      "ĠpÃ³ÅĤ": 1234,
      "Ġmy": 1235,
      "ĠniÅ¼": 1236,
      "Ġprzypad": 1237,
      "Ġameryka": 1238,
      "Ġinforma": 1239,
      "jem": 1240,
      "ĠPod": 1241,
      "maga": 1242,
      "sku": 1243,
      "be": 1244,
      "two": 1245,
      "glÄħ": 1246,
      "menta": 1247,
      "ciw": 1248,
      "Ġse": 1249,
      "Ġ195": 1250,
      "ĠkoÅĦ": 1251,
      "Ġon": 1252,
      "ĠLu": 1253,
      "Ġzie": 1254,
      "ĠÅĽrod": 1255,
      "rzÄħd": 1256,
      "ogra": 1257,
      "tyw": 1258,
      "roni": 1259,
      "cznÄħ": 1260,
      "owni": 1261,
      "Ġ13": 1262,
      "ron": 1263,
      "wiÄħz": 1264,
      "Ã³Åºniej": 1265,
      "che": 1266,
      "Ġ192": 1267,
      "tt": 1268,
      "kona": 1269,
      "ĠwÅĤas": 1270,
      "ĠbyÅĤy": 1271,
      "ĠÅ»": 1272,
      "Ġcy": 1273,
      "Å¼ej": 1274,
      "ĠbÄĻd": 1275,
      "ĠpoczÄħ": 1276,
      "czyÄĩ": 1277,
      "iÄĻki": 1278,
      "ĠsÅĤu": 1279,
      "Ġspraw": 1280,
      "czes": 1281,
      "Ġsystem": 1282,
      "tora": 1283,
      "kami": 1284,
      "Wy": 1285,
      "ara": 1286,
      "hi": 1287,
      "Ġtych": 1288,
      "Ġpoja": 1289,
      "ster": 1290,
      "pl": 1291,
      "Ġzach": 1292,
      "dÅº": 1293,
      "nta": 1294,
      "Ġrodzi": 1295,
      "âĢĻ": 1296,
      "sztaÅĤ": 1297,
      "rÃ³w": 1298,
      "wÃ³r": 1299,
      "Ġczasie": 1300,
      "Ġinnych": 1301,
      "Ġinter": 1302,
      "peÅĤ": 1303,
      "ĠKon": 1304,
      "lnoÅĽci": 1305,
      "Âł": 1306,
      "dzenie": 1307,
      "miast": 1308,
      "Ġosob": 1309,
      "cach": 1310,
      "man": 1311,
      "szu": 1312,
      "ĠLa": 1313,
      "Ġnawet": 1314,
      "redni": 1315,
      "ÅĽcia": 1316,
      "sÅĤ": 1317,
      "bar": 1318,
      "Ġuwa": 1319,
      "ĠmajÄħ": 1320,
      "Ġzwy": 1321,
      "bior": 1322,
      "Ġposiada": 1323,
      "pera": 1324,
      "Ġniemie": 1325,
      "Ġproje": 1326,
      "ich": 1327,
      "ĠzÅĤo": 1328,
      "Ġpew": 1329,
      "ĠwojewÃ³dzt": 1330,
      "wer": 1331,
      "and": 1332,
      "mini": 1333,
      "ĠBy": 1334,
      "ĠzostaÅĤa": 1335,
      "nach": 1336,
      "Ġpozosta": 1337,
      "pada": 1338,
      "czni": 1339,
      "ĠpeÅĤ": 1340,
      "mp": 1341,
      "mach": 1342,
      "Ġmnie": 1343,
      "mat": 1344,
      "ĠktÃ³rym": 1345,
      "mienia": 1346,
      "Ġwzg": 1347,
      "201": 1348,
      "jski": 1349,
      "ĠjÄĻzy": 1350,
      "dÅĤug": 1351,
      "dno": 1352,
      "199": 1353,
      "Ġnich": 1354,
      "czej": 1355,
      "zd": 1356,
      "ĠÅĽwiat": 1357,
      "Ġpis": 1358,
      "ke": 1359,
      "Ġsko": 1360,
      "cych": 1361,
      "nowa": 1362,
      "rzenia": 1363,
      "ÅĦska": 1364,
      "ir": 1365,
      "Ġtwo": 1366,
      "ĠnastÄĻp": 1367,
      "ĠzewnÄĻtrz": 1368,
      "ryty": 1369,
      "Je": 1370,
      "tury": 1371,
      "star": 1372,
      "Ġthe": 1373,
      "Ġzale": 1374,
      "Ġsza": 1375,
      "10": 1376,
      "ĠAl": 1377,
      "Ġwykona": 1378,
      "Ġkilka": 1379,
      "ut": 1380,
      "ten": 1381,
      "ÅĽwia": 1382,
      "scy": 1383,
      "ces": 1384,
      "ĠktÃ³rej": 1385,
      "Ġprzeciw": 1386,
      "rab": 1387,
      "nki": 1388,
      "czyÅĤ": 1389,
      "Ġmiasta": 1390,
      "ĠPra": 1391,
      "Ġtere": 1392,
      "lna": 1393,
      "wÃ³j": 1394,
      "ĠWe": 1395,
      "dzin": 1396,
      "ĠSo": 1397,
      "ĠbÄĻdÄħ": 1398,
      "stro": 1399,
      "ĠksiÄħ": 1400,
      "ĠPrzy": 1401,
      "dziÅĤ": 1402,
      "liÅĽmy": 1403,
      "Ġprogra": 1404,
      "ĠsposÃ³b": 1405,
      "wane": 1406,
      "cen": 1407,
      "dem": 1408,
      "ÅĽnia": 1409,
      "wen": 1410,
      "stÄħpi": 1411,
      "20": 1412,
      "wanie": 1413,
      "tej": 1414,
      "Ġmuzy": 1415,
      "chy": 1416,
      "isku": 1417,
      "ciÄĻ": 1418,
      "ĠmogÄħ": 1419,
      "ĠspoÅĤe": 1420,
      "ĠAn": 1421,
      "owiÄħ": 1422,
      "ĠpÃ³Åºniej": 1423,
      "ler": 1424,
      "Ġmiejscowo": 1425,
      "Ġwrze": 1426,
      "net": 1427,
      "Ġsku": 1428,
      "Ġsi": 1429,
      "Å¼u": 1430,
      "ÅĤych": 1431,
      "Ġbie": 1432,
      "Ġha": 1433,
      "Ġtam": 1434,
      "ĠpoÅĤo": 1435,
      "Ġdnia": 1436,
      "Ġprzedsta": 1437,
      "ble": 1438,
      "ĠciÄħ": 1439,
      "ĠDe": 1440,
      "ĠwiÄĻc": 1441,
      "Åºdzie": 1442,
      "toli": 1443,
      "Ġ0": 1444,
      "Ġstanowi": 1445,
      "ĠzwiÄħza": 1446,
      "per": 1447,
      "niÄħ": 1448,
      "ĠpÅĤy": 1449,
      "Ġdzieci": 1450,
      "Å¼enia": 1451,
      "ĠCa": 1452,
      "gÄĻ": 1453,
      "bywa": 1454,
      "ĠPi": 1455,
      "ment": 1456,
      "Ã³j": 1457,
      "wca": 1458,
      "ĠAu": 1459,
      "Ġwarto": 1460,
      "pli": 1461,
      "Ġzmia": 1462,
      "Ġek": 1463,
      "Ġtele": 1464,
      "mio": 1465,
      "Ġuro": 1466,
      "stÃ³w": 1467,
      "Ġpoprze": 1468,
      "Ġobec": 1469,
      "ktÃ³w": 1470,
      "grani": 1471,
      "Ġwal": 1472,
      "Ġwiele": 1473,
      "Ġpom": 1474,
      "Ġsprze": 1475,
      "ĠmieszkaÅĦ": 1476,
      "Ġpubli": 1477,
      "pÅĤa": 1478,
      "Ġkiedy": 1479,
      "lnym": 1480,
      "Ġpotrze": 1481,
      "Ġnas": 1482,
      "wodni": 1483,
      "dania": 1484,
      "arÃ³w": 1485,
      "ĠAle": 1486,
      "Ġ11": 1487,
      "Do": 1488,
      "stnie": 1489,
      "noc": 1490,
      "dek": 1491,
      "ÅĤego": 1492,
      "zowa": 1493,
      "tne": 1494,
      "Å¼enie": 1495,
      "Ġstra": 1496,
      "try": 1497,
      "lega": 1498,
      "Ġlicz": 1499,
      "ÅĽla": 1500,
      "jÄħca": 1501,
      "ĠNaj": 1502,
      "cÄĻ": 1503,
      "Ġarty": 1504,
      "ibli": 1505,
      "Ġv": 1506,
      "rek": 1507,
      "teria": 1508,
      ".,": 1509,
      "ard": 1510,
      "wiÄĻk": 1511,
      "ĠzaÅĤo": 1512,
      "Ġpara": 1513,
      "lie": 1514,
      "czywi": 1515,
      "uje": 1516,
      "ÅĦskiej": 1517,
      "Ġtrzy": 1518,
      "ckiej": 1519,
      "Ã©": 1520,
      "ĠJo": 1521,
      "ĠmÅĤo": 1522,
      "ĠwÅĤaÅĽci": 1523,
      "ĠnaleÅ¼y": 1524,
      "Ġofer": 1525,
      "Ġszyb": 1526,
      "lenia": 1527,
      "Ġtre": 1528,
      "nicy": 1529,
      "dow": 1530,
      "Nie": 1531,
      "dÄħ": 1532,
      "stwie": 1533,
      "dziÄĩ": 1534,
      "Ġdoty": 1535,
      "kowi": 1536,
      "sti": 1537,
      "ctwa": 1538,
      "mniej": 1539,
      "jo": 1540,
      "dia": 1541,
      "Ġzespo": 1542,
      "tion": 1543,
      "nosi": 1544,
      "ĠjÄħ": 1545,
      "ÅĽrÃ³d": 1546,
      "Å¼ona": 1547,
      "ĠHa": 1548,
      "Ġ30": 1549,
      "rywa": 1550,
      "dej": 1551,
      "Ġstanie": 1552,
      "lub": 1553,
      "ministra": 1554,
      "lia": 1555,
      "wiera": 1556,
      "ĠWiel": 1557,
      "ÅĤowa": 1558,
      "rea": 1559,
      "skÄħ": 1560,
      "sÃ³w": 1561,
      "pew": 1562,
      "mowa": 1563,
      "IE": 1564,
      "Ġjedy": 1565,
      "Ġniez": 1566,
      "ĠGo": 1567,
      "Ġzro": 1568,
      "ote": 1569,
      "mieni": 1570,
      "Ġdwa": 1571,
      "ktÃ³": 1572,
      "Ġponad": 1573,
      "min": 1574,
      "ĠMu": 1575,
      "inki": 1576,
      "spÃ³ÅĤ": 1577,
      "ĠÅĽwie": 1578,
      "ĠTy": 1579,
      "Ġspecja": 1580,
      "Ġkonie": 1581,
      "por": 1582,
      "ĠwÅĤo": 1583,
      "ĠGa": 1584,
      "ly": 1585,
      "obacz": 1586,
      "ÅĤej": 1587,
      "ok": 1588,
      "stos": 1589,
      "ĠJan": 1590,
      "Ġprzygo": 1591,
      "ĠwieÅĽ": 1592,
      "Ġstar": 1593,
      "mii": 1594,
      "Ġwielu": 1595,
      "ĠmoÅ¼liwo": 1596,
      "fika": 1597,
      "ĠUni": 1598,
      "ĠzewnÄĻtrzne": 1599,
      "pnia": 1600,
      "kowie": 1601,
      "ĠPar": 1602,
      "ĠmÃ³w": 1603,
      "Ġpozy": 1604,
      "taj": 1605,
      "ĠJu": 1606,
      "ĠktÃ³rego": 1607,
      "ĠktÃ³rzy": 1608,
      "Ġnp": 1609,
      "Ġpor": 1610,
      "ckim": 1611,
      "biera": 1612,
      "nty": 1613,
      "15": 1614,
      "ÅĦstw": 1615,
      "Ġgospo": 1616,
      "dniej": 1617,
      "Ġfina": 1618,
      "Ġwszystkich": 1619,
      "Ġstycz": 1620,
      "czka": 1621,
      "stytu": 1622,
      "ĠRze": 1623,
      "Ġchara": 1624,
      "czki": 1625,
      "ĠOb": 1626,
      "ografia": 1627,
      "ĠczÄĻsto": 1628,
      "Åºdzier": 1629,
      "Ġwiel": 1630,
      "soby": 1631,
      "Ġobie": 1632,
      "par": 1633,
      "cyjne": 1634,
      "ĠKrzy": 1635,
      "Ġauto": 1636,
      "Ġ:": 1637,
      "Ġsier": 1638,
      "rach": 1639,
      "jÄħcego": 1640,
      "czone": 1641,
      "Ġzam": 1642,
      "Ġkul": 1643,
      "Ġotrzyma": 1644,
      "ÅĤym": 1645,
      "Ja": 1646,
      "ĠwiÄĻcej": 1647,
      "lnoÅĽÄĩ": 1648,
      "zuje": 1649,
      "Ġgro": 1650,
      "dÅĤ": 1651,
      "Ġspotka": 1652,
      "ĠzÅĤ": 1653,
      "Ġucze": 1654,
      "Ġuzy": 1655,
      "onu": 1656,
      "12": 1657,
      "Ġprzypadku": 1658,
      "Ġzgo": 1659,
      "ĠczÄĻÅĽÄĩ": 1660,
      "land": 1661,
      "ĠÅ¼ycia": 1662,
      "gna": 1663,
      "ĠpaÅºdzier": 1664,
      "czego": 1665,
      "prezen": 1666,
      "chodzÄħ": 1667,
      "ĠPu": 1668,
      "ĠXV": 1669,
      "Ġwyni": 1670,
      "wio": 1671,
      "Linki": 1672,
      "Ġlisto": 1673,
      "ĠmÄĻ": 1674,
      "wali": 1675,
      "ÅĽniej": 1676,
      "zyden": 1677,
      "Ġ,": 1678,
      "Ġznajduje": 1679,
      "ĠBar": 1680,
      "Ġdzi": 1681,
      "Ġlip": 1682,
      "pozy": 1683,
      "Ġelekt": 1684,
      "Ġnada": 1685,
      "Ġpierwszy": 1686,
      "tua": 1687,
      "ĠNi": 1688,
      "jÄĻcia": 1689,
      "Ġumie": 1690,
      "ĠkoÅĽci": 1691,
      "muje": 1692,
      "ĠzwiÄħz": 1693,
      "Ġnim": 1694,
      "Ġnr": 1695,
      "kowe": 1696,
      "ezpie": 1697,
      "row": 1698,
      "Ko": 1699,
      "ĠokoÅĤo": 1700,
      "fo": 1701,
      "ĠMie": 1702,
      "ĠThe": 1703,
      "ĠSy": 1704,
      "ĠwpÅĤy": 1705,
      "Ġczyli": 1706,
      "koÅĽci": 1707,
      "17": 1708,
      "mis": 1709,
      "Ġhistor": 1710,
      "kle": 1711,
      "ĠÅĤÄħ": 1712,
      "Ġzamie": 1713,
      "ĠPe": 1714,
      "Ġwsi": 1715,
      "ĠLo": 1716,
      "Ġkobie": 1717,
      "ss": 1718,
      "Ġkwiet": 1719,
      "Ġbardziej": 1720,
      "lenie": 1721,
      "ĠBe": 1722,
      "ld": 1723,
      "ĠDz": 1724,
      "Ġwia": 1725,
      "ĠÅĽw": 1726,
      "ĠwrzeÅĽnia": 1727,
      "dzna": 1728,
      "ĠamerykaÅĦski": 1729,
      "vi": 1730,
      "wÄĻ": 1731,
      "ÅĽni": 1732,
      "ĠksiÄħÅ¼": 1733,
      "ĠgÅĤo": 1734,
      "szko": 1735,
      "Ġsil": 1736,
      "Ġaktor": 1737,
      "Ma": 1738,
      "Ġstud": 1739,
      "ĠAnd": 1740,
      "Ġozna": 1741,
      "Ġwraz": 1742,
      "ĠmÃ³wi": 1743,
      "enera": 1744,
      "Ġtran": 1745,
      "ĠÅ¼a": 1746,
      "ple": 1747,
      "Ġstrony": 1748,
      "ĠczÅĤon": 1749,
      "czeÅĦ": 1750,
      "rwa": 1751,
      "Ġcia": 1752,
      "scho": 1753,
      "ĠSe": 1754,
      "Ġdrugie": 1755,
      "Ġzasa": 1756,
      "owarzy": 1757,
      "orÃ³w": 1758,
      "Ġmaja": 1759,
      "Ġwyb": 1760,
      "ÅĽwiad": 1761,
      "czeÅĽniej": 1762,
      "Ġrodza": 1763,
      "ĠJest": 1764,
      "rii": 1765,
      "tomiast": 1766,
      "tkowo": 1767,
      "Ġtakie": 1768,
      "Ġklasy": 1769,
      "daÅĦ": 1770,
      "ĠmiaÅĤ": 1771,
      "sÅĤugi": 1772,
      "dzeni": 1773,
      "ww": 1774,
      "ĠkaÅ¼dy": 1775,
      "Prze": 1776,
      "kla": 1777,
      "Ġnowo": 1778,
      "Ġgospodar": 1779,
      "Ġcelu": 1780,
      "it": 1781,
      "nienia": 1782,
      "Ġmniej": 1783,
      "Ġ25": 1784,
      "wski": 1785,
      "cyjnych": 1786,
      "Ġadministra": 1787,
      "16": 1788,
      "Ġczerwca": 1789,
      "ium": 1790,
      "Ġczasu": 1791,
      "Ġzaw": 1792,
      "ĠpoÅĤu": 1793,
      "ĠpÅĤa": 1794,
      "Å»": 1795,
      "Ġtru": 1796,
      "czych": 1797,
      "Zobacz": 1798,
      "Ġistnie": 1799,
      "Ġak": 1800,
      "wÄħ": 1801,
      "ctwo": 1802,
      "Ġzdoby": 1803,
      "owski": 1804,
      "wÃ³ch": 1805,
      "ĠdostÄĻp": 1806,
      "ĠrÄĻ": 1807,
      "ĠdziÄĻki": 1808,
      "âĢ¦": 1809,
      "ĠSu": 1810,
      "ĠHo": 1811,
      "ton": 1812,
      "tami": 1813,
      "ktyw": 1814,
      "Ġfran": 1815,
      "ckich": 1816,
      "tkow": 1817,
      "wersy": 1818,
      "ĠÅĽmier": 1819,
      "rom": 1820,
      "ĠzakoÅĦ": 1821,
      "Ġkilku": 1822,
      "Ġdanych": 1823,
      "ĠdÅĤugo": 1824,
      "ĠXI": 1825,
      "Å¼li": 1826,
      "rew": 1827,
      "Ġwers": 1828,
      "zja": 1829,
      "Ġwojny": 1830,
      "Ġzda": 1831,
      "ria": 1832,
      "stawie": 1833,
      "Ġot": 1834,
      "ĠdwÃ³ch": 1835,
      "Ġpozio": 1836,
      "ĠKu": 1837,
      "Ġstycznia": 1838,
      "cÅĤa": 1839,
      "rÃ³ci": 1840,
      "ĠmieszkaÅĦcÃ³w": 1841,
      "Ġgrudnia": 1842,
      "ĠBu": 1843,
      "czeniu": 1844,
      "ÅĤoÅĽÄĩ": 1845,
      "gii": 1846,
      "jÄħcej": 1847,
      "Ġ.": 1848,
      "Ġdni": 1849,
      "nami": 1850,
      "czony": 1851,
      "szczy": 1852,
      "kali": 1853,
      "ĠpoÅĽ": 1854,
      "Ġpowin": 1855,
      "szech": 1856,
      "wersyte": 1857,
      "000": 1858,
      "14": 1859,
      "Ġjeden": 1860,
      "len": 1861,
      "Ġuzna": 1862,
      "Ġsztu": 1863,
      "Ġwszystkie": 1864,
      "Ġcharakt": 1865,
      "Ġwprowa": 1866,
      "Ġreali": 1867,
      "Ġzapew": 1868,
      "Bibli": 1869,
      "chro": 1870,
      "ĠNe": 1871,
      "Ġci": 1872,
      "ĠksiÄĻ": 1873,
      "Ġzaj": 1874,
      "Ġtytu": 1875,
      "mowy": 1876,
      "pita": 1877,
      "ĠHe": 1878,
      "szcz": 1879,
      "ĠpiÅĤka": 1880,
      "jÄħcym": 1881,
      "Ġpowierz": 1882,
      "Ġkosz": 1883,
      "prac": 1884,
      "bezpie": 1885,
      "ver": 1886,
      "Ġsamy": 1887,
      "wala": 1888,
      "kowy": 1889,
      "Ġter": 1890,
      "ĠDu": 1891,
      "Ġsprzeda": 1892,
      "Ġne": 1893,
      "Ġpowodu": 1894,
      "Ġkole": 1895,
      "Ġuzyska": 1896,
      "Ġmateria": 1897,
      "szenia": 1898,
      "wem": 1899,
      "Ġuda": 1900,
      "Ġmarca": 1901,
      "om": 1902,
      "cenia": 1903,
      "com": 1904,
      "Ġoka": 1905,
      "Ġzapa": 1906,
      "Ġpisa": 1907,
      "qu": 1908,
      "owana": 1909,
      "istory": 1910,
      "Ġpy": 1911,
      "ĠY": 1912,
      "zw": 1913,
      "ĠprÃ³": 1914,
      "Ġnajlep": 1915,
      "ĠRu": 1916,
      "bro": 1917,
      "Ġkwietnia": 1918,
      "onÄħ": 1919,
      "ĠpaÅºdziernika": 1920,
      "ÅĽciÄħ": 1921,
      "lin": 1922,
      "Bibliografia": 1923,
      "Ġtro": 1924,
      "ĠWil": 1925,
      "Ġlek": 1926,
      "Ġmusi": 1927,
      "Ġkier": 1928,
      "wany": 1929,
      "owiada": 1930,
      "jskiej": 1931,
      "ĠszczegÃ³l": 1932,
      "Ġsytua": 1933,
      "Ġpolityk": 1934,
      "Ġbudy": 1935,
      "nios": 1936,
      "ĠwystÄĻpu": 1937,
      "bardziej": 1938,
      "Ġludzi": 1939,
      "iaÅĤ": 1940,
      "Ġlipca": 1941,
      "Ġmin": 1942,
      "Ġsam": 1943,
      "Ġdwu": 1944,
      "Ġpan": 1945,
      "30": 1946,
      "ÅĦskie": 1947,
      "III": 1948,
      "jÄħcÄħ": 1949,
      "lÄĻd": 1950,
      "nes": 1951,
      "lii": 1952,
      "Ġwybra": 1953,
      "Ġnam": 1954,
      "Ġdaw": 1955,
      "Ġzwie": 1956,
      "cznoÅĽci": 1957,
      "Åļ": 1958,
      "ina": 1959,
      "cjona": 1960,
      "ĠZe": 1961,
      "Ġpodstaw": 1962,
      "ÅĦskim": 1963,
      "lnÄħ": 1964,
      "Ġzg": 1965,
      "Ġand": 1966,
      "Ġinne": 1967,
      "czyna": 1968,
      "fii": 1969,
      "ĠpoÅĤÄħ": 1970,
      "stan": 1971,
      "naj": 1972,
      "ang": 1973,
      "Å¼eli": 1974,
      "ĠjeÅĽli": 1975,
      "laz": 1976,
      "Ġul": 1977,
      "Ġzawiera": 1978,
      "nÄħÄĩ": 1979,
      "ĠpoczÄħtku": 1980,
      "Ġkomu": 1981,
      "va": 1982,
      "ĠDzie": 1983,
      "Ġwszystkim": 1984,
      "Ġsek": 1985,
      "bur": 1986,
      "jska": 1987,
      "Ġsierpnia": 1988,
      "byt": 1989,
      "//": 1990,
      "11": 1991,
      "Ġjakie": 1992,
      "Ġzde": 1993,
      "gÄħ": 1994,
      "Ġlistopada": 1995,
      "ĠFa": 1996,
      "ĠIII": 1997,
      "Ġwymaga": 1998,
      "ĠÅº": 1999,
      "gh": 2000,
      "twa": 2001,
      "Ġregu": 2002,
      "cyjny": 2003,
      "ĠwaÅ¼": 2004,
      "jcie": 2005,
      "Ġsez": 2006,
      "Ġwojs": 2007,
      "ĠwspÃ³l": 2008,
      "Ġfrancu": 2009,
      "tur": 2010,
      "Ġfo": 2011,
      "Ġwarun": 2012,
      "Ġdecy": 2013,
      "szenie": 2014,
      "Ġwska": 2015,
      "Ġsiebie": 2016,
      "Od": 2017,
      "czeni": 2018,
      "Ġsame": 2019,
      "wyÅ¼": 2020,
      "Ġgrani": 2021,
      "ĠzostaÅĤy": 2022,
      "Ġkonku": 2023,
      "mien": 2024,
      "ĠosiÄħ": 2025,
      "ĠJed": 2026,
      "Å¼ony": 2027,
      "ĠrozwiÄħza": 2028,
      "ĠUS": 2029,
      "Åģ": 2030,
      "Ġterenie": 2031,
      "ĠRy": 2032,
      "Ġjednost": 2033,
      "ĠtÅĤu": 2034,
      "Ġponie": 2035,
      "Ġinte": 2036,
      "Ġzawo": 2037,
      "czeÅĽnie": 2038,
      "Ġostatni": 2039,
      "Ġokoli": 2040,
      "zacja": 2041,
      "tory": 2042,
      "ttp": 2043,
      "tedy": 2044,
      "ĠczÅĤowie": 2045,
      "czonych": 2046,
      "zmu": 2047,
      "logii": 2048,
      "Ro": 2049,
      "ĠobowiÄħ": 2050,
      "Ġkto": 2051,
      "Ġosoby": 2052,
      "Ġpodob": 2053,
      "Ġprawa": 2054,
      "Ġwypo": 2055,
      "Ġchwi": 2056,
      "dne": 2057,
      "tym": 2058,
      "ĠÅ¼": 2059,
      "pular": 2060,
      "chow": 2061,
      "ntÃ³w": 2062,
      "menty": 2063,
      "kowych": 2064,
      "Ġhi": 2065,
      "ÄĻg": 2066,
      "fek": 2067,
      "owano": 2068,
      "tacji": 2069,
      "Ġmini": 2070,
      "domo": 2071,
      "://": 2072,
      "cep": 2073,
      "Ġgminie": 2074,
      "ĠCzy": 2075,
      "Ġkieru": 2076,
      "gar": 2077,
      "Ġpun": 2078,
      "ĠwczeÅĽniej": 2079,
      "50": 2080,
      "ĠnajwiÄĻk": 2081,
      "nka": 2082,
      "Ġzapo": 2083,
      "ĠnaleÅ¼a": 2084,
      "ĠXX": 2085,
      "Ġdomu": 2086,
      "13": 2087,
      "Ġkraju": 2088,
      "bio": 2089,
      "Ġczyn": 2090,
      "ĠciÄĻ": 2091,
      "Ġuczest": 2092,
      "rzenie": 2093,
      "Ġper": 2094,
      "dli": 2095,
      "ĠWarszawa": 2096,
      "Ġdoku": 2097,
      "ÅĤÃ³": 2098,
      "ĠudziaÅĤ": 2099,
      "istoria": 2100,
      "Ġprawo": 2101,
      "niki": 2102,
      "ĠWarszawie": 2103,
      "Ġgatu": 2104,
      "sem": 2105,
      "lach": 2106,
      "bia": 2107,
      "gÃ³w": 2108,
      "Ġwszystko": 2109,
      "Ġkol": 2110,
      "Ġspa": 2111,
      "ciem": 2112,
      "rami": 2113,
      "Ġzdr": 2114,
      "mentu": 2115,
      "ĠdotyczÄħ": 2116,
      "publi": 2117,
      "kowej": 2118,
      "ĠNo": 2119,
      "jÃ³w": 2120,
      "zio": 2121,
      "Ġczym": 2122,
      "AN": 2123,
      "Ġmode": 2124,
      "narod": 2125,
      "Ġproce": 2126,
      "ciel": 2127,
      "cego": 2128,
      "zer": 2129,
      "emo": 2130,
      "Ġmiasto": 2131,
      "woje": 2132,
      "Ġtakich": 2133,
      "Ġokresie": 2134,
      "ĠnastÄĻpnie": 2135,
      "blem": 2136,
      "ÅĤow": 2137,
      "Ka": 2138,
      "lacji": 2139,
      "kcja": 2140,
      "Ġalbo": 2141,
      "Ġpowiecie": 2142,
      "Ġzawsze": 2143,
      "ĠoÅĽ": 2144,
      "leÅ¼": 2145,
      "les": 2146,
      "Ġ24": 2147,
      "biÄĩ": 2148,
      "jskich": 2149,
      "Ġniego": 2150,
      "Ġ190": 2151,
      "Ġmiejscu": 2152,
      "ĠKoÅĽci": 2153,
      "ĠaÅ¼": 2154,
      "Ġpier": 2155,
      "tel": 2156,
      "moÅ¼li": 2157,
      "eli": 2158,
      "Ġpoko": 2159,
      "Ġani": 2160,
      "jedno": 2161,
      "ĠCi": 2162,
      "ĠpÃ³ÅĤnoc": 2163,
      "Ġbe": 2164,
      "ĠNarod": 2165,
      "ĠRos": 2166,
      "tw": 2167,
      "Ġprzygotowa": 2168,
      "ĠRoz": 2169,
      "ĠÅĽwiata": 2170,
      "Ġniej": 2171,
      "Ġjaki": 2172,
      "Ġjednym": 2173,
      "Ġ22": 2174,
      "Ġtypu": 2175,
      "Ġlata": 2176,
      "iska": 2177,
      "ĠurzÄħ": 2178,
      "ĠUniwersyte": 2179,
      "bÄĻ": 2180,
      "ĠSp": 2181,
      "Ġnatomiast": 2182,
      "Ġeksp": 2183,
      "Ġkm": 2184,
      "arÃ³wno": 2185,
      "Å¼yÄĩ": 2186,
      "Ġodby": 2187,
      "Ã³g": 2188,
      "Ġsamym": 2189,
      "noÅĽciÄħ": 2190,
      "ĠpiÄĻ": 2191,
      "kom": 2192,
      "wskiego": 2193,
      "fer": 2194,
      "ĠzaÅĽ": 2195,
      "jÄħÅĤ": 2196,
      "ĠSzko": 2197,
      "ĠwÅĤaÅĽnie": 2198,
      "raca": 2199,
      "In": 2200,
      "ĠwiÄĻkszo": 2201,
      "Ġone": 2202,
      "Ġlutego": 2203,
      "siÄĻbior": 2204,
      "pia": 2205,
      "Ġklu": 2206,
      "Ġ[": 2207,
      "ĠKrÃ³": 2208,
      "cami": 2209,
      "Ġdobrze": 2210,
      "22": 2211,
      "ksztaÅĤ": 2212,
      "Ġgenera": 2213,
      "Ġ100": 2214,
      "ĠNiem": 2215,
      "mÄĻ": 2216,
      "glÄħda": 2217,
      "Pro": 2218,
      "owymi": 2219,
      "Ġramach": 2220,
      "Ġstronie": 2221,
      "ĠKar": 2222,
      "czaj": 2223,
      "Te": 2224,
      "ĠokreÅĽ": 2225,
      "Ġdom": 2226,
      "Å¼one": 2227,
      "Ã¡": 2228,
      "ita": 2229,
      "ĠniektÃ³": 2230,
      "ĠStani": 2231,
      "kÃ³ÅĤ": 2232,
      "Ġnajbardziej": 2233,
      "mysÅĤ": 2234,
      "Ġprzeprowa": 2235,
      "Ġilo": 2236,
      "ĠDla": 2237,
      "oÅĤa": 2238,
      "Ġkatoli": 2239,
      "ĠskÅĤad": 2240,
      "ĠskÅĤada": 2241,
      "Ã³ry": 2242,
      "dro": 2243,
      "ĠwzglÄĻ": 2244,
      "Ġwspo": 2245,
      "Ġho": 2246,
      "kcie": 2247,
      "dra": 2248,
      "Ġgrupy": 2249,
      "Ġloka": 2250,
      "osen": 2251,
      "Ġzakre": 2252,
      "nar": 2253,
      "Ġswoich": 2254,
      "Ġgminy": 2255,
      "Ġrazem": 2256,
      "owanych": 2257,
      "Ġmam": 2258,
      "ĠwojewÃ³dztwie": 2259,
      "szpa": 2260,
      "ĠrÃ³Å¼nych": 2261,
      "es": 2262,
      "iera": 2263,
      "Ġlotni": 2264,
      "Ġprezyden": 2265,
      "ĠokrÄĻ": 2266,
      "ĠĠĠĠ": 2267,
      "ĠSte": 2268,
      "piej": 2269,
      "ÅĦstwo": 2270,
      "sÅĤawa": 2271,
      "mentÃ³w": 2272,
      "spoli": 2273,
      "rocÅĤa": 2274,
      "Ġuli": 2275,
      "ĠÅĽwiÄĻ": 2276,
      "bÄħ": 2277,
      "siÅĤ": 2278,
      "czÄĻÅĽcie": 2279,
      "Ġtemu": 2280,
      "dziaÅĤu": 2281,
      "Ġobej": 2282,
      "ÅĦskich": 2283,
      "pol": 2284,
      "Ġhistory": 2285,
      "Ġreprezen": 2286,
      "gnie": 2287,
      "!!": 2288,
      "\".": 2289,
      "ksy": 2290,
      "198": 2291,
      "Ġona": 2292,
      "Ġzain": 2293,
      "Ġbezpie": 2294,
      "dnio": 2295,
      "Ġ189": 2296,
      "ĠswojÄħ": 2297,
      "obec": 2298,
      "ĠpamiÄĻ": 2299,
      "Uro": 2300,
      "Ġpoli": 2301,
      "ĠCen": 2302,
      "Ġregi": 2303,
      "at": 2304,
      "ĠpiÅĤkarz": 2305,
      "mpa": 2306,
      "mon": 2307,
      "Ġofi": 2308,
      "Ġbli": 2309,
      "cko": 2310,
      "Ġska": 2311,
      "Ġchce": 2312,
      "ĠwzglÄĻdu": 2313,
      "Ġsamocho": 2314,
      "Ġkry": 2315,
      "nomi": 2316,
      "jskiego": 2317,
      "ĠrozpoczÄĻ": 2318,
      "ĠcaÅĤ": 2319,
      "Ġautor": 2320,
      "let": 2321,
      "Ġpocho": 2322,
      "sach": 2323,
      "Ġwielo": 2324,
      "Ġdzien": 2325,
      "ĠFi": 2326,
      "ĠLud": 2327,
      "Ġprakty": 2328,
      "ĠÐ": 2329,
      "nkÃ³w": 2330,
      "tery": 2331,
      "21": 2332,
      "Ã³wczas": 2333,
      "uka": 2334,
      "Ġpoprzez": 2335,
      "ĠJak": 2336,
      "ĠPio": 2337,
      "wicz": 2338,
      "Ġtrwa": 2339,
      "Ġpowia": 2340,
      "Ġ2006": 2341,
      "mor": 2342,
      "Ġklie": 2343,
      "Ġge": 2344,
      "Ġstanow": 2345,
      "We": 2346,
      "aru": 2347,
      "ĠksztaÅĤ": 2348,
      "Ġpozna": 2349,
      "Ġfirmy": 2350,
      "ĠwojewÃ³dztwa": 2351,
      "Ġstwo": 2352,
      "ĠÅļwiÄĻ": 2353,
      "wiÄĩ": 2354,
      "ĠsÅĤo": 2355,
      "ĠBra": 2356,
      "Ġjedynie": 2357,
      "Ġutwo": 2358,
      "Ġtemat": 2359,
      "Ġ2011": 2360,
      "ĠtÄĻ": 2361,
      "tom": 2362,
      "kon": 2363,
      "ĠcoÅĽ": 2364,
      "Ġener": 2365,
      "nali": 2366,
      "Ġrozwo": 2367,
      "twier": 2368,
      "Ġ50": 2369,
      "Ġtek": 2370,
      "rÃ³j": 2371,
      "Ġdowo": 2372,
      "piero": 2373,
      "Ġtzw": 2374,
      "OW": 2375,
      "Ġmist": 2376,
      "ĠBer": 2377,
      "Ġpoza": 2378,
      "Ġ2004": 2379,
      "Ġkli": 2380,
      "Ġ2005": 2381,
      "dach": 2382,
      "ĠskÅĤa": 2383,
      "ĠzarÃ³wno": 2384,
      "ĠGe": 2385,
      "ĠPre": 2386,
      "wal": 2387,
      "Ġmeto": 2388,
      "ĠSi": 2389,
      "rysty": 2390,
      "Ġmoje": 2391,
      "ĠXIX": 2392,
      "zyj": 2393,
      "Ġograni": 2394,
      "niÄĩ": 2395,
      "Ġkorzysta": 2396,
      "Ġinternet": 2397,
      "Ġgry": 2398,
      "Ġsce": 2399,
      "ĠZie": 2400,
      "ĠÅ¼eby": 2401,
      "Ġzawar": 2402,
      "Ġpyta": 2403,
      "ĠWÅĤa": 2404,
      "ÅĤnie": 2405,
      "Ã³ze": 2406,
      "Ġdow": 2407,
      "Ġbia": 2408,
      "Ġarchi": 2409,
      "ĠktÃ³rÄħ": 2410,
      "ĠTu": 2411,
      "Ġdwie": 2412,
      "ĠSÄħ": 2413,
      "Ġ23": 2414,
      "mer": 2415,
      "Ġrozwi": 2416,
      "czyÅĤa": 2417,
      "wiel": 2418,
      "sh": 2419,
      "iskup": 2420,
      "Ġsiedzi": 2421,
      "Ġwzro": 2422,
      "ĠgÅĤÃ³wnie": 2423,
      "Ġwtedy": 2424,
      "chÄĻ": 2425,
      "ĠÅĽredni": 2426,
      "Ġotwar": 2427,
      "Ġkur": 2428,
      "ĠDy": 2429,
      "ĠmiejscowoÅĽÄĩ": 2430,
      "Ġpozwala": 2431,
      "czyn": 2432,
      "ĠiÅ¼": 2433,
      "Ġide": 2434,
      "Ġ2014": 2435,
      "ĠroÅĽli": 2436,
      "Ġrosy": 2437,
      "nÄħÅĤ": 2438,
      "Ġfilm": 2439,
      "danie": 2440,
      "Ġnor": 2441,
      "Ġczego": 2442,
      "ĠdziaÅĤania": 2443,
      "pospoli": 2444,
      "ĠwÄħ": 2445,
      "Ġprezen": 2446,
      "Ġbryty": 2447,
      "ian": 2448,
      "Historia": 2449,
      "Ġnatura": 2450,
      "ĠCho": 2451,
      "ĠMicha": 2452,
      "dio": 2453,
      "Ġopie": 2454,
      ".)": 2455,
      "Ġcza": 2456,
      "Ġzacho": 2457,
      "towi": 2458,
      "siÄĻcy": 2459,
      "mpi": 2460,
      "Ġobro": 2461,
      "Pa": 2462,
      "Ġtys": 2463,
      "Ġzaku": 2464,
      "Ġpole": 2465,
      "Ġang": 2466,
      "wej": 2467,
      "Ġobsz": 2468,
      "ĠÅ»y": 2469,
      "Ġwyra": 2470,
      "Ġfinans": 2471,
      "Ġdosta": 2472,
      "Ġproblem": 2473,
      "Ġ2007": 2474,
      "Ġoznacza": 2475,
      "ĠdoÅĽwiad": 2476,
      "Ġki": 2477,
      "Ġpsy": 2478,
      "Ġcen": 2479,
      "Ġ2010": 2480,
      "ph": 2481,
      "Ġkoniec": 2482,
      "Ġopera": 2483,
      "Ġrok": 2484,
      "ĠpoÅĤudni": 2485,
      "powiada": 2486,
      "Ġswojej": 2487,
      "Ġkonta": 2488,
      "dopo": 2489,
      "gdy": 2490,
      "Ġtrady": 2491,
      "iel": 2492,
      "Ġmoc": 2493,
      "czywiÅĽcie": 2494,
      "wych": 2495,
      "Re": 2496,
      "Ġkro": 2497,
      "ĠFe": 2498,
      "ĠÅĽwiecie": 2499,
      "ĠÅ¼o": 2500,
      "racji": 2501,
      "Ġstop": 2502,
      "ĠÅ¼ycie": 2503,
      "owaniu": 2504,
      "tow": 2505,
      "ĠPozna": 2506,
      "Ġ21": 2507,
      "dnych": 2508,
      "Ġwykorzy": 2509,
      "Ġzre": 2510,
      "zywa": 2511,
      "ĠchÅĤo": 2512,
      "ĠJÃ³ze": 2513,
      "ĠzostaÅĤo": 2514,
      "ĠwspÃ³ÅĤpra": 2515,
      "Ġ/": 2516,
      "Ġpowierzchni": 2517,
      "Ġprzestrze": 2518,
      "Lu": 2519,
      "cjon": 2520,
      "ĠmiaÅĤa": 2521,
      "ĠJego": 2522,
      "Ġopa": 2523,
      "Ġinnymi": 2524,
      "Ġlitera": 2525,
      "Ġwynosi": 2526,
      "ĠpoÅĤoÅ¼ona": 2527,
      "tal": 2528,
      "AT": 2529,
      "owaÅĤa": 2530,
      "Ġ1975": 2531,
      "ĠpomiÄĻdzy": 2532,
      "niesie": 2533,
      "Ġtrzeba": 2534,
      "koÅĽÄĩ": 2535,
      "pla": 2536,
      "Ġzastos": 2537,
      "Ġinformacji": 2538,
      "ĠwedÅĤug": 2539,
      "Ġ188": 2540,
      "ÅĤowy": 2541,
      "czek": 2542,
      "Ġnieza": 2543,
      "ĠWÅĤo": 2544,
      "rzej": 2545,
      "Ġfizy": 2546,
      "Ġhrab": 2547,
      "Mo": 2548,
      "Ġmiejsca": 2549,
      "Pod": 2550,
      "Ġwykorzysta": 2551,
      "Ġban": 2552,
      "tny": 2553,
      "Ġtech": 2554,
      "ĠGra": 2555,
      "kade": 2556,
      "ĠCie": 2557,
      "Ġpodej": 2558,
      "Ġlud": 2559,
      "jskie": 2560,
      "ĠgÃ³r": 2561,
      "nica": 2562,
      "Ġhistorii": 2563,
      "ĠprzedsiÄĻbior": 2564,
      "Odzna": 2565,
      "Ġdrugiej": 2566,
      "ĠwyÅĤÄħ": 2567,
      "ĠzespoÅĤu": 2568,
      "Ġdrugi": 2569,
      "ĠduÅ¼y": 2570,
      "ros": 2571,
      "lone": 2572,
      "Ġlecz": 2573,
      "Ġwielko": 2574,
      "ĠJeÅĽli": 2575,
      "ĠJana": 2576,
      "Ġodkry": 2577,
      "are": 2578,
      "gry": 2579,
      "Ġkontro": 2580,
      "ĠHi": 2581,
      "cjach": 2582,
      "tyka": 2583,
      "ĠÅĽmierci": 2584,
      "Ġniepo": 2585,
      "kol": 2586,
      "Å¼yÅĤ": 2587,
      "nienie": 2588,
      "Ġ2008": 2589,
      "kuje": 2590,
      "Ġ2012": 2591,
      "23": 2592,
      "Ġit": 2593,
      "Ġtygo": 2594,
      "Ġszero": 2595,
      "isko": 2596,
      "Ġswoim": 2597,
      "lony": 2598,
      "Ġpopular": 2599,
      "mal": 2600,
      "poÅĽ": 2601,
      "Ġeko": 2602,
      "biega": 2603,
      "niÅĤ": 2604,
      "tnych": 2605,
      "Ġznale": 2606,
      "onie": 2607,
      "ĠCze": 2608,
      "Ġprzysz": 2609,
      "ĠponiewaÅ¼": 2610,
      "Ġwyniku": 2611,
      "dego": 2612,
      "ĠÅĽwiatowej": 2613,
      "rych": 2614,
      "kwi": 2615,
      "Ġkre": 2616,
      "Ġkompu": 2617,
      "ĠStar": 2618,
      "rucho": 2619,
      "lskim": 2620,
      "ĠciÄĻÅ¼": 2621,
      "niach": 2622,
      "ĠzwyciÄĻ": 2623,
      "Ġosa": 2624,
      "cieli": 2625,
      "szÄĻ": 2626,
      "Ġeg": 2627,
      "karz": 2628,
      "24": 2629,
      "Ġochro": 2630,
      "Ġhttp": 2631,
      "tnoÅĽci": 2632,
      "krotnie": 2633,
      "towy": 2634,
      "ĠJoh": 2635,
      "cem": 2636,
      "ĠHen": 2637,
      "ĠSer": 2638,
      "197": 2639,
      "Ġstru": 2640,
      "Ġtechni": 2641,
      "Ġ2000": 2642,
      "Ġ28": 2643,
      "gniÄĻ": 2644,
      "Ġzu": 2645,
      "Ġtaki": 2646,
      "Ġ27": 2647,
      "Ġwody": 2648,
      "Ġprofe": 2649,
      "ger": 2650,
      "Ġrodzin": 2651,
      "Ġchoro": 2652,
      "przy": 2653,
      "Ġteraz": 2654,
      "ĠmiesiÄħ": 2655,
      "sio": 2656,
      "kacji": 2657,
      "bor": 2658,
      "ĠchoÄĩ": 2659,
      "ĠwÅĽrÃ³d": 2660,
      "spa": 2661,
      "Ġcu": 2662,
      "wego": 2663,
      "ĠrzÄħ": 2664,
      "ĠwÃ³wczas": 2665,
      "Ġsamolo": 2666,
      "tuje": 2667,
      "Ã¼": 2668,
      "ĠÅļwia": 2669,
      "Ġmili": 2670,
      "Å¼czy": 2671,
      "Ġbudow": 2672,
      "rÃ³t": 2673,
      "Ġtem": 2674,
      "ĠPow": 2675,
      "dyna": 2676,
      "ĠRob": 2677,
      "cyjnego": 2678,
      "....": 2679,
      "Ġsport": 2680,
      "Ġtelewi": 2681,
      "gle": 2682,
      "ĠpiÅĤ": 2683,
      "Ġpostaci": 2684,
      "nale": 2685,
      "Ġ26": 2686,
      "Ġwsze": 2687,
      "listy": 2688,
      "wor": 2689,
      "szki": 2690,
      "Ġ2016": 2691,
      "prasza": 2692,
      "Ġnowe": 2693,
      "ĠuwaÅ¼a": 2694,
      "lina": 2695,
      "niejsze": 2696,
      "logia": 2697,
      "ĠnastÄĻpu": 2698,
      "ĠzwiÄħzku": 2699,
      "rzÄħdza": 2700,
      "Ġ2009": 2701,
      "Ġprzej": 2702,
      "sek": 2703,
      "Ġpodstawie": 2704,
      "fikowa": 2705,
      "Ġsuk": 2706,
      "Ġrodziny": 2707,
      "ĠMia": 2708,
      "Ġeuro": 2709,
      "tan": 2710,
      "ff": 2711,
      "stety": 2712,
      "Ġdokona": 2713,
      "25": 2714,
      "Ġobraz": 2715,
      "AR": 2716,
      "Ġ2013": 2717,
      "tkowa": 2718,
      "ĠPan": 2719,
      "torem": 2720,
      "rzym": 2721,
      "ĠPola": 2722,
      "ĠmoÅ¼liwoÅĽÄĩ": 2723,
      "gan": 2724,
      "Ġprzede": 2725,
      "dzone": 2726,
      "ĠEurope": 2727,
      "ĠwzglÄĻd": 2728,
      "cym": 2729,
      "Ġkraj": 2730,
      "Ġpolska": 2731,
      "ĠmiejscowoÅĽci": 2732,
      "Ta": 2733,
      "widu": 2734,
      "tna": 2735,
      "ĠPierw": 2736,
      "cyjnej": 2737,
      "ĠusÅĤu": 2738,
      "Ġproble": 2739,
      "son": 2740,
      "Ġkrzy": 2741,
      "czÄħÅĤ": 2742,
      "Ġzapro": 2743,
      "ou": 2744,
      "zdy": 2745,
      "ST": 2746,
      "ĠÅļlÄħ": 2747,
      "br": 2748,
      "Ġskrzy": 2749,
      "Ġpomoc": 2750,
      "ĠPie": 2751,
      "Ġnapisa": 2752,
      "Ġwyposa": 2753,
      "Ġrzecz": 2754,
      "kowego": 2755,
      "Ġ2015": 2756,
      "Ġodda": 2757,
      "ĠzwiÄĻk": 2758,
      "ciela": 2759,
      "twÃ³r": 2760,
      "Ġmor": 2761,
      "ll": 2762,
      "ĠBi": 2763,
      "zg": 2764,
      "ĠdzieÅĦ": 2765,
      "ĠmieÄĩ": 2766,
      "ĠwystÄĻp": 2767,
      "dzÄĻ": 2768,
      "dzieÄĩ": 2769,
      "towe": 2770,
      "cenie": 2771,
      "kowski": 2772,
      "lew": 2773,
      "Ġsprawie": 2774,
      "dopodob": 2775,
      "ĠPla": 2776,
      "Ġpierwsze": 2777,
      "ĠpaÅĦstw": 2778,
      "ĠSan": 2779,
      "Ġprzedstawi": 2780,
      "ĠnaleÅ¼Äħ": 2781,
      "wana": 2782,
      "Ġkoncer": 2783,
      "Ġdzis": 2784,
      "Ġczar": 2785,
      "ĠzespÃ³ÅĤ": 2786,
      "cyjnie": 2787,
      "ĠprzykÅĤad": 2788,
      "Ġ2002": 2789,
      "ĠpiÄĻk": 2790,
      "Ġdie": 2791,
      "Ġobecnie": 2792,
      "Ġwyzna": 2793,
      "Ġrynku": 2794,
      "sch": 2795,
      "unda": 2796,
      "togra": 2797,
      "Ġdrew": 2798,
      "ĠSie": 2799,
      "nuje": 2800,
      "Ġzdecy": 2801,
      "ĠBry": 2802,
      "Ġpotrzeb": 2803,
      "ĠciÄħgu": 2804,
      "ĠÅĽwiad": 2805,
      "mencie": 2806,
      "IA": 2807,
      "ĠpaÅĦstwa": 2808,
      "Ġnic": 2809,
      "Ġblo": 2810,
      "Ġaktyw": 2811,
      "Urodzeni": 2812,
      "mawia": 2813,
      "krÄĻ": 2814,
      "ad": 2815,
      "Ġwywo": 2816,
      "trÃ³w": 2817,
      "rum": 2818,
      "Ġkonstru": 2819,
      "ĠGu": 2820,
      "Ġforma": 2821,
      "iÄħ": 2822,
      "Ġdlatego": 2823,
      "Ġponow": 2824,
      "czeÅĦstwa": 2825,
      "ĠJednak": 2826,
      "ĠGdy": 2827,
      "ĠSto": 2828,
      "ĠPR": 2829,
      "ĠInter": 2830,
      "Ġpracow": 2831,
      "Ġkwa": 2832,
      "Ġgmina": 2833,
      "ĠogÃ³l": 2834,
      "mbo": 2835,
      "Ġanty": 2836,
      "jona": 2837,
      "ĠUSA": 2838,
      "usza": 2839,
      "twarza": 2840,
      "tkÃ³w": 2841,
      "owiec": 2842,
      "Ġ2017": 2843,
      "ĠAda": 2844,
      "Ġpolskich": 2845,
      "ĠtwÃ³r": 2846,
      "lona": 2847,
      "ĠFor": 2848,
      "ĠdruÅ¼y": 2849,
      "krai": 2850,
      "teres": 2851,
      "ĠzaczÄĻ": 2852,
      "ĠPrzed": 2853,
      "kÅĤadu": 2854,
      "Ġindy": 2855,
      "moc": 2856,
      "Li": 2857,
      "cent": 2858,
      "âĢŀ": 2859,
      "rzyÄĩ": 2860,
      "ĠAng": 2861,
      "Ġprzyja": 2862,
      "Dz": 2863,
      "Ġzni": 2864,
      "Ġwscho": 2865,
      "Ġodci": 2866,
      "Odznaczeni": 2867,
      "pÄĻ": 2868,
      "ĠSpo": 2869,
      "ĠwartoÅĽci": 2870,
      "Ã¶": 2871,
      "au": 2872,
      "Ġkonkur": 2873,
      "ĠZjedno": 2874,
      "ĠcaÅĤkowi": 2875,
      "Ġbyli": 2876,
      "owoÅĽci": 2877,
      "ĠWrocÅĤa": 2878,
      "sami": 2879,
      "tecznie": 2880,
      "Ġinwe": 2881,
      "Ġprywa": 2882,
      "Ġpotra": 2883,
      "Ġpochodzenia": 2884,
      "Ġgodzi": 2885,
      "Ġwymia": 2886,
      "ĠnaleÅ¼aÅĤa": 2887,
      "ĠspÃ³ÅĤ": 2888,
      "lscy": 2889,
      "stry": 2890,
      "Ġcharaktery": 2891,
      "gÅĤo": 2892,
      "Ġproces": 2893,
      "Ġpiosen": 2894,
      "dal": 2895,
      "ĠpomocÄħ": 2896,
      "dami": 2897,
      "Ġ29": 2898,
      "Ġserwi": 2899,
      "nione": 2900,
      "Ġnaszej": 2901,
      "wiek": 2902,
      "\",": 2903,
      "feren": 2904,
      "ĠGru": 2905,
      "tali": 2906,
      "ĠÅºrÃ³d": 2907,
      "ĠumoÅ¼li": 2908,
      "gram": 2909,
      "ĠGÃ³r": 2910,
      "1998": 2911,
      "Ġcieka": 2912,
      "lno": 2913,
      "ĠreÅ¼y": 2914,
      "Å¼na": 2915,
      "Ġprzezna": 2916,
      "ĠuÅ¼ytkow": 2917,
      "Ġnazwa": 2918,
      "bry": 2919,
      "onÃ³w": 2920,
      "Ġwykony": 2921,
      "40": 2922,
      "Ġartyku": 2923,
      "Ġjednego": 2924,
      "czÄĻÅĽciej": 2925,
      "Ġchcia": 2926,
      "czona": 2927,
      "czym": 2928,
      "Ġ186": 2929,
      "Ġ2003": 2930,
      "Ġznalaz": 2931,
      "ĠdziaÅĤalnoÅĽci": 2932,
      "id": 2933,
      "Ġ40": 2934,
      "ĠgdyÅ¼": 2935,
      "Ġkan": 2936,
      "Ġswojego": 2937,
      "Å¼em": 2938,
      "--": 2939,
      "ĠwyjÄħ": 2940,
      "Cz": 2941,
      "ura": 2942,
      "Ġnarod": 2943,
      "wÅĤa": 2944,
      "fie": 2945,
      "rie": 2946,
      "Sz": 2947,
      "Ġszybko": 2948,
      "Ġdziedzi": 2949,
      "Ġdobre": 2950,
      "ĠbezpoÅĽ": 2951,
      "Ġnapraw": 2952,
      "zwy": 2953,
      "Wie": 2954,
      "jach": 2955,
      "Ġorganiza": 2956,
      "Naj": 2957,
      "liwoÅĽci": 2958,
      "Ġâ": 2959,
      "ĠÅ¼oÅĤnie": 2960,
      "ĠswÃ³j": 2961,
      "nic": 2962,
      "ER": 2963,
      "ĠMist": 2964,
      "koÅĤa": 2965,
      "Ġ187": 2966,
      "nisty": 2967,
      "ciÄĩ": 2968,
      "syw": 2969,
      "Ġtur": 2970,
      "Ġfe": 2971,
      "Ġokres": 2972,
      "Ð°": 2973,
      "towaÅĤ": 2974,
      "Ġpora": 2975,
      "Ġzakresie": 2976,
      "np": 2977,
      "Ġefek": 2978,
      "Ġpojawi": 2979,
      "Ġy": 2980,
      "Ġkompozy": 2981,
      "Ġkos": 2982,
      "ĠCe": 2983,
      "ortu": 2984,
      "ĠPolskiego": 2985,
      "Ġmamy": 2986,
      "Ġcoraz": 2987,
      "Ġzm": 2988,
      "Ġpodzie": 2989,
      "wki": 2990,
      "Ġcel": 2991,
      "ego": 2992,
      "ĠÂ": 2993,
      "ĠdziÅĽ": 2994,
      "serwa": 2995,
      "kolwiek": 2996,
      "Ġnauczy": 2997,
      "Ġtutaj": 2998,
      "ĠÅĽrodow": 2999,
      "Ġreli": 3000,
      "ĠSzcze": 3001,
      "Ġwynika": 3002,
      "Ġhand": 3003,
      "ĠmÄĻÅ¼czy": 3004,
      "Ġl": 3005,
      "Ġsieci": 3006,
      "Ġisto": 3007,
      "wienia": 3008,
      "Å»y": 3009,
      "organi": 3010,
      "ĠCar": 3011,
      "Ġdrze": 3012,
      "Ġwyja": 3013,
      "Ġjednej": 3014,
      "Ġ1945": 3015,
      "Ġmaszy": 3016,
      "sied": 3017,
      "Ġran": 3018,
      "Ġpierwszej": 3019,
      "To": 3020,
      "ĠPolska": 3021,
      "stka": 3022,
      "para": 3023,
      "Ġtrzech": 3024,
      "cznymi": 3025,
      "Ġstaro": 3026,
      "pisu": 3027,
      "Ġprzyzna": 3028,
      "wym": 3029,
      "Ġ2001": 3030,
      "ĠMini": 3031,
      "ĠsÅĤuÅ¼": 3032,
      "Ġnowych": 3033,
      "ĠzajÄĻ": 3034,
      "ĠMy": 3035,
      "ÅĤat": 3036,
      "ĠJez": 3037,
      "Ġ60": 3038,
      "ĠwysokoÅĽci": 3039,
      "Ġprzyj": 3040,
      "Ġbio": 3041,
      "Ġzbud": 3042,
      "ĠszkoÅĤy": 3043,
      "Ġpotem": 3044,
      "Ð¾": 3045,
      "Ġprodukcji": 3046,
      "Ġwido": 3047,
      "ĠkoÅĦca": 3048,
      "ĠuwagÄĻ": 3049,
      "ĠmiÄĻ": 3050,
      "Ġniemiecki": 3051,
      "ĠkrÃ³l": 3052,
      "Ġopar": 3053,
      "Ġdal": 3054,
      "Ġche": 3055,
      "Ġrodzaju": 3056,
      "lek": 3057,
      "Ġdopiero": 3058,
      "Ġskle": 3059,
      "dniu": 3060,
      "mnia": 3061,
      "Ġczu": 3062,
      "Ġpoje": 3063,
      "ĠcaÅĤy": 3064,
      "owiem": 3065,
      "ĠEuropy": 3066,
      "chowa": 3067,
      "ĠTak": 3068,
      "Ġprzewodni": 3069,
      "jczy": 3070,
      "puszcza": 3071,
      "Ġml": 3072,
      "Ġrozwoju": 3073,
      "ft": 3074,
      "AC": 3075,
      "Ġkolo": 3076,
      "jne": 3077,
      "czono": 3078,
      "ĠmoÅ¼li": 3079,
      "rzem": 3080,
      "Ġdia": 3081,
      "lozo": 3082,
      "trza": 3083,
      "daÄĩ": 3084,
      "Ġtempera": 3085,
      "Ġprogram": 3086,
      "Ġcm": 3087,
      "Ġpowi": 3088,
      "ĠHar": 3089,
      "giem": 3090,
      "tyczne": 3091,
      "Ġprawie": 3092,
      "ĠobowiÄħz": 3093,
      "Ġstwier": 3094,
      "ĠsÅĤowa": 3095,
      "ĠmoÅ¼liwoÅĽci": 3096,
      "woli": 3097,
      "Ġple": 3098,
      "towaÄĩ": 3099,
      "Ġtowarzy": 3100,
      "45": 3101,
      "Ġziemi": 3102,
      "Ġtar": 3103,
      "Ġzau": 3104,
      "ĠRady": 3105,
      "nin": 3106,
      ".:": 3107,
      "ĠsÅĤa": 3108,
      "Ġdosko": 3109,
      "Ġher": 3110,
      "Ġpochodzi": 3111,
      "szuki": 3112,
      "ĠAleks": 3113,
      "spi": 3114,
      "Ġniewiel": 3115,
      "ĠjednÄħ": 3116,
      "Ġrea": 3117,
      "czno": 3118,
      "krzy": 3119,
      "ktual": 3120,
      "ĠmyÅĽ": 3121,
      "piÄĻ": 3122,
      "ted": 3123,
      "Ġpojawia": 3124,
      "Ġzainteres": 3125,
      "Ġusu": 3126,
      "szÅĤo": 3127,
      "cznoÅĽÄĩ": 3128,
      "ĠWal": 3129,
      "Ġwiadomo": 3130,
      "Ġtrakcie": 3131,
      "Ġwygra": 3132,
      "Ġzmiany": 3133,
      "gina": 3134,
      "Ġ:)": 3135,
      "cin": 3136,
      "ĠKaro": 3137,
      "Ġspowo": 3138,
      "Ã³gÅĤ": 3139,
      "Ġzmar": 3140,
      "ĠEl": 3141,
      "zeum": 3142,
      "misji": 3143,
      "ON": 3144,
      "Ġoce": 3145,
      "stÄħpiÅĤ": 3146,
      "tii": 3147,
      "sÅĤo": 3148,
      "bieg": 3149,
      "Ġprojekt": 3150,
      "Ġzaba": 3151,
      "Ġpoe": 3152,
      "legÅĤoÅĽci": 3153,
      "ya": 3154,
      "Ġuczestni": 3155,
      "Ġnaszych": 3156,
      "__": 3157,
      "grody": 3158,
      "chani": 3159,
      "ĠduÅ¼o": 3160,
      "plo": 3161,
      "Ludzie": 3162,
      "Ġpierwszym": 3163,
      "dzki": 3164,
      "ĠogÅĤo": 3165,
      "Ġgwia": 3166,
      "Ġ1939": 3167,
      "Ġkana": 3168,
      "ĠBia": 3169,
      "Da": 3170,
      "ĠOrder": 3171,
      "Ġpli": 3172,
      "yba": 3173,
      "ĠStu": 3174,
      "ĠBie": 3175,
      "Ġtechno": 3176,
      "widual": 3177,
      "Ġokaza": 3178,
      "Ġlinii": 3179,
      "ĠHu": 3180,
      "rzeÅĦ": 3181,
      "ĠmoÅ¼emy": 3182,
      "pospolitej": 3183,
      "dziÅĤa": 3184,
      "dziela": 3185,
      "jÄĻcie": 3186,
      "Ġsystemu": 3187,
      "Ġopi": 3188,
      "Ġdra": 3189,
      "chÃ³w": 3190,
      "Ġprofes": 3191,
      "waj": 3192,
      "ĠSej": 3193,
      "Ġinstru": 3194,
      "ĠdokÅĤad": 3195,
      "ÅĤach": 3196,
      "waran": 3197,
      "Ġata": 3198,
      "ĠNau": 3199,
      "60": 3200,
      "ÄĻsto": 3201,
      "Ġwobec": 3202,
      "Ġpomocy": 3203,
      "ÅĽciach": 3204,
      "Ġprzyczy": 3205,
      "rÃ³cz": 3206,
      "niejszych": 3207,
      "ĠznajdujÄħ": 3208,
      "ĠGre": 3209,
      "Ġoli": 3210,
      "zwa": 3211,
      "ĠNor": 3212,
      "ĠHenry": 3213,
      "szek": 3214,
      "Ġsyn": 3215,
      "Ġpapie": 3216,
      "27": 3217,
      "torzy": 3218,
      "Ġtransp": 3219,
      "EN": 3220,
      "Ġ31": 3221,
      "ĠczÅĤowieka": 3222,
      "Ġobo": 3223,
      "dzien": 3224,
      "Ġplane": 3225,
      "ĠRzeczy": 3226,
      "Ġkomple": 3227,
      "obie": 3228,
      "ktury": 3229,
      "kowo": 3230,
      "szedÅĤ": 3231,
      "nera": 3232,
      "cio": 3233,
      "Ġab": 3234,
      "cieÅ¼": 3235,
      "Ġrobi": 3236,
      "Ġprzedmio": 3237,
      "Ġkr": 3238,
      "Ġjeste": 3239,
      "ĠFrancji": 3240,
      "ĠwyglÄħda": 3241,
      "Ġinformacje": 3242,
      "Ġen": 3243,
      "Ġzy": 3244,
      "ĠDziÄĻki": 3245,
      "kowane": 3246,
      "gia": 3247,
      "Ġfra": 3248,
      "Ġcent": 3249,
      "Ġoddzia": 3250,
      "Ġbadania": 3251,
      "zÃ³w": 3252,
      "car": 3253,
      "Ġprzyro": 3254,
      "mÃ³wie": 3255,
      "Ġsytuacji": 3256,
      "wczy": 3257,
      "Ġdalej": 3258,
      "cyjna": 3259,
      "ĠwÄĻg": 3260,
      "bym": 3261,
      "Ġprojektu": 3262,
      "OR": 3263,
      "Ġreje": 3264,
      "Ġstanu": 3265,
      "ĠmyÅĽli": 3266,
      "unku": 3267,
      "tkiem": 3268,
      "Äħd": 3269,
      "Jak": 3270,
      "ĠusÅĤug": 3271,
      "tre": 3272,
      "Ġwnios": 3273,
      "Ġodpowiedzia": 3274,
      "pen": 3275,
      "ĠZwiÄħz": 3276,
      "Ġtyp": 3277,
      "waÅĤy": 3278,
      "ĠKie": 3279,
      "Ġ1999": 3280,
      "Ġobu": 3281,
      "Ġsub": 3282,
      "zimie": 3283,
      "nictwo": 3284,
      "Ġzim": 3285,
      "ĠokreÅĽla": 3286,
      "dom": 3287,
      "Ġdodatk": 3288,
      "ĠkrÃ³t": 3289,
      "ĠreÅ¼yser": 3290,
      "Mie": 3291,
      "szczegÃ³l": 3292,
      "niec": 3293,
      "strzy": 3294,
      "km": 3295,
      "dzony": 3296,
      "Ġzmieni": 3297,
      "ĠpoÅĽwiÄĻ": 3298,
      "ĠsprzÄĻ": 3299,
      "Ġpomy": 3300,
      "ĠGro": 3301,
      "Ġrzym": 3302,
      "ĠkaÅ¼dego": 3303,
      "Ġat": 3304,
      "miar": 3305,
      "ĠmiÄĻdzynarod": 3306,
      "kniÄĻ": 3307,
      "gn": 3308,
      "zjÄĻ": 3309,
      "ĠwyrÃ³Å¼": 3310,
      "ven": 3311,
      "ĠPiotr": 3312,
      "ĠsobÄħ": 3313,
      "ĠtÅĤuma": 3314,
      "ĠuÅ¼ywa": 3315,
      "kta": 3316,
      "Ġzwo": 3317,
      "ciÅĤ": 3318,
      "Ġponownie": 3319,
      "Ġsma": 3320,
      "ĠkoÅĦcu": 3321,
      "ĠUniwersytetu": 3322,
      "Ġan": 3323,
      "Ġedy": 3324,
      "ĠnaprawdÄĻ": 3325,
      "Ġbiskup": 3326,
      "ĠciaÅĤa": 3327,
      "prawia": 3328,
      "bÄĻd": 3329,
      "dowo": 3330,
      "ĠwyÅ¼": 3331,
      "ciej": 3332,
      "ĠRzeczypospolitej": 3333,
      "Ġpolskiej": 3334,
      "Ġwszel": 3335,
      "ĠdowÃ³d": 3336,
      "Ġkatego": 3337,
      "onor": 3338,
      "jnych": 3339,
      "dyn": 3340,
      "Ġwystar": 3341,
      "licza": 3342,
      "ĠÅģo": 3343,
      "bum": 3344,
      "Ġkomunika": 3345,
      "Ġrazy": 3346,
      "Ġpotwier": 3347,
      "tz": 3348,
      "Åºnie": 3349,
      "Ch": 3350,
      "ĠwzglÄĻdem": 3351,
      "Ġuni": 3352,
      "dr": 3353,
      "ĠPÃ³ÅĤ": 3354,
      "Ġczasem": 3355,
      "ĠStanisÅĤaw": 3356,
      "dnich": 3357,
      "Ġoprac": 3358,
      "lon": 3359,
      "ĠIV": 3360,
      "niony": 3361,
      "Zmar": 3362,
      "bili": 3363,
      "ÄħdÅº": 3364,
      "Ġeta": 3365,
      "ĠWin": 3366,
      "Polscy": 3367,
      "ĠpracÄĻ": 3368,
      "wnÄħ": 3369,
      "Ġ2018": 3370,
      "Ġrzeczywi": 3371,
      "AM": 3372,
      "ĠmieÅĽcie": 3373,
      "dzono": 3374,
      "ĠÅģa": 3375,
      "Ġlekko": 3376,
      "Ġpoka": 3377,
      "Ġnar": 3378,
      "iar": 3379,
      "Ġwej": 3380,
      "Co": 3381,
      "Ġnag": 3382,
      "ĠAd": 3383,
      "ÅºÄĩ": 3384,
      "ĠMon": 3385,
      "owali": 3386,
      "waÅĤa": 3387,
      "jaw": 3388,
      "Ġsen": 3389,
      "Ġzbior": 3390,
      "ÅĤaszcza": 3391,
      "Ġstara": 3392,
      "fikacji": 3393,
      "ts": 3394,
      "ĠzwiÄħzane": 3395,
      "Ġhe": 3396,
      "ĠwÅĤÄħ": 3397,
      "ĠTra": 3398,
      "Ġtry": 3399,
      "ĠCy": 3400,
      "duje": 3401,
      "Ġ80": 3402,
      "Sta": 3403,
      "Mi": 3404,
      "ĠkoÅĽciÃ³ÅĤ": 3405,
      "Ġstrze": 3406,
      "Pi": 3407,
      "Ġwier": 3408,
      "ĠSch": 3409,
      "28": 3410,
      "zem": 3411,
      "ÅĦczy": 3412,
      "ĠTur": 3413,
      "Ġwyro": 3414,
      ");": 3415,
      "26": 3416,
      "Ġboga": 3417,
      "ĠnajwaÅ¼": 3418,
      "ĠgÅĤÄĻ": 3419,
      "ĠByÅĤ": 3420,
      "ĠzaleÅ¼": 3421,
      "ĠKazimie": 3422,
      "Ġwersji": 3423,
      "stoÅĽci": 3424,
      "Ġtea": 3425,
      "line": 3426,
      "inÄĻ": 3427,
      "Ġkierunku": 3428,
      "Ġnigdy": 3429,
      "ĠQ": 3430,
      "Ġkonty": 3431,
      "Ġpart": 3432,
      "ds": 3433,
      "ĠduÅ¼e": 3434,
      "Ġrekla": 3435,
      "ĠszczegÃ³lnie": 3436,
      "torÃ³w": 3437,
      "Ġzapewnia": 3438,
      "mb": 3439,
      "196": 3440,
      "ĠKsiÄĻ": 3441,
      "klu": 3442,
      "Ġnieu": 3443,
      "ĠChi": 3444,
      "ĠmÃ³gÅĤ": 3445,
      "wolu": 3446,
      "ĠÅĽcia": 3447,
      "ÅĦca": 3448,
      "Ġindywidual": 3449,
      "ĠkaÅ¼dym": 3450,
      "ĠwewnÄĻtrz": 3451,
      "twie": 3452,
      "ĠdoÅĽÄĩ": 3453,
      "Ġszla": 3454,
      "SZ": 3455,
      "ĠÅĽwiet": 3456,
      "ĠRP": 3457,
      "Ġzaa": 3458,
      "umer": 3459,
      "ĠnajwyÅ¼": 3460,
      "ĠstanowiÄħ": 3461,
      "ÃŃ": 3462,
      "ĠMiÄĻdzy": 3463,
      "ĠjakoÅĽci": 3464,
      "Ġkryty": 3465,
      "Ġzja": 3466,
      "ĠOs": 3467,
      "Ġoficja": 3468,
      "Ġchodzi": 3469,
      "cyjnym": 3470,
      "dna": 3471,
      "ĠCza": 3472,
      "Ġoto": 3473,
      "Ġ1998": 3474,
      "CZ": 3475,
      "Ġlep": 3476,
      "ĠotrzymaÅĤ": 3477,
      "Ġhrabstwie": 3478,
      "west": 3479,
      "towych": 3480,
      "Ġutw": 3481,
      "taÄĩ": 3482,
      "Ġstand": 3483,
      "Ob": 3484,
      "lika": 3485,
      "bel": 3486,
      "Ġseria": 3487,
      "Ġznacznie": 3488,
      "Ġpobli": 3489,
      "nikiem": 3490,
      "larz": 3491,
      "Ġrzeczy": 3492,
      "jsc": 3493,
      "Ġjestem": 3494,
      "owca": 3495,
      "del": 3496,
      "Ġpolskiego": 3497,
      "Ġturysty": 3498,
      "raw": 3499,
      "Ġmedy": 3500,
      "Ġmm": 3501,
      "dostÄĻp": 3502,
      "dzeniu": 3503,
      "szty": 3504,
      "resu": 3505,
      "Ġklub": 3506,
      "Ġzawodni": 3507,
      "torium": 3508,
      "Ġzgodnie": 3509,
      "Ġdar": 3510,
      "ĠEd": 3511,
      "ĠprÄĻ": 3512,
      "Ġbowiem": 3513,
      "Ġnajmniej": 3514,
      "Ġboha": 3515,
      "ĠjednoczeÅĽnie": 3516,
      "ĠTar": 3517,
      "ĠniektÃ³rych": 3518,
      "rzeÅĽci": 3519,
      "Ġczte": 3520,
      "ĠMan": 3521,
      "orÄħ": 3522,
      "Ġbrak": 3523,
      "Ġpowy": 3524,
      "ĠpoÅĤowie": 3525,
      "ĠGÅĤÃ³w": 3526,
      "mian": 3527,
      "ĠWszyst": 3528,
      "szczenia": 3529,
      "toni": 3530,
      "Ġelektry": 3531,
      "fry": 3532,
      "towany": 3533,
      "pow": 3534,
      "ĠFranci": 3535,
      "mienie": 3536,
      "Ġ1997": 3537,
      "szyscy": 3538,
      "Ġvon": 3539,
      "dny": 3540,
      "ĠrolÄĻ": 3541,
      "Ġorganizacji": 3542,
      "owiÄħza": 3543,
      "Czy": 3544,
      "kor": 3545,
      "kowym": 3546,
      "Ġodpowiada": 3547,
      "Ġduchow": 3548,
      "Ġdziennika": 3549,
      "Ġrobo": 3550,
      "ĠMoÅ¼e": 3551,
      "Ġzbyt": 3552,
      "Ġcharakter": 3553,
      "wach": 3554,
      "Ġtyle": 3555,
      "jekt": 3556,
      "ĠbezpoÅĽredni": 3557,
      "ĠOl": 3558,
      "Ġpols": 3559,
      "ĠmaÅĤo": 3560,
      "nien": 3561,
      "ĠumoÅ¼liwia": 3562,
      "):": 3563,
      "kli": 3564,
      "Ġruchu": 3565,
      "Ġcentrum": 3566,
      "ĠroÅĽlin": 3567,
      "Ġ|": 3568,
      "WedÅĤug": 3569,
      "ony": 3570,
      "Ġprostu": 3571,
      "zujÄħ": 3572,
      "Ġchi": 3573,
      "rzeÅĽcija": 3574,
      "ĠÄĩ": 3575,
      "miec": 3576,
      "spek": 3577,
      "dzeÅĦ": 3578,
      "ecnie": 3579,
      "ĠdÅº": 3580,
      "ĠPoli": 3581,
      "29": 3582,
      "ĠZÅĤo": 3583,
      "lami": 3584,
      "tnej": 3585,
      "Ġmln": 3586,
      "Ġwysp": 3587,
      "PR": 3588,
      "48": 3589,
      "Ġart": 3590,
      "Ġowo": 3591,
      "Ġzmienia": 3592,
      "ĠCzer": 3593,
      "jecha": 3594,
      "Ġgu": 3595,
      "Ã³z": 3596,
      "Ġszczy": 3597,
      "Ġprogramu": 3598,
      "Ġtow": 3599,
      "Ġliczba": 3600,
      "Ġzoba": 3601,
      "mow": 3602,
      "Ġfunkcjon": 3603,
      "fy": 3604,
      "Ġfilozo": 3605,
      "Ġprowadzi": 3606,
      "Ġszkole": 3607,
      "Ġprawdzi": 3608,
      "ĠbÄħdÅº": 3609,
      "Ġbibli": 3610,
      "ĠStra": 3611,
      "Ġwykorzysty": 3612,
      "Ġogrom": 3613,
      "gno": 3614,
      "Ġdostar": 3615,
      "ĠLon": 3616,
      "cznik": 3617,
      "Ġatra": 3618,
      "Ã³ra": 3619,
      "Ãĵ": 3620,
      "OD": 3621,
      "ĠdziaÅĤalnoÅĽÄĩ": 3622,
      "Ġdniu": 3623,
      "Ġprzedstawia": 3624,
      "Ġzagro": 3625,
      "Åºni": 3626,
      "ĠSzy": 3627,
      "IN": 3628,
      "rzego": 3629,
      "jny": 3630,
      "czeniem": 3631,
      "ĠCon": 3632,
      "Ġjedna": 3633,
      "Ðµ": 3634,
      "Ġ+": 3635,
      "trum": 3636,
      "stria": 3637,
      "ĠukoÅĦ": 3638,
      "owaniem": 3639,
      "Ġzatru": 3640,
      "ĠprzyjÄĻ": 3641,
      "Ġzaczyna": 3642,
      "ĠwiÄĻkszoÅĽÄĩ": 3643,
      "Ġtwier": 3644,
      "Ġsamego": 3645,
      "ĠwyÅĤÄħcznie": 3646,
      "Ġkolei": 3647,
      "Ġnaszym": 3648,
      "ĠniÄħ": 3649,
      "Sa": 3650,
      "Ġzmie": 3651,
      "Ġpia": 3652,
      "dowaÅĤ": 3653,
      "Ġtermi": 3654,
      "ĠcaÅĤej": 3655,
      "ĠÅĤo": 3656,
      "lot": 3657,
      "niesio": 3658,
      "Ra": 3659,
      "Ġdr": 3660,
      "kÅĤady": 3661,
      "ĠDob": 3662,
      "Ġgrup": 3663,
      "wienie": 3664,
      "Ġpas": 3665,
      "Ġrozwija": 3666,
      "Ġ70": 3667,
      "ĠspeÅĤ": 3668,
      "ĠTowarzy": 3669,
      "ĠtytuÅĤ": 3670,
      "ĠKrakowie": 3671,
      "ĠwpÅĤyw": 3672,
      "zowane": 3673,
      "ĠzarzÄħdza": 3674,
      "Ġfirm": 3675,
      "ĠcÃ³r": 3676,
      "Ar": 3677,
      "Ġprzypo": 3678,
      "ĠAndrzej": 3679,
      "Ð¸": 3680,
      "lam": 3681,
      "skiem": 3682,
      "Å¼d": 3683,
      "ĠnazwÄĻ": 3684,
      "35": 3685,
      "ĠToma": 3686,
      "Ġpolega": 3687,
      "ĠCzar": 3688,
      "ĠnajczÄĻÅĽciej": 3689,
      "ĠFo": 3690,
      "Ġzak": 3691,
      "rzyÅĤ": 3692,
      "turze": 3693,
      "Zmarli": 3694,
      "ĠmoÅ¼esz": 3695,
      "rzÄĻdu": 3696,
      "Ġnowy": 3697,
      "Ġbroni": 3698,
      "Ġdzia": 3699,
      "Ġnaszego": 3700,
      "Ġwra": 3701,
      "rÃ³b": 3702,
      "las": 3703,
      "nim": 3704,
      "lum": 3705,
      "39": 3706,
      "isa": 3707,
      "ĠKul": 3708,
      "zn": 3709,
      "stki": 3710,
      "Ġdoprowa": 3711,
      "ĠMaria": 3712,
      "Ġile": 3713,
      "Ġwypad": 3714,
      "rzÄĻd": 3715,
      "Ġchyba": 3716,
      "ĠrzÄħd": 3717,
      "mos": 3718,
      "ĠTea": 3719,
      "Ġust": 3720,
      "szto": 3721,
      "Ġwojen": 3722,
      "sen": 3723,
      "Ġoku": 3724,
      "ĠWÅĤady": 3725,
      "niku": 3726,
      "godnie": 3727,
      "ĠmiaÅĤy": 3728,
      "ĠpochodzÄħ": 3729,
      "ĠâĢĶ": 3730,
      "dziaÅĤa": 3731,
      "ĠpostÄĻp": 3732,
      "lor": 3733,
      "Ġnowego": 3734,
      "Ġsymbo": 3735,
      "towane": 3736,
      "ĠÅĤy": 3737,
      "liÄĩ": 3738,
      "Ġparafii": 3739,
      "ĠPolskiej": 3740,
      "34": 3741,
      "dor": 3742,
      "styczne": 3743,
      "Ġproduk": 3744,
      "Ġdobra": 3745,
      "chem": 3746,
      "ĠRzy": 3747,
      "owskiego": 3748,
      "prawy": 3749,
      "wnÄħtrz": 3750,
      "Ġgodzin": 3751,
      "ĠzwÅĤaszcza": 3752,
      "ĠJÃ³zef": 3753,
      "wans": 3754,
      "nicja": 3755,
      "usa": 3756,
      "pienia": 3757,
      "80": 3758,
      "dopodobnie": 3759,
      "moÅĽci": 3760,
      "ciÄħga": 3761,
      "tus": 3762,
      "Ġodbywa": 3763,
      "ĠDi": 3764,
      "ĠHer": 3765,
      "ĠkoÅĽcioÅĤa": 3766,
      "Ġkupi": 3767,
      "ĠKi": 3768,
      "Ġchwili": 3769,
      "Ġzmniej": 3770,
      "tnego": 3771,
      "Ġmas": 3772,
      "Ġczeka": 3773,
      "Ġoczy": 3774,
      "Ġniezwy": 3775,
      "ĠporÃ³w": 3776,
      "ĠSza": 3777,
      "ĠsÅĤ": 3778,
      "ciaÅ¼": 3779,
      "Ġodwie": 3780,
      "twy": 3781,
      "jskim": 3782,
      "Ġporo": 3783,
      "owaÅ¼": 3784,
      "grywa": 3785,
      "ĠWydaw": 3786,
      "kowania": 3787,
      "wek": 3788,
      "dzkiego": 3789,
      "zÄĻ": 3790,
      "ĠrÃ³Å¼ne": 3791,
      "195": 3792,
      "Le": 3793,
      "Ġanali": 3794,
      "Ġustawy": 3795,
      "tual": 3796,
      "waÅ¼a": 3797,
      "mite": 3798,
      "Ġwysta": 3799,
      "ĠkrÃ³la": 3800,
      "dera": 3801,
      "Äħb": 3802,
      "imna": 3803,
      "iaj": 3804,
      "Ġszuka": 3805,
      "Ġdane": 3806,
      "Ġczerwo": 3807,
      "ĠzrobiÄĩ": 3808,
      "ĠInstytu": 3809,
      "ill": 3810,
      "ĠWedÅĤug": 3811,
      "Ġ90": 3812,
      "ĠNastÄĻp": 3813,
      "Ġmis": 3814,
      "ĠjÄĻzyka": 3815,
      "ĠposzczegÃ³l": 3816,
      "ĠtrochÄĻ": 3817,
      "Ġzostanie": 3818,
      "Ġprzeciwko": 3819,
      "trzymy": 3820,
      "Ġczo": 3821,
      "ĠPodczas": 3822,
      "nce": 3823,
      "Ġbram": 3824,
      "ĠprowadzÄħ": 3825,
      "ĠzdjÄĻcia": 3826,
      "ĠmaÅĤ": 3827,
      "ĠwystÄĻpuje": 3828,
      "ÅĤowi": 3829,
      "Ġnieco": 3830,
      "ĠVi": 3831,
      "Ġkonsu": 3832,
      "stych": 3833,
      "ĠÅĽwiÄħ": 3834,
      "miÄħ": 3835,
      "ĠtworzÄħ": 3836,
      "Ġimpre": 3837,
      "Ġgrupa": 3838,
      "lacja": 3839,
      "Ġare": 3840,
      "Ġinstytu": 3841,
      "Ġutrzyma": 3842,
      "ktura": 3843,
      "ght": 3844,
      "bil": 3845,
      "Ġminut": 3846,
      "ÅĽle": 3847,
      "logiczne": 3848,
      "Ġis": 3849,
      "Ġmistrzo": 3850,
      "Ġnazwy": 3851,
      "Ġadministracyjnie": 3852,
      "Ġkredy": 3853,
      "Ġgrze": 3854,
      "Ġznajdzie": 3855,
      "sol": 3856,
      "ĠZosta": 3857,
      "Ġ1996": 3858,
      "Ġnadzie": 3859,
      "derem": 3860,
      "Ġcmenta": 3861,
      "ĠwspÃ³ÅĤczes": 3862,
      "Ba": 3863,
      "ower": 3864,
      "onal": 3865,
      "Ġucie": 3866,
      "towania": 3867,
      "ĠKraj": 3868,
      "CH": 3869,
      "ĠOsta": 3870,
      "Ġinwesty": 3871,
      "Ã³Å¼": 3872,
      "Ġrozu": 3873,
      "Ġmocy": 3874,
      "Ġkomputer": 3875,
      "deÅĤ": 3876,
      "lta": 3877,
      "Pierw": 3878,
      "ine": 3879,
      "Ġpremie": 3880,
      "Ġwojnie": 3881,
      "ĠmÅĤodzie": 3882,
      "ĠsÅĤy": 3883,
      "ose": 3884,
      "gach": 3885,
      "weÅĤ": 3886,
      "rzuca": 3887,
      "ĠkÄħ": 3888,
      "Ġzawod": 3889,
      "Ġoj": 3890,
      "Ġsia": 3891,
      "ĠZjednoczonych": 3892,
      "dzeniem": 3893,
      "ĠRober": 3894,
      "Ġtrafi": 3895,
      "Ġzwykle": 3896,
      "ĠKor": 3897,
      "Ġogro": 3898,
      "Ġkapita": 3899,
      "Ġeurope": 3900,
      "ĠBryta": 3901,
      "Ġdobry": 3902,
      "ĠÃ": 3903,
      "Ġcodzien": 3904,
      "Ġwiem": 3905,
      "Ġbada": 3906,
      "Ga": 3907,
      "Ġponi": 3908,
      "Ġkobiet": 3909,
      "Ġpracu": 3910,
      "31": 3911,
      "letni": 3912,
      "Ġprzemy": 3913,
      "Ġzagrani": 3914,
      "Ġ1990": 3915,
      "wiÅĤ": 3916,
      "Ġgre": 3917,
      "dniego": 3918,
      "Ġkolejne": 3919,
      "Ġdrodze": 3920,
      "Ġpsycho": 3921,
      "landii": 3922,
      "Ġrza": 3923,
      "Ġstan": 3924,
      "Ġkatolicki": 3925,
      "zowie": 3926,
      "ĠIz": 3927,
      "Ġfotogra": 3928,
      "Ġleka": 3929,
      "Ġsezonie": 3930,
      "Ġfrancuski": 3931,
      "ĠwiÄħ": 3932,
      "sÅĤugu": 3933,
      "ĠprzeÅĤo": 3934,
      "05": 3935,
      "Ġaktorka": 3936,
      "mieniu": 3937,
      "Ġocze": 3938,
      "rad": 3939,
      "Ġtor": 3940,
      "czÄħcy": 3941,
      "owoÅĽÄĩ": 3942,
      "ĠBan": 3943,
      "Ġpokry": 3944,
      "Ġwybu": 3945,
      "peÅĤnie": 3946,
      "ĠÅ¼ydow": 3947,
      "lus": 3948,
      "Ġnasze": 3949,
      "Ġpotrafi": 3950,
      "kowÄħ": 3951,
      "Ġdrogi": 3952,
      "SR": 3953,
      "one": 3954,
      "bÃ³w": 3955,
      "ĠktoÅĽ": 3956,
      "ÅĽwiet": 3957,
      "owcÃ³w": 3958,
      "Ġkata": 3959,
      "ĠAkade": 3960,
      "strowa": 3961,
      "Ġstron": 3962,
      "www": 3963,
      "Ġprzesz": 3964,
      "Ġrazie": 3965,
      "wang": 3966,
      "Ġuczni": 3967,
      "Ġ1994": 3968,
      "ciele": 3969,
      "ĠskÅĤadni": 3970,
      "orys": 3971,
      "Ġnazywa": 3972,
      "ning": 3973,
      "ĠudaÅĤo": 3974,
      "tacja": 3975,
      "zacjÄĻ": 3976,
      "Ġnowoczes": 3977,
      "Ġprzewo": 3978,
      "jÄħcymi": 3979,
      "Ġapli": 3980,
      "lonych": 3981,
      "Ġmimo": 3982,
      "Ġzorgani": 3983,
      "Ġistnieje": 3984,
      "Ġwalki": 3985,
      "Ġbrze": 3986,
      "ĠDru": 3987,
      "The": 3988,
      "Ġpodo": 3989,
      "ĠspÄĻ": 3990,
      "undu": 3991,
      "gne": 3992,
      "Ġprzekaza": 3993,
      "Ġcywi": 3994,
      "Ġrezer": 3995,
      "nice": 3996,
      "36": 3997,
      "pierw": 3998,
      "Ġwyj": 3999,
      "Ġkontra": 4000,
      "Ġporu": 4001,
      "Ġpacje": 4002,
      "ĠpowoÅĤa": 4003,
      "lepiej": 4004,
      "biÃ³r": 4005,
      "szyÄĩ": 4006,
      "Ġwice": 4007,
      "iej": 4008,
      "noszÄħ": 4009,
      "ĠbadaÅĦ": 4010,
      "ÅĤki": 4011,
      "Ġformie": 4012,
      "Kon": 4013,
      "ÅĽciu": 4014,
      "Ġkor": 4015,
      "waÅĤo": 4016,
      "nowie": 4017,
      "ĠproduktÃ³w": 4018,
      "tycznych": 4019,
      "Ġwybo": 4020,
      "OL": 4021,
      "ÅĤek": 4022,
      "Ġnadal": 4023,
      "niami": 4024,
      "Ġwyna": 4025,
      "peÅĤnia": 4026,
      "ĠMary": 4027,
      "Ã³sÅĤ": 4028,
      "Ġoba": 4029,
      "ĠkaÅ¼dej": 4030,
      "ĠjeÅ¼eli": 4031,
      "Ġkultury": 4032,
      "ĠCha": 4033,
      "Ġwspar": 4034,
      "dowanie": 4035,
      "Ġgroma": 4036,
      "Ġpowszech": 4037,
      "Ġpoch": 4038,
      "glÄħd": 4039,
      "ĠwspÃ³ÅĤpracy": 4040,
      "ĠPuch": 4041,
      "rÃ³ciÅĤ": 4042,
      "towej": 4043,
      "ĠprÃ³b": 4044,
      "Å¼ek": 4045,
      "groma": 4046,
      "rygina": 4047,
      "Ġludzie": 4048,
      "ĠÅ¼ad": 4049,
      "ĠstronÄĻ": 4050,
      "Ġmechani": 4051,
      "pon": 4052,
      "ckÄħ": 4053,
      "Ġwojska": 4054,
      "ÅĦscy": 4055,
      "ĠCentrum": 4056,
      "Ġadres": 4057,
      "Ġedu": 4058,
      "ĠÅ¼yciu": 4059,
      "Ð½": 4060,
      "Ġnu": 4061,
      "sÅĤy": 4062,
      "09": 4063,
      "Ġserii": 4064,
      "tuj": 4065,
      "ĠPonad": 4066,
      "ĠEuropie": 4067,
      "Ġtery": 4068,
      "liny": 4069,
      "str": 4070,
      "ĠukÅĤad": 4071,
      "Å¼nej": 4072,
      "Ġplan": 4073,
      "ĠpoÅ¼y": 4074,
      "parta": 4075,
      "Ġ1944": 4076,
      "nder": 4077,
      "kierowa": 4078,
      "ĠpÄĻ": 4079,
      "Pol": 4080,
      "Ġnoc": 4081,
      "37": 4082,
      "AL": 4083,
      "Ġtwa": 4084,
      "Ġpowstania": 4085,
      "ĠniezaleÅ¼": 4086,
      "zny": 4087,
      "form": 4088,
      "Ġ1992": 4089,
      "anta": 4090,
      "zwyczaj": 4091,
      "Ġobywa": 4092,
      "ĠXVIII": 4093,
      "Ġszere": 4094,
      "rzÄħdu": 4095,
      "Ġszpita": 4096,
      "ĠznaleÅºÄĩ": 4097,
      "Ġlepiej": 4098,
      "Ġstoli": 4099,
      "Ġliczby": 4100,
      "Ġpierwszego": 4101,
      "mes": 4102,
      "Ġskute": 4103,
      "czyli": 4104,
      "tychczas": 4105,
      "Ġtelewizyj": 4106,
      "Ġuch": 4107,
      "ley": 4108,
      "Ã¤": 4109,
      "Ġhote": 4110,
      "rodek": 4111,
      "mujÄħ": 4112,
      "ÅĽmie": 4113,
      "ĠsprzedaÅ¼y": 4114,
      "Ġgwaran": 4115,
      "Ġjas": 4116,
      "Ġdzielni": 4117,
      "ĠTade": 4118,
      "ĠPaÅĦstw": 4119,
      "Ġdrewnia": 4120,
      "ĠTwo": 4121,
      "ĠwiÄĻkszoÅĽci": 4122,
      "ĠKaÅ¼": 4123,
      "Ġdziecka": 4124,
      "dnim": 4125,
      "ĠPer": 4126,
      "Ġalbum": 4127,
      "Ġhandl": 4128,
      "Ġzrobi": 4129,
      "Ġ1995": 4130,
      "ĠtysiÄĻcy": 4131,
      "ĠpeÅĤni": 4132,
      "nom": 4133,
      "Ġideal": 4134,
      "ĠmiaÅĤo": 4135,
      "Ġpowinien": 4136,
      "chowy": 4137,
      "ĠdziaÅĤaÅĦ": 4138,
      "ĠÅĽpie": 4139,
      "ĠAdam": 4140,
      "rech": 4141,
      "ĠstaÅĤ": 4142,
      "gre": 4143,
      "ctwem": 4144,
      "dgo": 4145,
      "Ġsposob": 4146,
      "Ġpodpisa": 4147,
      "Ġnimi": 4148,
      "ĠWojcie": 4149,
      "nau": 4150,
      "raj": 4151,
      "Ġwarsza": 4152,
      "ĠwÄĻ": 4153,
      "ĠdÅĤugoÅĽci": 4154,
      "ĠRi": 4155,
      "Ġkolor": 4156,
      "Ġskar": 4157,
      "ĠDoda": 4158,
      "ĠWoje": 4159,
      "cyjnÄħ": 4160,
      "Ġumowy": 4161,
      "Ġodzna": 4162,
      "By": 4163,
      "Ġdaje": 4164,
      "ĠTen": 4165,
      "06": 4166,
      "Ġ?": 4167,
      "Â²": 4168,
      "Me": 4169,
      "Ġpasa": 4170,
      "ĠOrderu": 4171,
      "puÅĽci": 4172,
      "dale": 4173,
      "Ġpierwszych": 4174,
      "ĠPÃ³ÅĤnoc": 4175,
      "Sy": 4176,
      "Ġcztery": 4177,
      "grzy": 4178,
      "ÑĢ": 4179,
      "Ġmasz": 4180,
      "ciÄħg": 4181,
      "ĠMuzeum": 4182,
      "widÅĤ": 4183,
      "Ġem": 4184,
      "Ġstuden": 4185,
      "Ġtakiego": 4186,
      "ĠrozwÃ³j": 4187,
      "Ġ;": 4188,
      "ĠKrÃ³le": 4189,
      "ĠXVI": 4190,
      "Ġ185": 4191,
      "ĠczÅĤonkÃ³w": 4192,
      "ĠiloÅĽci": 4193,
      "wÃ³d": 4194,
      "ĠfunkcjÄĻ": 4195,
      "Ġbiz": 4196,
      "38": 4197,
      "gazy": 4198,
      "Ġuz": 4199,
      "ĠKatowi": 4200,
      "Ġ1991": 4201,
      "xa": 4202,
      "cina": 4203,
      "Å¼er": 4204,
      "Ty": 4205,
      "Ġakcji": 4206,
      "ĠkomÃ³r": 4207,
      "Ġplaneto": 4208,
      "Ġitp": 4209,
      "art": 4210,
      "Ġpisarz": 4211,
      "Ġdziecko": 4212,
      "ÅĦskÄħ": 4213,
      "Ġgita": 4214,
      "Ġ1993": 4215,
      "jna": 4216,
      "fina": 4217,
      "ĠÅĽci": 4218,
      "ciorys": 4219,
      "Äĺ": 4220,
      "Ġnagra": 4221,
      "ĠPru": 4222,
      "zwo": 4223,
      "ĠFil": 4224,
      "kowanie": 4225,
      "ĠWielkiej": 4226,
      "Al": 4227,
      "Ġfilmu": 4228,
      "ÅĤami": 4229,
      "Ġteor": 4230,
      "owaÅĤy": 4231,
      "ÅĤudni": 4232,
      "Ġokazji": 4233,
      "Ġszczeg": 4234,
      "Ġtrans": 4235,
      "07": 4236,
      "pod": 4237,
      "Å¼eniu": 4238,
      "Ġrozgry": 4239,
      "ĠzamÃ³wie": 4240,
      "kowaÄĩ": 4241,
      "Ġczwar": 4242,
      "Ġpoziom": 4243,
      "NE": 4244,
      "biu": 4245,
      "ĠzostaÄĩ": 4246,
      "ĠkrÄĻ": 4247,
      "tnym": 4248,
      "Ġ&": 4249,
      "pÃ³w": 4250,
      "Ġteo": 4251,
      "ksyma": 4252,
      "waniu": 4253,
      "ĠKoÅĽcioÅĤa": 4254,
      "gaÅ¼": 4255,
      "08": 4256,
      "fon": 4257,
      "Ġduchowny": 4258,
      "ĠÅĤu": 4259,
      "Ġniedo": 4260,
      "ÅĤac": 4261,
      "ĠAleksand": 4262,
      "szczenie": 4263,
      "Ġurodzeni": 4264,
      "ĠBel": 4265,
      "Ġstre": 4266,
      "kowany": 4267,
      "Ġkwia": 4268,
      "ari": 4269,
      "katoli": 4270,
      "wzg": 4271,
      "ĠpuÅĤ": 4272,
      "nij": 4273,
      "Ġ1989": 4274,
      "Å¼ynie": 4275,
      "ĠmiesiÄĻcy": 4276,
      "brze": 4277,
      "ĠTrze": 4278,
      "Ġpowiatu": 4279,
      "Ġ...": 4280,
      "ĠÅĽrodkÃ³w": 4281,
      "ĠSh": 4282,
      "spe": 4283,
      "Ġosoba": 4284,
      "Ġfrag": 4285,
      "port": 4286,
      "Ġopis": 4287,
      "ĠBibli": 4288,
      "Ġfar": 4289,
      "ĠÃ³w": 4290,
      "ille": 4291,
      "Ġjezio": 4292,
      "die": 4293,
      "ĠchÄĻ": 4294,
      "rob": 4295,
      "ĠTh": 4296,
      "Ġzabezpie": 4297,
      "33": 4298,
      "Ġpewno": 4299,
      "lip": 4300,
      "dyda": 4301,
      "nikami": 4302,
      "Ġekonomi": 4303,
      "Ġmodel": 4304,
      "Ġangie": 4305,
      "Wi": 4306,
      "Ġkolejnych": 4307,
      "Ġnazwi": 4308,
      "ĠMor": 4309,
      "Ġprzeka": 4310,
      "04": 4311,
      "win": 4312,
      "ĠJerzy": 4313,
      "zdu": 4314,
      "ĠPary": 4315,
      "ĠMÅĤo": 4316,
      "ĠpodrÃ³Å¼": 4317,
      "ĠdotyczÄħce": 4318,
      "wanych": 4319,
      "ĠJor": 4320,
      "ĠKrakÃ³w": 4321,
      "vo": 4322,
      "kiewicz": 4323,
      "Ġode": 4324,
      "Å»yciorys": 4325,
      "ĠKrzyszto": 4326,
      "tematy": 4327,
      "Ġdwo": 4328,
      "Ġscena": 4329,
      "wska": 4330,
      "02": 4331,
      "ĠMistrzo": 4332,
      "ĠGi": 4333,
      "lec": 4334,
      "Ġx": 4335,
      "krÃ³t": 4336,
      "Ġzagra": 4337,
      "ĠumiejÄĻ": 4338,
      "Ġgrafi": 4339,
      "Ġupraw": 4340,
      "kÅĤadzie": 4341,
      "Ġpozycji": 4342,
      "ĠpowstaÅĤa": 4343,
      "Ġelektroni": 4344,
      "Ġchemi": 4345,
      "Roz": 4346,
      "46": 4347,
      "lnia": 4348,
      "Ã³rze": 4349,
      "Ġ=": 4350,
      "Ġobsza": 4351,
      "nda": 4352,
      "Ġtworzy": 4353,
      "Ġtrener": 4354,
      "Ġprzekona": 4355,
      "Ġsztuki": 4356,
      "Ġrealizacji": 4357,
      "nÄĻÅĤa": 4358,
      "Mia": 4359,
      "Ġczyta": 4360,
      "Ġsukces": 4361,
      "47": 4362,
      "Ġwyd": 4363,
      "ĠÅĽre": 4364,
      "ĠciÄħg": 4365,
      "ris": 4366,
      "ĠzdjÄĻ": 4367,
      "Ġpomie": 4368,
      "ĠprÄĻd": 4369,
      "ĠHan": 4370,
      "dzonych": 4371,
      "Ġcentra": 4372,
      "cjo": 4373,
      "Ġobok": 4374,
      "03": 4375,
      "tywy": 4376,
      "AS": 4377,
      "syÅĤa": 4378,
      "Ġpodkre": 4379,
      "ĠsiedzibÄħ": 4380,
      "cielem": 4381,
      "lis": 4382,
      "Ġenergii": 4383,
      "ĠoÅĽrod": 4384,
      "ĠcaÅĤego": 4385,
      "ĠHiszpa": 4386,
      "ĠjakÄħ": 4387,
      "Ġkorzy": 4388,
      "ĠEn": 4389,
      "ĠMikoÅĤa": 4390,
      "Ġpostanowi": 4391,
      "towanie": 4392,
      "int": 4393,
      "ĠobjÄĻ": 4394,
      "rowin": 4395,
      "ham": 4396,
      "Ġstudi": 4397,
      "OS": 4398,
      "ĠrÃ³wno": 4399,
      "gru": 4400,
      "âĢ¢": 4401,
      "ĠOp": 4402,
      "iÄĩ": 4403,
      "ĠInd": 4404,
      "Ġryzy": 4405,
      "kura": 4406,
      "Ġorygina": 4407,
      "ĠrozpoczÄħÅĤ": 4408,
      "ĠStro": 4409,
      "tnÄħ": 4410,
      "Bo": 4411,
      "ĠpracownikÃ³w": 4412,
      "Ġstudia": 4413,
      "Ġbudynku": 4414,
      "ĠludnoÅĽci": 4415,
      "dzona": 4416,
      "Ġkwest": 4417,
      "nawia": 4418,
      "chÃ³d": 4419,
      "Ġkonkre": 4420,
      "Ġhiszpa": 4421,
      "Ġam": 4422,
      "Dzie": 4423,
      "Ġulicy": 4424,
      "ĠTV": 4425,
      "Ġwybud": 4426,
      "Ġjakim": 4427,
      "fra": 4428,
      "Ġukaza": 4429,
      "Ġtakim": 4430,
      "Ġpolskie": 4431,
      "Ġwspiera": 4432,
      "Ġpomi": 4433,
      "Ġrela": 4434,
      "ĠskÃ³ry": 4435,
      "Ġprote": 4436,
      "ĠSÅĤu": 4437,
      "Ġbran": 4438,
      "terze": 4439,
      "Ġzao": 4440,
      "ĠcaÅĤym": 4441,
      "ĠJeÅ¼eli": 4442,
      "Ġbudowy": 4443,
      "ĠzdobyÅĤ": 4444,
      "Ġprace": 4445,
      "ĠgÅĤÄĻbo": 4446,
      "czer": 4447,
      "Ġpromo": 4448,
      "lerii": 4449,
      "ciÄħÅ¼": 4450,
      "ĠTym": 4451,
      "lono": 4452,
      "Au": 4453,
      "mist": 4454,
      "und": 4455,
      "Ġbrytyjski": 4456,
      "cjami": 4457,
      "Ġjapo": 4458,
      "ĠksiÄħÅ¼ÄĻ": 4459,
      "pres": 4460,
      "ĠurzÄħdzenia": 4461,
      "Ġniemal": 4462,
      "Å¼ar": 4463,
      "lety": 4464,
      "ĠJohn": 4465,
      "skar": 4466,
      "Ġludz": 4467,
      "chnia": 4468,
      "ĠWojs": 4469,
      "ĠchrzeÅĽcija": 4470,
      "Ġdoskona": 4471,
      "ĠjÄĻzyku": 4472,
      "ĠNew": 4473,
      "ÅĤonek": 4474,
      "solwen": 4475,
      "Ġznajo": 4476,
      "emokra": 4477,
      "La": 4478,
      "Ġodw": 4479,
      "Ġparafia": 4480,
      "Ġpogo": 4481,
      "Ġzob": 4482,
      "towarzy": 4483,
      "Ġstylu": 4484,
      "Ġzmian": 4485,
      "ĠgoÅĽci": 4486,
      "nionych": 4487,
      "Ġster": 4488,
      "lowa": 4489,
      "Ġpowro": 4490,
      "owicz": 4491,
      "ĠPrzez": 4492,
      "Ġkwo": 4493,
      "tysty": 4494,
      "Ġuza": 4495,
      "ĠmÅĤody": 4496,
      "Ġspecjali": 4497,
      "szymi": 4498,
      "kowskiego": 4499,
      "ĠLw": 4500,
      "Ġobra": 4501,
      "Ġrozpozna": 4502,
      "ĠTi": 4503,
      "kcje": 4504,
      "Ġpokona": 4505,
      "ĠczasÃ³w": 4506,
      "ĠDlatego": 4507,
      "tnia": 4508,
      "ĠRepubli": 4509,
      "Ġsur": 4510,
      "Ġpomaga": 4511,
      "Ġstrona": 4512,
      "ĠOli": 4513,
      "pach": 4514,
      "ĠChry": 4515,
      "44": 4516,
      "¹rÃ³d": 4517,
      "Ġtakiej": 4518,
      "Ġopisa": 4519,
      "ĠZy": 4520,
      "ĠgÅĤos": 4521,
      "ĠPonadto": 4522,
      "toÅĽci": 4523,
      "Ġfunkcji": 4524,
      "Ġwww": 4525,
      "Ġwymie": 4526,
      "ling": 4527,
      "Ġraczej": 4528,
      "ĠÅ¼Ã³ÅĤ": 4529,
      "Ġwyraz": 4530,
      "ĠAkademii": 4531,
      "Ġspad": 4532,
      "ĠTwoje": 4533,
      "ĠwokÃ³ÅĤ": 4534,
      "ĠksiÄħÅ¼ki": 4535,
      "tm": 4536,
      "SRR": 4537,
      "Ġpozwoli": 4538,
      "ĠmÄħ": 4539,
      "Ġprof": 4540,
      "giel": 4541,
      "ĠZacho": 4542,
      "ĠSÅĤo": 4543,
      "Ġ000": 4544,
      "ĠKoÅĽciÃ³ÅĤ": 4545,
      "ĠNiemiec": 4546,
      "zowaÄĩ": 4547,
      "Ġzbro": 4548,
      "Ġhu": 4549,
      "Ġbru": 4550,
      "Ġkompozytor": 4551,
      "Ġhy": 4552,
      "ĠpiÄħ": 4553,
      "ĠzamkniÄĻ": 4554,
      "Ġturniej": 4555,
      "ĠwÅĤoski": 4556,
      "ĠpiÅĤkar": 4557,
      "JeÅĽli": 4558,
      "Ġinten": 4559,
      "dnik": 4560,
      "Ġpierwo": 4561,
      "Å¼onych": 4562,
      "Ġzdrowia": 4563,
      "tarz": 4564,
      "fli": 4565,
      "ÅĦcu": 4566,
      "Ġnumer": 4567,
      "ĠamerykaÅĦska": 4568,
      "32": 4569,
      "Ġstu": 4570,
      "Ġdzisiej": 4571,
      "linie": 4572,
      "pisÃ³w": 4573,
      "praszamy": 4574,
      "dnienia": 4575,
      "Ġfirma": 4576,
      "miny": 4577,
      "zje": 4578,
      "Ġpreze": 4579,
      "Ġkoszy": 4580,
      "cone": 4581,
      "Ġgen": 4582,
      "Ġmieli": 4583,
      "dziaÅĤem": 4584,
      "Ġochrony": 4585,
      "Ġefe": 4586,
      "Ġokresu": 4587,
      "Ġwizy": 4588,
      "Ġdotychczas": 4589,
      "Ġwybiera": 4590,
      "dnoÅĽci": 4591,
      "War": 4592,
      "dÅĤa": 4593,
      "Ġradzie": 4594,
      "Ġana": 4595,
      "ĠpobliÅ¼u": 4596,
      "Ġwszyscy": 4597,
      "Ġinsta": 4598,
      "sÄħ": 4599,
      "strzega": 4600,
      "ĠWis": 4601,
      "siÄħÅ¼": 4602,
      "Ġreligi": 4603,
      "ĠOrderem": 4604,
      "Ġkrwi": 4605,
      "leÅĦ": 4606,
      "Ġpoziomie": 4607,
      "grze": 4608,
      "ĠpowaÅ¼": 4609,
      "Ġziem": 4610,
      "lian": 4611,
      "ĠpÅĤo": 4612,
      "ĠSamo": 4613,
      "49": 4614,
      "ĠbÅĤo": 4615,
      "Ġtaka": 4616,
      "Ġpotrzeby": 4617,
      "ĠusÅĤugi": 4618,
      "Ġuszko": 4619,
      "red": 4620,
      "ĠzakÅĤada": 4621,
      "Ġutra": 4622,
      "ĠniezbÄĻd": 4623,
      "Ġsamodzie": 4624,
      "roz": 4625,
      "ĠPaÅĦstwa": 4626,
      "king": 4627,
      "Ġkategorii": 4628,
      "czest": 4629,
      "dago": 4630,
      "toÅĽÄĩ": 4631,
      "ĠÅ¼oÅĤnierzy": 4632,
      "lecia": 4633,
      "ĠNastÄĻpnie": 4634,
      "Ġks": 4635,
      "ĠGdaÅĦ": 4636,
      "Ġuroczy": 4637,
      "wajÄħ": 4638,
      "Ġkontynu": 4639,
      "choty": 4640,
      "Ġur": 4641,
      "wicza": 4642,
      "Ġinnym": 4643,
      "Ameryka": 4644,
      "Ġmagazy": 4645,
      "Ġpolskim": 4646,
      "mple": 4647,
      "Å¼eÅĦ": 4648,
      "Ġzada": 4649,
      "ĠQu": 4650,
      "tak": 4651,
      "Ġsprawia": 4652,
      "ĠzaleÅ¼noÅĽci": 4653,
      "ĠwziÄĻ": 4654,
      "owcy": 4655,
      "des": 4656,
      "Ġ179": 4657,
      "Ġnauki": 4658,
      "Ġastro": 4659,
      "sji": 4660,
      "ĠAugu": 4661,
      "ĠdziaÅĤ": 4662,
      "obra": 4663,
      "tyki": 4664,
      "ĠWor": 4665,
      "ĠtreÅĽci": 4666,
      "nis": 4667,
      "ĠoczywiÅĽcie": 4668,
      "ent": 4669,
      "dowaÄĩ": 4670,
      "ĠkoÅĽcie": 4671,
      "tencja": 4672,
      "Ġolimpi": 4673,
      "Ġubezpie": 4674,
      "don": 4675,
      "Ġkobiety": 4676,
      "ĠpowstaÅĤ": 4677,
      "pieÅĦ": 4678,
      "bija": 4679,
      "spania": 4680,
      "ÄĦ": 4681,
      "Ġzaka": 4682,
      "ĠUkrai": 4683,
      "Ġsama": 4684,
      "ĠObecnie": 4685,
      "OM": 4686,
      "ĠKiedy": 4687,
      "stym": 4688,
      "produ": 4689,
      "wan": 4690,
      "Ġoni": 4691,
      "bÃ³j": 4692,
      "Ġzwro": 4693,
      "fini": 4694,
      "rÃ³ciÄĩ": 4695,
      "ĠmoÅ¼liwe": 4696,
      "Ġdocho": 4697,
      "ĠBro": 4698,
      "Ġarchite": 4699,
      "gÅĤa": 4700,
      "ĠosiÄħgniÄĻ": 4701,
      "Ġpocz": 4702,
      "zowany": 4703,
      "Ġinnego": 4704,
      "Ġnowej": 4705,
      "ĠopÅĤa": 4706,
      "Ġdyspo": 4707,
      "Ġ2019": 4708,
      "Ġdoj": 4709,
      "cony": 4710,
      "Ġorga": 4711,
      "mana": 4712,
      "ĠEu": 4713,
      "Ġprawdopodobnie": 4714,
      "que": 4715,
      "ĠWarszawy": 4716,
      "Ġobszar": 4717,
      "Ġdyplo": 4718,
      "ÅĽwiÄĻ": 4719,
      "ĠLudwi": 4720,
      "czkÄĻ": 4721,
      "wskiej": 4722,
      "ĠcaÅĤkowicie": 4723,
      "ĠWÄĻg": 4724,
      "Ġ35": 4725,
      "rektor": 4726,
      "ĠbezpieczeÅĦstwa": 4727,
      "Ġsio": 4728,
      "mentem": 4729,
      "mail": 4730,
      "Ġwskaza": 4731,
      "Ġzaraz": 4732,
      "Ġsyna": 4733,
      "Ġznaczenie": 4734,
      "ĠÅĤÃ³": 4735,
      "Ġmeta": 4736,
      "ĠpieniÄĻ": 4737,
      "jÄħÄĩ": 4738,
      "Ġprzyjem": 4739,
      "Ġwil": 4740,
      "Ġpojedyn": 4741,
      "**": 4742,
      "Ġmiesza": 4743,
      "Ġj": 4744,
      "org": 4745,
      "dry": 4746,
      "ĠzgÅĤo": 4747,
      "SK": 4748,
      "Ġdysku": 4749,
      "Ġwchodzi": 4750,
      "Ġpt": 4751,
      "Ġcesa": 4752,
      "Ġdi": 4753,
      "jazd": 4754,
      "TA": 4755,
      "rony": 4756,
      "Ġreda": 4757,
      "krÃ³tce": 4758,
      "prawa": 4759,
      "Ġnierucho": 4760,
      "nne": 4761,
      "ĠRosji": 4762,
      "ĠPoÅĤudni": 4763,
      "Ġparla": 4764,
      "70": 4765,
      "ĠOfi": 4766,
      "Ġjednostki": 4767,
      "Ġroze": 4768,
      "ĠBru": 4769,
      "Ġkomenta": 4770,
      "ĠJej": 4771,
      "Ġdrob": 4772,
      "ward": 4773,
      "Ġmusia": 4774,
      "Ġosied": 4775,
      "NA": 4776,
      "ĠprzemysÅĤ": 4777,
      "ĠCzÄĻsto": 4778,
      "Ġzatem": 4779,
      "szem": 4780,
      "Mar": 4781,
      "Ġmeczu": 4782,
      "czyÅĤy": 4783,
      "ÑĤ": 4784,
      "ĠOrgani": 4785,
      "Ġkolejny": 4786,
      "jciec": 4787,
      "ĠosiÄħg": 4788,
      "ĠdoszÅĤo": 4789,
      "dan": 4790,
      "tes": 4791,
      "rzÄħt": 4792,
      "Ġskierowa": 4793,
      "Ġpowinna": 4794,
      "Ġrzad": 4795,
      "ĠsiÅĤy": 4796,
      "ĠbezpoÅĽrednio": 4797,
      "ktora": 4798,
      "ĠSejm": 4799,
      "turÄĻ": 4800,
      "Ġciep": 4801,
      "zosta": 4802,
      "ĠMiÄĻdzynarod": 4803,
      "Ñģ": 4804,
      "woÅĽci": 4805,
      "Ġnorma": 4806,
      "dÅĤuÅ¼": 4807,
      "ela": 4808,
      "ĠStanisÅĤawa": 4809,
      "ĠZwiÄħzku": 4810,
      "bliÅ¼": 4811,
      "ĠBur": 4812,
      "ĠcaÅĤÄħ": 4813,
      "Ġoczeki": 4814,
      "ĠÅĤatwo": 4815,
      "Ġprofesjona": 4816,
      "Ġalko": 4817,
      "ĠZSRR": 4818,
      "kru": 4819,
      "ker": 4820,
      "ĠWscho": 4821,
      "owaÅĦ": 4822,
      "cal": 4823,
      "liÅĤ": 4824,
      "ĠspoÅ¼y": 4825,
      "Ġorze": 4826,
      "ĠEx": 4827,
      "Ġmuzyki": 4828,
      "mm": 4829,
      "plan": 4830,
      "bin": 4831,
      "ĠpodÅĤo": 4832,
      "AD": 4833,
      "ĠChar": 4834,
      "Ġmomencie": 4835,
      "ĠpoÅĽredni": 4836,
      "ĠÅļwiata": 4837,
      "zda": 4838,
      "Ġbohater": 4839,
      "ps": 4840,
      "ĠwÅĤadzy": 4841,
      "deo": 4842,
      "Ġsygna": 4843,
      "Ġostatnie": 4844,
      "miany": 4845,
      "ĠwysÅĤa": 4846,
      "ĠSpe": 4847,
      "Dla": 4848,
      "ther": 4849,
      "czem": 4850,
      "Ġopubli": 4851,
      "ĠjakiÅĽ": 4852,
      "Ġtka": 4853,
      "ÅĦcÃ³w": 4854,
      "Ã³le": 4855,
      "pii": 4856,
      "sor": 4857,
      "NI": 4858,
      "Ġ2020": 4859,
      "De": 4860,
      "Ġobja": 4861,
      "Pra": 4862,
      "ĠtÄħ": 4863,
      "Ġpoczu": 4864,
      "mas": 4865,
      "kin": 4866,
      "ĠJapo": 4867,
      "ĠJako": 4868,
      "rebr": 4869,
      "Ġarcy": 4870,
      "Ġuzu": 4871,
      "ĠwaÅ¼ne": 4872,
      "Ġinicja": 4873,
      "ÅĤeÅĽ": 4874,
      "rÄĻb": 4875,
      "leni": 4876,
      "ĠgatunkÃ³w": 4877,
      "Ġlekkoat": 4878,
      "ciar": 4879,
      "owanej": 4880,
      "Ġnosi": 4881,
      "Ġfol": 4882,
      "wskim": 4883,
      "ĠnastÄħpi": 4884,
      "Ġzjawi": 4885,
      "ĠKrzyÅ¼em": 4886,
      "Ġprzyby": 4887,
      "Ġchoroby": 4888,
      "Ġstopni": 4889,
      "Ġprzestrzeni": 4890,
      "matu": 4891,
      "Ġuwagi": 4892,
      "US": 4893,
      "kur": 4894,
      "ĠobsÅĤugi": 4895,
      "tÄħd": 4896,
      "fu": 4897,
      "55": 4898,
      "Ġemo": 4899,
      "Ġnajlepiej": 4900,
      "ĠklientÃ³w": 4901,
      "Ġrolni": 4902,
      "ownik": 4903,
      "lla": 4904,
      "Ġczemu": 4905,
      "rin": 4906,
      "ĠPaweÅĤ": 4907,
      "liwoÅĽÄĩ": 4908,
      "ĠdoÅĤÄħ": 4909,
      "Ġkandyda": 4910,
      "czyÅĤo": 4911,
      "ĠBoga": 4912,
      "ms": 4913,
      "Ġzabra": 4914,
      "bach": 4915,
      "Ġwarunki": 4916,
      "Ġzbli": 4917,
      "Ġcelem": 4918,
      "ĠiloÅĽÄĩ": 4919,
      "Ġbibliote": 4920,
      "ĠukÅĤadu": 4921,
      "obraz": 4922,
      "Ġmle": 4923,
      "Ġude": 4924,
      "tycznej": 4925,
      "Ġliczne": 4926,
      "rodzenia": 4927,
      "ĠpowiedziaÅĤ": 4928,
      "Ġgar": 4929,
      "ĠzwiÄħzanych": 4930,
      "Ġucz": 4931,
      "ĠTow": 4932,
      "ĠzupeÅĤnie": 4933,
      "ospo": 4934,
      "ĠArmii": 4935,
      "Ġpodobnie": 4936,
      "kowaÅĤ": 4937,
      "ĠchociaÅ¼": 4938,
      "Ġhar": 4939,
      "ĠKrzyÅ¼": 4940,
      "Ġutworzo": 4941,
      "ĠFer": 4942,
      "seÅĤ": 4943,
      "ĠStowarzy": 4944,
      "Ġprzypomina": 4945,
      "Ġwiedzy": 4946,
      "wajcar": 4947,
      "resz": 4948,
      "wione": 4949,
      "ĠKe": 4950,
      "Ġzabud": 4951,
      "ĠAnna": 4952,
      "Ġzako": 4953,
      "Ġemi": 4954,
      "Ġzabu": 4955,
      "lf": 4956,
      "polskim": 4957,
      "ĠczÅĤonkiem": 4958,
      "SP": 4959,
      "mula": 4960,
      "Ġpozba": 4961,
      "tniej": 4962,
      "polski": 4963,
      "ĠEle": 4964,
      "Ġpozytyw": 4965,
      "ĠKata": 4966,
      "ĠdokÅĤadnie": 4967,
      "ĠporÃ³wna": 4968,
      "Ġzebra": 4969,
      "42": 4970,
      "ĠzastÄĻp": 4971,
      "sbur": 4972,
      "ĠpÅĤ": 4973,
      "Ġstanowisko": 4974,
      "Ġatmos": 4975,
      "ĠzwierzÄħt": 4976,
      "Ġmikro": 4977,
      "Ġbudowla": 4978,
      "Ġznajdowa": 4979,
      "Ġkonkuren": 4980,
      "ĠKolej": 4981,
      "ĠwciÄħÅ¼": 4982,
      "Ð¾Ð": 4983,
      "ĠÄĩwi": 4984,
      "metry": 4985,
      "ĠstaÅĤa": 4986,
      "Ġmatematy": 4987,
      "Ġostatnich": 4988,
      "ĠKana": 4989,
      "Ġzrozu": 4990,
      "Ġsamej": 4991,
      "Ġzawie": 4992,
      "Ġcharakterysty": 4993,
      "towego": 4994,
      "Ġpodda": 4995,
      "Ġmaksyma": 4996,
      "Ġroli": 4997,
      "Ġpunk": 4998,
      "Ġakade": 4999,
      "kÄħd": 5000,
      "Ġgene": 5001,
      "Ġumiesz": 5002,
      "sion": 5003,
      "ĠelementÃ³w": 5004,
      "99": 5005,
      "wiony": 5006,
      "Ġspoko": 5007,
      "denty": 5008,
      "Ġbro": 5009,
      "gni": 5010,
      "jon": 5011,
      "Ġwyco": 5012,
      "Ġblisko": 5013,
      "gip": 5014,
      "Ġaktual": 5015,
      "ĠBud": 5016,
      "ĠLubli": 5017,
      "zur": 5018,
      "ĠSzwe": 5019,
      "ĠSt": 5020,
      "Ġukry": 5021,
      "Ġpropozy": 5022,
      "ĠLin": 5023,
      "Ġprowin": 5024,
      "niÃ³sÅĤ": 5025,
      "wne": 5026,
      "naczej": 5027,
      "dziale": 5028,
      "ĠNiemcy": 5029,
      "ida": 5030,
      "Ġkaden": 5031,
      "wka": 5032,
      "Ġszwe": 5033,
      "niom": 5034,
      "Ġfunkcjona": 5035,
      "bytki": 5036,
      "dzili": 5037,
      "Ġkonsek": 5038,
      "Ġkampa": 5039,
      "Ġoferty": 5040,
      "piÄħ": 5041,
      "szczÄĻ": 5042,
      "teli": 5043,
      "nogra": 5044,
      "ĠtrÃ³j": 5045,
      "ĠJaku": 5046,
      "kier": 5047,
      "fr": 5048,
      "Ġspotkania": 5049,
      "nictwa": 5050,
      "bus": 5051,
      "ĠspoÅĽrÃ³d": 5052,
      "Ġwprowadza": 5053,
      "ĠczoÅĤ": 5054,
      "Ġobli": 5055,
      "ĠposzczegÃ³lnych": 5056,
      "ĠpieniÄħ": 5057,
      "ografi": 5058,
      "ĠChrystu": 5059,
      "Ġdrz": 5060,
      "ĠchcÄħ": 5061,
      "lizacji": 5062,
      "Ġzazwyczaj": 5063,
      "Ġodpowiedzi": 5064,
      "czeÅĦstwo": 5065,
      "Ġcier": 5066,
      "ĠsiÅĤ": 5067,
      "Ġniewy": 5068,
      "Ġpartii": 5069,
      "hat": 5070,
      "Ġprezydent": 5071,
      "Ġproc": 5072,
      "berg": 5073,
      "ĠwystÄĻpujÄħ": 5074,
      "Ġsubstan": 5075,
      "ĠwartoÅĽÄĩ": 5076,
      "ĠsÄħd": 5077,
      "Ġth": 5078,
      "Ze": 5079,
      "ÅĽciami": 5080,
      "Ġprodukty": 5081,
      "szone": 5082,
      "zju": 5083,
      "Ġnaro": 5084,
      "czyk": 5085,
      "ĠVI": 5086,
      "Ġ)": 5087,
      "ĠbÅĤ": 5088,
      "ĠmateriaÅĤÃ³w": 5089,
      "dwie": 5090,
      "spraw": 5091,
      "90": 5092,
      "Ġproblemy": 5093,
      "ĠChe": 5094,
      "Ġdzisiaj": 5095,
      "Ġskorzysta": 5096,
      "ĠzwierzÄĻ": 5097,
      "ĠgÃ³ry": 5098,
      "ĠjÄĻzyk": 5099,
      "Ġprzewi": 5100,
      "Ġgodz": 5101,
      "Ġet": 5102,
      "tkowe": 5103,
      "Ġdoko": 5104,
      "Ġrzu": 5105,
      "owice": 5106,
      "Ġelementy": 5107,
      "ĠmÃ³wiÄħ": 5108,
      "Ġinterne": 5109,
      "ell": 5110,
      "toria": 5111,
      "wzglÄĻd": 5112,
      "So": 5113,
      "kacje": 5114,
      "ĠSze": 5115,
      "Ġ1988": 5116,
      "ban": 5117,
      "Ġ500": 5118,
      "tkÄĻ": 5119,
      "Å¼eniem": 5120,
      "ket": 5121,
      "ĠduÅ¼Äħ": 5122,
      "Ġpytanie": 5123,
      "ĪĴ": 5124,
      "dle": 5125,
      "pier": 5126,
      "Wa": 5127,
      "Ġzle": 5128,
      "stej": 5129,
      "Ġpotencja": 5130,
      "dium": 5131,
      "Ġwro": 5132,
      "mÄħ": 5133,
      "ĠszczÄĻ": 5134,
      "Ġmaszyn": 5135,
      "ĠNowy": 5136,
      "Ġpierwsza": 5137,
      "tarza": 5138,
      "ĠNowa": 5139,
      "mowe": 5140,
      "ĠBydgo": 5141,
      "Ġnasz": 5142,
      "ĠRÃ³w": 5143,
      "41": 5144,
      "Ġsoli": 5145,
      "ĠoddziaÅĤy": 5146,
      "Ce": 5147,
      "Ġosobi": 5148,
      "ĠdziaÅĤacz": 5149,
      "ĠlÄħ": 5150,
      "Ġprezydenta": 5151,
      "Ġtematy": 5152,
      "Ġ1980": 5153,
      "Ġruch": 5154,
      "Ġner": 5155,
      "Ġupa": 5156,
      "Ġzasady": 5157,
      "terna": 5158,
      "ĠwÅĤadz": 5159,
      "ĠzaleÅ¼y": 5160,
      "mera": 5161,
      "rzeniu": 5162,
      "Ġobserwa": 5163,
      "ĠWillia": 5164,
      "ĠGar": 5165,
      "KS": 5166,
      "cam": 5167,
      "Ġpory": 5168,
      "ĠrzeÅº": 5169,
      "gres": 5170,
      "Ġserca": 5171,
      "fan": 5172,
      "ĠwyÅĽci": 5173,
      "ĠwielkoÅĽci": 5174,
      "ĠpierwszÄħ": 5175,
      "ĠdÅĤuÅ¼": 5176,
      "Ġposzuki": 5177,
      "szony": 5178,
      "ĠwrÄĻ": 5179,
      "ĠimiÄĻ": 5180,
      "Ġmogli": 5181,
      "najmniej": 5182,
      ".).": 5183,
      "ĠAmery": 5184,
      "ĠMos": 5185,
      "wencji": 5186,
      "Ġlekkoatle": 5187,
      "Ġcer": 5188,
      "ĠâĢľ": 5189,
      "ĠpamiÄĻci": 5190,
      "ĠKomite": 5191,
      "Ġwpisa": 5192,
      "Ġautomaty": 5193,
      "Ġist": 5194,
      "dziÄĻ": 5195,
      "Ġwersja": 5196,
      "groda": 5197,
      "Ġbla": 5198,
      "isk": 5199,
      "ĠchciaÅĤ": 5200,
      "Ġstopniu": 5201,
      "angaÅ¼": 5202,
      "Ġtera": 5203,
      "Ġdowie": 5204,
      "Ġciem": 5205,
      "ĠPolakÃ³w": 5206,
      "ĠÃ³wczes": 5207,
      "Ġkontakt": 5208,
      "ĠJaro": 5209,
      "ĠBrytanii": 5210,
      "wod": 5211,
      "rÄħz": 5212,
      "ĠdziaÅĤanie": 5213,
      "owanym": 5214,
      "rand": 5215,
      "ĠpotÄĻ": 5216,
      "Ġczterech": 5217,
      "Ġpodmio": 5218,
      "Wo": 5219,
      "Ġspotyka": 5220,
      "ĠpunktÃ³w": 5221,
      "Ġwypowie": 5222,
      "ot": 5223,
      "Ġtrzeci": 5224,
      "hu": 5225,
      "szÅĤa": 5226,
      "ĠMinister": 5227,
      "hip": 5228,
      "rego": 5229,
      "ĠwykÅĤad": 5230,
      "ĠnazwÄħ": 5231,
      "ĠPawÅĤa": 5232,
      "wiu": 5233,
      "niÄĻcia": 5234,
      "wiam": 5235,
      "Ġartysty": 5236,
      "Temat": 5237,
      "Ġ'": 5238,
      "mieÅĦ": 5239,
      "PS": 5240,
      "Ġdodatkowo": 5241,
      "Ġminister": 5242,
      "tional": 5243,
      "kowana": 5244,
      "up": 5245,
      "ĠmogÄĻ": 5246,
      "Ġakademi": 5247,
      "ĠZiemi": 5248,
      "Ġfakt": 5249,
      "ÅĤad": 5250,
      "ĠAt": 5251,
      "ZE": 5252,
      "Ġ1941": 5253,
      "brzy": 5254,
      "ĠTomasz": 5255,
      "ĠczÅĤonek": 5256,
      "43": 5257,
      "kÃ³j": 5258,
      "ĠKur": 5259,
      "ĠWydawnictwo": 5260,
      "Ġkonferen": 5261,
      "Ġnieo": 5262,
      "miu": 5263,
      "Ġgodziny": 5264,
      "Ġtr": 5265,
      "Ġobni": 5266,
      "ĠÅĽmie": 5267,
      "Ġstosunku": 5268,
      "zÄħ": 5269,
      "owska": 5270,
      "ĠJÃ³zefa": 5271,
      "Ġzasta": 5272,
      "Ġzostaje": 5273,
      "ĠĠĠĠĠĠĠĠ": 5274,
      "dniÄħ": 5275,
      "ĠMc": 5276,
      "Ġszlach": 5277,
      "ÅĤonkowie": 5278,
      "ĠAfry": 5279,
      "Ġwykorzystu": 5280,
      "doby": 5281,
      "ujÄħ": 5282,
      "ingu": 5283,
      "Ġpokaza": 5284,
      "minu": 5285,
      "Ġpola": 5286,
      "Ġzmu": 5287,
      "Ġopowie": 5288,
      "PiÅĤka": 5289,
      "Ġuczu": 5290,
      "Ġklubu": 5291,
      "ĠKultury": 5292,
      "wano": 5293,
      "czar": 5294,
      "75": 5295,
      "ĠUnii": 5296,
      "tto": 5297,
      "ĠCzerwo": 5298,
      "ĠMoÅ¼na": 5299,
      "Ġpowinny": 5300,
      "wangeli": 5301,
      "nel": 5302,
      "kaÄĩ": 5303,
      "Ġinny": 5304,
      "rium": 5305,
      "ĠKali": 5306,
      "Ġdniach": 5307,
      "all": 5308,
      "].": 5309,
      "owaÅĤo": 5310,
      "Ġmedia": 5311,
      "ĠwziÄħ": 5312,
      "Ġnaby": 5313,
      "ĠpowieÅĽci": 5314,
      "Ġzamiast": 5315,
      "Ġnadz": 5316,
      "Ã³rÄĻ": 5317,
      "Ġurucho": 5318,
      "mentar": 5319,
      "Pre": 5320,
      "ĠinÅ¼ynie": 5321,
      "ĠPara": 5322,
      "Ġniepod": 5323,
      "szoÅĽÄĩ": 5324,
      "ciÃ³ÅĤ": 5325,
      "Jest": 5326,
      "Ġformy": 5327,
      "ĠPor": 5328,
      "ĠspeÅĤnia": 5329,
      "gur": 5330,
      "owanego": 5331,
      "ĠÅģodzi": 5332,
      "Ġdrugim": 5333,
      "ĠPri": 5334,
      "Ġstrate": 5335,
      "ĠrozwiÄħzania": 5336,
      "ĠduÅ¼ej": 5337,
      "ĠuÅĤat": 5338,
      "jnej": 5339,
      "Ġgi": 5340,
      "Ġzapy": 5341,
      "ĠpodrÃ³": 5342,
      "rasta": 5343,
      "Ġmiast": 5344,
      "ĠXVII": 5345,
      "Ġwydaw": 5346,
      "Â°": 5347,
      "Ġrzeki": 5348,
      "Ġelektro": 5349,
      "Przed": 5350,
      "ĠPowsta": 5351,
      "Ġzauwa": 5352,
      "ĠmuszÄħ": 5353,
      "Ġbieg": 5354,
      "Ġarmii": 5355,
      "eksy": 5356,
      "ĠsÅĤucha": 5357,
      "Ġmoim": 5358,
      "Ġbrz": 5359,
      "Ġopowiada": 5360,
      "Ġrodzaj": 5361,
      "cyfi": 5362,
      "gmu": 5363,
      "ĠKrzysztof": 5364,
      "Ġpodlega": 5365,
      "Ã³c": 5366,
      "ĠnajbliÅ¼": 5367,
      "okie": 5368,
      "¹rÃ³dÅĤo": 5369,
      "Ġwarunkach": 5370,
      "van": 5371,
      "dla": 5372,
      "Ġsklep": 5373,
      "Ġopro": 5374,
      "ĠpostaÄĩ": 5375,
      "ĠFesti": 5376,
      "nen": 5377,
      "ĠgÅĤowy": 5378,
      "Ġwczes": 5379,
      "Ġmarki": 5380,
      ".),": 5381,
      "kcjÄĻ": 5382,
      "Ġpowinno": 5383,
      "ĠInforma": 5384,
      "Ġregular": 5385,
      "Ġdotar": 5386,
      "ĠzakÅĤad": 5387,
      "serw": 5388,
      "ĠzaÅĤoÅ¼y": 5389,
      "ĠuczniÃ³w": 5390,
      "ĠodlegÅĤoÅĽci": 5391,
      "Ġprzyrody": 5392,
      "IS": 5393,
      "ander": 5394,
      "Ġrejo": 5395,
      "ung": 5396,
      "Ġwarszta": 5397,
      "ĠMichaÅĤ": 5398,
      "dzieÅĦ": 5399,
      "Ġczasach": 5400,
      "Ġpartner": 5401,
      "ĠKla": 5402,
      "Ġodwo": 5403,
      "bert": 5404,
      "Ġprzesta": 5405,
      "Ġostatecznie": 5406,
      "Ġ1954": 5407,
      "ĠBor": 5408,
      "gami": 5409,
      "ĠoglÄħ": 5410,
      "ĠÅ¼adnych": 5411,
      "Ġwspania": 5412,
      "logicznych": 5413,
      "dÅĤo": 5414,
      "czoÅĽci": 5415,
      "ĠtakÄħ": 5416,
      "Ġsprawy": 5417,
      "inÄħ": 5418,
      "ĠmÄĻÅ¼czyzn": 5419,
      "ĠÅĽle": 5420,
      "ĠmaÅĤÅ¼e": 5421,
      "Ġkapli": 5422,
      "ĠWielko": 5423,
      "ĠdÅĤugi": 5424,
      "ĠponiÅ¼ej": 5425,
      "Ġ1943": 5426,
      "Ġ2021": 5427,
      "Ġaustria": 5428,
      "leÅ¼y": 5429,
      "ksu": 5430,
      "Ġgeo": 5431,
      "RE": 5432,
      "Ġwio": 5433,
      "pas": 5434,
      "ĠAnto": 5435,
      "Ġpotrzebu": 5436,
      "dali": 5437,
      "jnie": 5438,
      "ĠAm": 5439,
      "ownicy": 5440,
      "ĠczÄĻÅĽciÄħ": 5441,
      "ĠpiÄĻÄĩ": 5442,
      "mir": 5443,
      "ĠRobert": 5444,
      "sten": 5445,
      "ĠdostÄĻpne": 5446,
      "ĠÅĽredniowie": 5447,
      "ĠPodstaw": 5448,
      "Ġproto": 5449,
      "Ġnocy": 5450,
      "idy": 5451,
      "Ġbur": 5452,
      "gosÅĤa": 5453,
      "Ġwywia": 5454,
      "Ġgimna": 5455,
      "dii": 5456,
      "Ġsch": 5457,
      "ĠjesteÅĽmy": 5458,
      "ĠBez": 5459,
      "Ġrosyjski": 5460,
      "tia": 5461,
      "Å¡": 5462,
      "Ġpta": 5463,
      "Ġ1981": 5464,
      "ĠPubli": 5465,
      "Ġ1986": 5466,
      "Ġ300": 5467,
      "AK": 5468,
      "towano": 5469,
      "Ġwokali": 5470,
      "ĠprzeksztaÅĤ": 5471,
      "Ġsami": 5472,
      "ĠkrÄħ": 5473,
      "ĠGeor": 5474,
      "Kar": 5475,
      "bina": 5476,
      "sual": 5477,
      "iaÅĤoru": 5478,
      "Å¼ne": 5479,
      "ĠVa": 5480,
      "ĠzÅĤa": 5481,
      "ĠstaÅĤo": 5482,
      "wieÅĦ": 5483,
      "Ġpopraw": 5484,
      "ĠprzecieÅ¼": 5485,
      "dziesiÄħ": 5486,
      "Ġodzy": 5487,
      "Ġunika": 5488,
      "ĠwÄħt": 5489,
      "Ġagen": 5490,
      "ĠMimo": 5491,
      "Or": 5492,
      "ĠnowÄħ": 5493,
      "Ġbry": 5494,
      "Ġodno": 5495,
      "Ġkultura": 5496,
      "ĠGenera": 5497,
      "Ġinaczej": 5498,
      "spie": 5499,
      "Ġsocja": 5500,
      "ĠmetrÃ³w": 5501,
      "chan": 5502,
      "ĠIs": 5503,
      "Ġzajmu": 5504,
      "Ġpali": 5505,
      "Ġstopnia": 5506,
      "ĠczÅĤowiek": 5507,
      "Ġtrzyma": 5508,
      "ĠwnÄĻ": 5509,
      "ĠProdu": 5510,
      "Ġ36": 5511,
      "skokatoli": 5512,
      "sila": 5513,
      "stwem": 5514,
      "ĠzaangaÅ¼": 5515,
      "ys": 5516,
      "rzeÄĩ": 5517,
      "ĠprawidÅĤ": 5518,
      "ĠZna": 5519,
      "Ġniezna": 5520,
      "karka": 5521,
      "Ġ178": 5522,
      "Ġ1940": 5523,
      "ĠBla": 5524,
      "ĠkoÅĤo": 5525,
      "Ġsekre": 5526,
      "ĠszkÃ³ÅĤ": 5527,
      "Fil": 5528,
      "kl": 5529,
      "sob": 5530,
      "ree": 5531,
      "ĠRzecz": 5532,
      "ĠTadeusz": 5533,
      "ĠobsÅĤu": 5534,
      "dery": 5535,
      "Ġwojsk": 5536,
      "Ġzi": 5537,
      "Ġkosme": 5538,
      "ĠbudowÄĻ": 5539,
      "Ġwydaje": 5540,
      "mnie": 5541,
      "Ġ1987": 5542,
      "ĠFry": 5543,
      "Ġpowoduje": 5544,
      "Ġzatrzyma": 5545,
      "lik": 5546,
      "ĠniektÃ³re": 5547,
      "ĠÅļwiÄĻtego": 5548,
      "ĠNarodowego": 5549,
      "ĠMag": 5550,
      "kracza": 5551,
      "poli": 5552,
      "ĠcaÅĤoÅĽci": 5553,
      "Ġofia": 5554,
      "ĠPoznaniu": 5555,
      "Ġzajmuje": 5556,
      "nci": 5557,
      "Ġ45": 5558,
      "PiÅĤkarze": 5559,
      "ĠKazimierz": 5560,
      "stawy": 5561,
      "kacja": 5562,
      "ĠKomisji": 5563,
      "ĠpoÅĤowy": 5564,
      "ÅĦsko": 5565,
      "ĠwystÄħpi": 5566,
      "Ġkarie": 5567,
      "ĠudostÄĻp": 5568,
      "Ġ1973": 5569,
      "Ġzare": 5570,
      "ĠCor": 5571,
      "stego": 5572,
      "Ġdelika": 5573,
      "lonej": 5574,
      "Ġkonfli": 5575,
      "ĠzaczÄħÅĤ": 5576,
      "rodÄĻ": 5577,
      "tis": 5578,
      "Ġkoncep": 5579,
      "http": 5580,
      "unki": 5581,
      "Ġmecz": 5582,
      "Ġniezwykle": 5583,
      "Ġlisty": 5584,
      "ĠsiÄĻga": 5585,
      "Ġintensyw": 5586,
      "ĠszczegÃ³ÅĤ": 5587,
      "Ġwios": 5588,
      "ĠDro": 5589,
      "ĠMiasta": 5590,
      "Ġswego": 5591,
      "Ġprzer": 5592,
      "czech": 5593,
      "wszy": 5594,
      "Ġkomi": 5595,
      "Ġkg": 5596,
      "AW": 5597,
      "posto": 5598,
      "Ġ1982": 5599,
      "ĠWÅĤadysÅĤaw": 5600,
      "Ã³dzt": 5601,
      "typ": 5602,
      "Ġgrzy": 5603,
      "ĠprÄħ": 5604,
      "Ġpal": 5605,
      "Ġforum": 5606,
      "ĠÅĽrodowiska": 5607,
      "ĠSk": 5608,
      "Ġ1946": 5609,
      "ĠzobowiÄħza": 5610,
      "Ca": 5611,
      "ĠproblemÃ³w": 5612,
      "Ġlubi": 5613,
      "ospodar": 5614,
      "ĠPraw": 5615,
      "Ġstacji": 5616,
      "Ġklasz": 5617,
      "Ġbiznes": 5618,
      "Ġwyka": 5619,
      "Ġ1976": 5620,
      "ĠJedno": 5621,
      "Ġporusza": 5622,
      "niono": 5623,
      "Ġefekt": 5624,
      "mami": 5625,
      "Ġwygo": 5626,
      "ĠKry": 5627,
      "ĠCiÄĻ": 5628,
      "Ġsuper": 5629,
      "Ġ1942": 5630,
      "ujemy": 5631,
      "Ġupo": 5632,
      "Ġchro": 5633,
      "walu": 5634,
      "Ġrezerwa": 5635,
      "Ġjazdy": 5636,
      "bytkÃ³w": 5637,
      "ĠIch": 5638,
      "ĠChri": 5639,
      "ĠCol": 5640,
      "Ġstaje": 5641,
      "Ġwin": 5642,
      "Miejsc": 5643,
      "zjum": 5644,
      "ĠÅĽwiÄħty": 5645,
      "Ġproduktu": 5646,
      "Ġpos": 5647,
      "Ġ1983": 5648,
      "zach": 5649,
      "Ġdywi": 5650,
      "gla": 5651,
      "Ġobszarze": 5652,
      "Ġrozbud": 5653,
      "Ġprzebiega": 5654,
      "Ġ1984": 5655,
      "ĠczynnoÅĽci": 5656,
      "Ġfunda": 5657,
      "ĠplacÃ³w": 5658,
      "Ġmocno": 5659,
      "myÅĽ": 5660,
      "Ġfakty": 5661,
      "Ġmetody": 5662,
      "lakty": 5663,
      "ĠpodjÄĻ": 5664,
      "Ġmal": 5665,
      "Ġkup": 5666,
      "leria": 5667,
      "mowaÅĤ": 5668,
      "ĠnarzÄĻ": 5669,
      "ĠmiÅĤoÅĽci": 5670,
      "ĠOgÃ³l": 5671,
      "ĠjakieÅĽ": 5672,
      "ĠÅ»e": 5673,
      "miona": 5674,
      "Ġinteresu": 5675,
      "ĠNiemczech": 5676,
      "Åį": 5677,
      "ĠdomÃ³w": 5678,
      "nkiem": 5679,
      "gÅĤÄĻ": 5680,
      "Ġono": 5681,
      "ĠTowarzystwa": 5682,
      "Ġkocha": 5683,
      "Ġspowodowa": 5684,
      "Ġfabry": 5685,
      "Ġzamieszka": 5686,
      "Ġkilo": 5687,
      "rka": 5688,
      "tyczny": 5689,
      "ĠÅļrod": 5690,
      "ĠBole": 5691,
      "ĠKlie": 5692,
      "rzone": 5693,
      "ĠSztu": 5694,
      "Ġdecyzji": 5695,
      "hol": 5696,
      "Ġrady": 5697,
      "Ġ1985": 5698,
      "ĠprzeglÄħ": 5699,
      "Ġodpowiednio": 5700,
      "Ġzabie": 5701,
      "ĠDzi": 5702,
      "IT": 5703,
      "Ġukrai": 5704,
      "leb": 5705,
      "ĠgorÄħ": 5706,
      "Ġklucz": 5707,
      "Ġdoros": 5708,
      "ĠSpraw": 5709,
      "ktÃ³re": 5710,
      "zyli": 5711,
      "czonego": 5712,
      "Ab": 5713,
      "cku": 5714,
      "Ġtajem": 5715,
      "ĠliÅĽcie": 5716,
      "ĠudziaÅĤu": 5717,
      "ĠZygmu": 5718,
      "UR": 5719,
      "Ġpoeta": 5720,
      "Ġprosto": 5721,
      "Ġcon": 5722,
      "Ġsukce": 5723,
      "kan": 5724,
      "Ġceny": 5725,
      "Ġrazu": 5726,
      "ĠUÅ¼y": 5727,
      "dzka": 5728,
      "Ġmacie": 5729,
      "tyku": 5730,
      "ĠBogu": 5731,
      "Ġ1918": 5732,
      "ĠleÅĽ": 5733,
      "Ġzwyczaj": 5734,
      "ĠMal": 5735,
      "Ġwycofa": 5736,
      "sja": 5737,
      "Ġszef": 5738,
      "Ġzwyk": 5739,
      "Ġds": 5740,
      "Ġreprezenta": 5741,
      "zz": 5742,
      "ĠUr": 5743,
      "czonej": 5744,
      "Ġwyniki": 5745,
      "Ġniebie": 5746,
      "czÄħc": 5747,
      "ĠpowyÅ¼ej": 5748,
      "tnoÅĽÄĩ": 5749,
      "ĠosiÄħga": 5750,
      "tywa": 5751,
      "Ġpunkt": 5752,
      "ĠumiejÄĻtnoÅĽci": 5753,
      "towana": 5754,
      "Ġwzrost": 5755,
      "66": 5756,
      "ĠAustra": 5757,
      "Ġkrze": 5758,
      "Ġobejmuje": 5759,
      "Ġproducen": 5760,
      "owskiej": 5761,
      "Ġzaga": 5762,
      "Ġrzymskokatoli": 5763,
      "cek": 5764,
      "Ġrado": 5765,
      "ĠmÃ³j": 5766,
      "ĠwÅĤasne": 5767,
      "Ġpokoju": 5768,
      "Ġatrak": 5769,
      "Ġosie": 5770,
      "ĠzajÄħÅĤ": 5771,
      "ĠsÅĤuÅ¼Äħ": 5772,
      "Ġmojej": 5773,
      "cle": 5774,
      "edy": 5775,
      "Tu": 5776,
      "fery": 5777,
      "Ġzamieszki": 5778,
      "ĠAby": 5779,
      "ĠBoÅ¼e": 5780,
      "ies": 5781,
      "Ġtle": 5782,
      "Ġbisku": 5783,
      "cro": 5784,
      "ĠWielka": 5785,
      "lera": 5786,
      "Ġznany": 5787,
      "Ġ>": 5788,
      "Ġchor": 5789,
      "Ġoz": 5790,
      "Ġ1921": 5791,
      "ĠOÅĽ": 5792,
      "Ġtygodni": 5793,
      "hel": 5794,
      "nina": 5795,
      "pole": 5796,
      "Ġ1920": 5797,
      "Ġdostarcza": 5798,
      "czach": 5799,
      "Ġdek": 5800,
      "78": 5801,
      "Ġprzetwarza": 5802,
      "ĠUE": 5803,
      "Ġprzegra": 5804,
      "Ġszereg": 5805,
      "Ġ1970": 5806,
      "ĠÅĤyÅ¼": 5807,
      "blo": 5808,
      "Ġrozsze": 5809,
      "Ġwez": 5810,
      "ĠSystem": 5811,
      "Ġwyborach": 5812,
      "____": 5813,
      "ction": 5814,
      "Å¼ono": 5815,
      "ĠMer": 5816,
      "ĠEuropejskiej": 5817,
      "ĠTry": 5818,
      "dnym": 5819,
      "pÅĤyw": 5820,
      "dzkiej": 5821,
      "ĠwÅĤad": 5822,
      "ĠcaÅĤe": 5823,
      "tycznego": 5824,
      "Ġpedago": 5825,
      "Ġeksplo": 5826,
      "ed": 5827,
      "No": 5828,
      "OT": 5829,
      "Ġjesie": 5830,
      "wagi": 5831,
      "ĠLondy": 5832,
      "chen": 5833,
      "ĠskoÅĦ": 5834,
      "Ġwyboru": 5835,
      "Ġros": 5836,
      "Ġstruktu": 5837,
      "AP": 5838,
      "Ġwydarzenia": 5839,
      "ĠbudÅ¼e": 5840,
      "ĠNatomiast": 5841,
      "ĠgÅĤÃ³wnego": 5842,
      "WieÅĽ": 5843,
      "mara": 5844,
      "Ġmodli": 5845,
      "Ġ1972": 5846,
      "ĠsÅĤuÅ¼by": 5847,
      "Ġlista": 5848,
      "niÄĻcie": 5849,
      "Ġdziewczy": 5850,
      "CzÅĤonkowie": 5851,
      "ĠbÄĻdziemy": 5852,
      "ĠwidaÄĩ": 5853,
      "Ġistnia": 5854,
      "Ġzapisa": 5855,
      "prawie": 5856,
      "dowania": 5857,
      "ĠPia": 5858,
      "Ġzostali": 5859,
      "Ġminu": 5860,
      "ien": 5861,
      "giÄĻ": 5862,
      "ĠÅģu": 5863,
      "stna": 5864,
      "ĠpielÄĻ": 5865,
      "??": 5866,
      "gmina": 5867,
      "ĠDar": 5868,
      "Ġgranicy": 5869,
      "Ġnap": 5870,
      "Ġpojem": 5871,
      "ĠPK": 5872,
      "Ġrejonie": 5873,
      "Ġodpor": 5874,
      "ĠWszystkie": 5875,
      "ÅĤgo": 5876,
      "ujÄħc": 5877,
      "ĠdziesiÄĻ": 5878,
      "Ġbudynek": 5879,
      "ĠMarek": 5880,
      "Ġzazna": 5881,
      "Ġnajstar": 5882,
      "kien": 5883,
      "ziÄĻ": 5884,
      "schÃ³d": 5885,
      "Ġfla": 5886,
      "Ġ1978": 5887,
      "Ġkrajach": 5888,
      "ĠEr": 5889,
      "ĠwiÄĻzie": 5890,
      "----": 5891,
      "ĠpoczÄħtkowo": 5892,
      "skach": 5893,
      "rona": 5894,
      "Ġoficer": 5895,
      "Ġtabli": 5896,
      "Å¼Äħda": 5897,
      "hy": 5898,
      "ĠzakoÅĦczeniu": 5899,
      "ĠWas": 5900,
      "Ġwypadku": 5901,
      "65": 5902,
      "ĠpieniÄħdze": 5903,
      "Mu": 5904,
      "jeÅ¼d": 5905,
      "Su": 5906,
      "ĠCiebie": 5907,
      "Ġ1979": 5908,
      "ktery": 5909,
      "ĠmogÅĤa": 5910,
      "ĠtysiÄħ": 5911,
      "mann": 5912,
      "ownie": 5913,
      "dzkim": 5914,
      "dowe": 5915,
      "Ġas": 5916,
      "Ġobwo": 5917,
      "Ġproducent": 5918,
      "ĠPoczÄħ": 5919,
      "ĠTele": 5920,
      "rÃ³g": 5921,
      "Ġnarciar": 5922,
      "ĠkrajÃ³w": 5923,
      "ĠGrzego": 5924,
      "ĠdÅºwiÄĻ": 5925,
      "ĠodbyÅĤ": 5926,
      "Ġnowym": 5927,
      "Ġzaprezen": 5928,
      "ĠDÅĤu": 5929,
      "ĠokrÄħ": 5930,
      "wiÄĻcej": 5931,
      "ĠzapÅĤa": 5932,
      "ĠciÅĽnie": 5933,
      "Ġteatra": 5934,
      "Ġskon": 5935,
      "dows": 5936,
      "Ġarcyb": 5937,
      "ĠZbi": 5938,
      "ĠwchodzÄħ": 5939,
      "szyÅĤ": 5940,
      "OP": 5941,
      "Ġnazy": 5942,
      "Ġzwa": 5943,
      "ĠzginÄĻ": 5944,
      "ĠzÅĤotych": 5945,
      "Ju": 5946,
      "mil": 5947,
      "Ġdroga": 5948,
      "tymi": 5949,
      "Ġstawia": 5950,
      "Ġtrudno": 5951,
      "Ġzestaw": 5952,
      "Ġinterpre": 5953,
      "ĠrzÄħdu": 5954,
      "Ġuleg": 5955,
      "Ġsezonu": 5956,
      "Ġrewolu": 5957,
      "ĠduÅ¼ych": 5958,
      "ĠnapiÄĻ": 5959,
      "Ġnikt": 5960,
      "niewaÅ¼": 5961,
      "Dy": 5962,
      "owskim": 5963,
      "zowanych": 5964,
      "trzymuje": 5965,
      "Ġwycie": 5966,
      "towaÅĤa": 5967,
      "58": 5968,
      "ĠOkrÄĻ": 5969,
      "wentual": 5970,
      "Ġmazowie": 5971,
      "Ġnajnow": 5972,
      "ĠtytuÅĤu": 5973,
      "lender": 5974,
      "Ġteren": 5975,
      "biÅĤ": 5976,
      "Ġyou": 5977,
      "ĠAnglii": 5978,
      "Ġuczy": 5979,
      "ĠmaÅĤe": 5980,
      "ens": 5981,
      "Ġtrakt": 5982,
      "ĠSP": 5983,
      "Ġzakresu": 5984,
      "rich": 5985,
      "mand": 5986,
      "Ġwiek": 5987,
      "Ġol": 5988,
      "Ġ2022": 5989,
      "Ġdostos": 5990,
      "noÅĽ": 5991,
      "Ġzanie": 5992,
      "Ġojca": 5993,
      "ĠksiÄĻcia": 5994,
      "cel": 5995,
      "Ġsej": 5996,
      "ĠOn": 5997,
      "ĠnastÄĻpujÄħce": 5998,
      "stwach": 5999,
      "ĠgeneraÅĤ": 6000,
      "ĠwyÅĽwiet": 6001,
      "ĠjakoÅĽÄĩ": 6002,
      "Ġfilmie": 6003,
      "ĠzwiÄĻksza": 6004,
      "ĠwyrÃ³Å¼nia": 6005,
      "kowska": 6006,
      "Ġ1974": 6007,
      "Ġdrzwi": 6008,
      "ĠleÅ¼y": 6009,
      "Ġwybor": 6010,
      "ĠzwiÄħzani": 6011,
      "Ġnaczy": 6012,
      "Ġprzebud": 6013,
      "ĠTro": 6014,
      "Ðº": 6015,
      "metr": 6016,
      "ĠurzÄħdzeÅĦ": 6017,
      "cena": 6018,
      "Ġradi": 6019,
      "ĠWrocÅĤaw": 6020,
      "jestrowa": 6021,
      "stawa": 6022,
      "fil": 6023,
      "pienie": 6024,
      "ĠszczegÃ³lnoÅĽci": 6025,
      "Ġbraku": 6026,
      "ĠwywoÅĤa": 6027,
      "Ġpowietrza": 6028,
      "ĠAb": 6029,
      "niejszy": 6030,
      "tch": 6031,
      "mem": 6032,
      "ĠpowiedzieÄĩ": 6033,
      "jÄħco": 6034,
      "ĠKos": 6035,
      "ĠwybÃ³r": 6036,
      "Ġdwor": 6037,
      "iÄĻku": 6038,
      "uri": 6039,
      "czen": 6040,
      "ĠnapisaÅĤ": 6041,
      "Ġsan": 6042,
      "Ġwith": 6043,
      "ĠdotyczÄħcych": 6044,
      "ĠnadziejÄĻ": 6045,
      "Ġstandard": 6046,
      "stek": 6047,
      "Ġ1968": 6048,
      "ĠpracowaÅĤ": 6049,
      "Ġpoziomu": 6050,
      "ĠpoÅĤÄħczenia": 6051,
      "ĠgÅĤÃ³wnym": 6052,
      "Ġdale": 6053,
      "Ġokolicy": 6054,
      "Ġzreali": 6055,
      "dzieÅ¼": 6056,
      "Ġeli": 6057,
      "use": 6058,
      "Ġjakich": 6059,
      "ĠWielki": 6060,
      "cona": 6061,
      "ĠWojciech": 6062,
      "gowy": 6063,
      "ĠwÅĤadze": 6064,
      "Ġupad": 6065,
      "nator": 6066,
      "zdÃ³w": 6067,
      "vis": 6068,
      "ĠzÄĻ": 6069,
      "ĠPomo": 6070,
      "ĠPL": 6071,
      "Ġinspi": 6072,
      "czonym": 6073,
      "ĠMis": 6074,
      "sci": 6075,
      "mowania": 6076,
      "czania": 6077,
      "lnymi": 6078,
      "Ġiz": 6079,
      "Ġtj": 6080,
      "ĠmieÅĽci": 6081,
      "Ġkardyna": 6082,
      "95": 6083,
      "ĠzdjÄĻÄĩ": 6084,
      "rus": 6085,
      "Ġpatro": 6086,
      "tam": 6087,
      "Ġklienta": 6088,
      "wien": 6089,
      "ÄĨ": 6090,
      "Å¹rÃ³dÅĤo": 6091,
      "Ġlokali": 6092,
      "ĠrodzicÃ³w": 6093,
      "ÅĤoby": 6094,
      "Ġrower": 6095,
      "riusz": 6096,
      "ĠBal": 6097,
      "ĠBibliote": 6098,
      "naÅĽcie": 6099,
      "ĠArchi": 6100,
      "ĠpewnoÅĽciÄħ": 6101,
      "ssa": 6102,
      "zowana": 6103,
      "ĠwarunkÃ³w": 6104,
      "dzieli": 6105,
      "Ġgmin": 6106,
      "rabia": 6107,
      "owanÄħ": 6108,
      "ĠCentra": 6109,
      "Ġmody": 6110,
      "ĠoprÃ³cz": 6111,
      "ĠZo": 6112,
      "Ġfilmy": 6113,
      "pt": 6114,
      "chniÄĻ": 6115,
      "Ġopo": 6116,
      "ĠliczbÄĻ": 6117,
      "ÅĽniu": 6118,
      "Ġwas": 6119,
      "gÃ³r": 6120,
      "miana": 6121,
      "derni": 6122,
      "gon": 6123,
      "Bar": 6124,
      "ĠHenryk": 6125,
      "nocy": 6126,
      "ĠuzyskaÅĤ": 6127,
      "Ġnajlepszych": 6128,
      "Ġlekarz": 6129,
      "ĠpÅĤyty": 6130,
      "misja": 6131,
      "ĠstaroÅ¼y": 6132,
      "ĠrzeczywistoÅĽci": 6133,
      "stia": 6134,
      "Ġzalicza": 6135,
      "ĠplikÃ³w": 6136,
      "metrÃ³w": 6137,
      "72": 6138,
      "Ġmur": 6139,
      "ica": 6140,
      "ĠkrÃ³lew": 6141,
      "Ġokupa": 6142,
      "sc": 6143,
      "Ġdotyczy": 6144,
      "Ġgdyby": 6145,
      "ĠpoÅĤudniowo": 6146,
      "Ġawans": 6147,
      "Miasta": 6148,
      "kres": 6149,
      "Ġaresz": 6150,
      "nista": 6151,
      "Ġpolsko": 6152,
      "tujÄħ": 6153,
      "ÅĽciej": 6154,
      "spÃ³l": 6155,
      "ĠzabytkÃ³w": 6156,
      "ĠTru": 6157,
      "Ġkonstrukcji": 6158,
      "htm": 6159,
      "Ġdeko": 6160,
      "Ġprodukt": 6161,
      "Tak": 6162,
      "ĠmiÅĤo": 6163,
      "Ġznane": 6164,
      "Ġpkt": 6165,
      "ĠSport": 6166,
      "Ġuka": 6167,
      "Ġpw": 6168,
      "Ġremon": 6169,
      "ĠPodob": 6170,
      "Ġ1919": 6171,
      "pki": 6172,
      "Ġpopu": 6173,
      "Ġgwiazd": 6174,
      "ĠurzÄĻ": 6175,
      "sÄĻ": 6176,
      "loty": 6177,
      "ĠuÅ¼ytkownikÃ³w": 6178,
      "Fa": 6179,
      "Ġregiona": 6180,
      "jnego": 6181,
      "ĠzasiÄĻ": 6182,
      "Ġniestety": 6183,
      "ono": 6184,
      "Ġ1977": 6185,
      "ĠzobaczyÄĩ": 6186,
      "ĠczÄħ": 6187,
      "ĠAndrze": 6188,
      "Ġrozpoczyna": 6189,
      "rzÃ³w": 6190,
      "ĠdrogÄħ": 6191,
      "Ġzbiera": 6192,
      "ĠPowie": 6193,
      "ĠogÃ³le": 6194,
      "Ġdyrek": 6195,
      "ĠPiÅĤ": 6196,
      "jak": 6197,
      "Ġduch": 6198,
      "Ġcharak": 6199,
      "Ġtechnologii": 6200,
      "ĠwÅĤÃ³": 6201,
      "Ser": 6202,
      "waniem": 6203,
      "ĠAir": 6204,
      "Ġpraca": 6205,
      "Ġpodatku": 6206,
      "Ġpoin": 6207,
      "ĠSko": 6208,
      "ĠJuÅ¼": 6209,
      "Ġrozpa": 6210,
      "Ġjednostek": 6211,
      "tin": 6212,
      "ĠwrzeÅĽniu": 6213,
      "ĠKan": 6214,
      "ĠwiÄĻksze": 6215,
      "Ġscho": 6216,
      "ctwie": 6217,
      "ĠTer": 6218,
      "ĠpÃ³Åº": 6219,
      "76": 6220,
      "towÄħ": 6221,
      "czÄħÄĩ": 6222,
      "ĠprzeÅ¼y": 6223,
      "Ġkadencji": 6224,
      "nkach": 6225,
      "Ġsezon": 6226,
      "cm": 6227,
      "ĠDie": 6228,
      "Ġjakiego": 6229,
      "jesz": 6230,
      "ĠMosk": 6231,
      "ĠPZ": 6232,
      "ĠâĪĴ": 6233,
      "ĠPark": 6234,
      "ĠZbignie": 6235,
      "jmy": 6236,
      "Ġjaka": 6237,
      "'s": 6238,
      "ĠkosztÃ³w": 6239,
      "ZY": 6240,
      "Ġhonor": 6241,
      "Ġ1938": 6242,
      "ĠZasÅĤugi": 6243,
      "dowych": 6244,
      "dziny": 6245,
      "ĠFunda": 6246,
      "ĠDziaÅĤa": 6247,
      "Ġapara": 6248,
      "Ġwykonania": 6249,
      "ĠzachÄĻ": 6250,
      "Ġnajpierw": 6251,
      "!!!": 6252,
      "anna": 6253,
      "ĠwewnÄħtrz": 6254,
      "Ġzadania": 6255,
      "Ġszta": 6256,
      "Ġspotkanie": 6257,
      "ĠwojewÃ³": 6258,
      "Ġbitwie": 6259,
      "mowi": 6260,
      "ĠpodwÃ³j": 6261,
      "Ġfanta": 6262,
      "ĠchÅĤop": 6263,
      "arka": 6264,
      "Ġmagi": 6265,
      "lak": 6266,
      "styka": 6267,
      "ĠAuto": 6268,
      "Ġotwo": 6269,
      "Lo": 6270,
      "LE": 6271,
      "niowe": 6272,
      "ĠPeter": 6273,
      "mowanie": 6274,
      "ĠPana": 6275,
      "Ġfilmowy": 6276,
      "Ġalbu": 6277,
      "Ġnami": 6278,
      "kimi": 6279,
      "Ġporta": 6280,
      "zÅĤ": 6281,
      "Ġstandar": 6282,
      "jeÅ¼dÅ¼a": 6283,
      "Ġder": 6284,
      "Ġpokar": 6285,
      "Ġpru": 6286,
      "ĠNowo": 6287,
      "ĠsamorzÄħd": 6288,
      "Ġpunktu": 6289,
      "iÄĻkszoÅĽÄĩ": 6290,
      "Ġsyste": 6291,
      "tacza": 6292,
      "ĠPaÅĦstwo": 6293,
      "ĠrÃ³Å¼ni": 6294,
      "ĠBardzo": 6295,
      "ĠNr": 6296,
      "ĠwzdÅĤuÅ¼": 6297,
      "illa": 6298,
      "Ġpowietrz": 6299,
      "ĠÅĽlÄħ": 6300,
      "ĠNowym": 6301,
      "Ġhistoryk": 6302,
      "siÄĩ": 6303,
      "ĠWrocÅĤawiu": 6304,
      "Ġdokumenta": 6305,
      "Ġdrzew": 6306,
      "Ġprofi": 6307,
      "Ġjakby": 6308,
      "ĠKarol": 6309,
      "ĠPier": 6310,
      "codaw": 6311,
      "set": 6312,
      "ĠWarto": 6313,
      "ĠwÄĻd": 6314,
      "Ġkierowni": 6315,
      "dziel": 6316,
      "unek": 6317,
      "Ġchroni": 6318,
      "Fran": 6319,
      "Ġnagrody": 6320,
      "Ġwytwarza": 6321,
      "ÅĦce": 6322,
      "jskÄħ": 6323,
      "Ġsprawdza": 6324,
      "wÃ³dztwo": 6325,
      "Ġpremier": 6326,
      "Ġtelefo": 6327,
      "ĠporzÄħd": 6328,
      "Ġporozu": 6329,
      "tychmiast": 6330,
      "tic": 6331,
      "ĠSzkoÅĤa": 6332,
      "CI": 6333,
      "niczy": 6334,
      "Ġregionie": 6335,
      "Ġprzeczy": 6336,
      "Ġznisz": 6337,
      "Ġpry": 6338,
      "ĠzajÄĻcia": 6339,
      "trwa": 6340,
      "Ġzmien": 6341,
      "Ġole": 6342,
      "Ġrozmia": 6343,
      "Ġalkoho": 6344,
      "Ġprzynajmniej": 6345,
      "ĠwybraÄĩ": 6346,
      "ĠRich": 6347,
      "Ġdrugiego": 6348,
      "ale": 6349,
      "ĠPoza": 6350,
      "Ġstyl": 6351,
      "Ġchcesz": 6352,
      "Ġterytorium": 6353,
      "64": 6354,
      "ÅĤania": 6355,
      "mac": 6356,
      "Ã³rek": 6357,
      "cale": 6358,
      "ĠbieÅ¼Äħ": 6359,
      "rzony": 6360,
      "wcy": 6361,
      "wami": 6362,
      "ĠcelÃ³w": 6363,
      "KA": 6364,
      "iÄĻcej": 6365,
      "Ġoskar": 6366,
      "szÃ³w": 6367,
      "ĠnajwiÄĻkszych": 6368,
      "Ġzamiesz": 6369,
      "ĠÅ¼ona": 6370,
      "Ġwojna": 6371,
      "ĠbÄĻdÄĻ": 6372,
      "Cza": 6373,
      "Ġeduka": 6374,
      "techni": 6375,
      "ĠBen": 6376,
      "ĠPolskich": 6377,
      "ĠST": 6378,
      "okies": 6379,
      "tri": 6380,
      "Ġprocesu": 6381,
      "Ġulu": 6382,
      "munika": 6383,
      "ĠKrÃ³lestwa": 6384,
      "ĠleÅ¼Äħ": 6385,
      "Ġzdecydowa": 6386,
      "strÃ³w": 6387,
      "ĠÅĽla": 6388,
      "ciera": 6389,
      "Ġzaprojekt": 6390,
      "ĠKaÅ¼dy": 6391,
      "ĠnieruchomoÅĽci": 6392,
      "Ġresta": 6393,
      "Ġmasa": 6394,
      "Ġangiel": 6395,
      "ktem": 6396,
      "ĠstaÅĤy": 6397,
      "Ġcha": 6398,
      "Ġjaj": 6399,
      "ĠwÅĤasnych": 6400,
      "dka": 6401,
      "Ġ(âĢŀ": 6402,
      "Ġex": 6403,
      "Ġturnieju": 6404,
      "tnik": 6405,
      "niejszym": 6406,
      "ĠNiestety": 6407,
      "ĠWspÃ³ÅĤ": 6408,
      "Ġpani": 6409,
      "stre": 6410,
      "Ġreprezentacji": 6411,
      "ĠKatarzy": 6412,
      "zowaÅĤ": 6413,
      "Ġnowa": 6414,
      "Ġzgroma": 6415,
      "âĢĿ)": 6416,
      "grafia": 6417,
      "Ġubra": 6418,
      "Ġstary": 6419,
      "Ġkod": 6420,
      "tyma": 6421,
      "Ġdlaczego": 6422,
      "ĠMatki": 6423,
      "Ġ1969": 6424,
      "niesienia": 6425,
      "ĠGda": 6426,
      "Ġniebezpie": 6427,
      "100": 6428,
      "niego": 6429,
      "ĠTom": 6430,
      "Fi": 6431,
      "sÅĤuguje": 6432,
      "tkÄħ": 6433,
      "ĠÅĽmierÄĩ": 6434,
      "sowa": 6435,
      "Ġ38": 6436,
      "ĠwspÃ³lnie": 6437,
      "czestnicy": 6438,
      "osob": 6439,
      "ĠwspÃ³ÅĤprac": 6440,
      "ÅĤty": 6441,
      "Ġdem": 6442,
      "ong": 6443,
      "ĠwypeÅĤ": 6444,
      "ĠTho": 6445,
      "ÅĦcy": 6446,
      "Ġkopa": 6447,
      "zajem": 6448,
      "ĠOdrodzenia": 6449,
      "rÃ³deÅĤ": 6450,
      "Ġleczenia": 6451,
      "ĠAmeryka": 6452,
      "Ġnazwie": 6453,
      "ĠTran": 6454,
      "ĠRosja": 6455,
      "mai": 6456,
      "ĠjesteÅĽ": 6457,
      "68": 6458,
      "piera": 6459,
      "Ġprzekro": 6460,
      "ĠreÅ¼": 6461,
      "........": 6462,
      "ĠpodrÃ³Å¼y": 6463,
      "Ġmodelu": 6464,
      "leniu": 6465,
      "Ni": 6466,
      "Ġ1971": 6467,
      "wil": 6468,
      "zempla": 6469,
      "Ġhipo": 6470,
      "GO": 6471,
      "ĠrÃ³Å¼no": 6472,
      "ĠDan": 6473,
      "Ġpopar": 6474,
      "Ġ1936": 6475,
      "ĠduÅ¼ym": 6476,
      "Ġjakiej": 6477,
      "Absolwen": 6478,
      "ĠwÅĤasnej": 6479,
      "gli": 6480,
      "Ġlogi": 6481,
      "Ġboj": 6482,
      "Ġprzyw": 6483,
      "tanie": 6484,
      "dge": 6485,
      "ĠobiektÃ³w": 6486,
      "54": 6487,
      "Ġprzyda": 6488,
      "Ġojciec": 6489,
      "Ġgier": 6490,
      "Ġwysokiej": 6491,
      "ĠHol": 6492,
      "ĠCom": 6493,
      "wÃ³w": 6494,
      "Zabytki": 6495,
      "tfor": 6496,
      "Ġow": 6497,
      "ĠznaczÄħ": 6498,
      "Ġzadowo": 6499,
      "Ġudziela": 6500,
      "Ġ32": 6501,
      "77": 6502,
      "Ġstanowiska": 6503,
      "Ġrezu": 6504,
      "tkami": 6505,
      "Ġklasztor": 6506,
      "ĠSpÃ³ÅĤ": 6507,
      "ĠprzyszÅĤoÅĽci": 6508,
      "Ġpytania": 6509,
      "ĠIzra": 6510,
      "Ġzdaniem": 6511,
      "ĠSÅĤa": 6512,
      "Ġuzbro": 6513,
      "Ġzapozna": 6514,
      "ĠMarii": 6515,
      "ĠMusi": 6516,
      "ĠodÅ¼y": 6517,
      "Ġwraca": 6518,
      "bami": 6519,
      "wcu": 6520,
      "stoÅĽÄĩ": 6521,
      "ĠWyso": 6522,
      "ĠposeÅĤ": 6523,
      "ĠXIV": 6524,
      "tania": 6525,
      "Ġmagne": 6526,
      "towym": 6527,
      "imi": 6528,
      "Ġrys": 6529,
      "ĠwiadomoÅĽci": 6530,
      "ĠMuzy": 6531,
      "Ġtekst": 6532,
      "liza": 6533,
      "oria": 6534,
      "Ġwspomnia": 6535,
      "Ð»": 6536,
      "Ġzasad": 6537,
      "ĠPoznaÅĦ": 6538,
      "ĠwolnoÅĽci": 6539,
      "ĠDavi": 6540,
      "ÅĤowÄĻ": 6541,
      "gatyw": 6542,
      "ĠPiotra": 6543,
      "prost": 6544,
      "ĠprÄĻdkoÅĽci": 6545,
      "vie": 6546,
      "ĠprzepisÃ³w": 6547,
      "dziÅĤy": 6548,
      "Ġparty": 6549,
      "ĠÅ»ydÃ³w": 6550,
      "legÅĤoÅĽÄĩ": 6551,
      "ĠsamochodÃ³w": 6552,
      "dnej": 6553,
      "Podczas": 6554,
      "Se": 6555,
      "ture": 6556,
      "ĠopuÅĽci": 6557,
      "Pe": 6558,
      "Ġswobo": 6559,
      "Ġtwar": 6560,
      "ĠWielkiego": 6561,
      "ĠrÄĻce": 6562,
      "zdra": 6563,
      "dziÅĤo": 6564,
      "rzÄĻdzie": 6565,
      "jscy": 6566,
      "Ġdochodzi": 6567,
      "ĠsÄħsie": 6568,
      "Ġsymboli": 6569,
      "ĠnaszÄħ": 6570,
      "56": 6571,
      "hen": 6572,
      "ĠStanÃ³w": 6573,
      "Ġonline": 6574,
      "ĠNad": 6575,
      "stii": 6576,
      "Ġrezulta": 6577,
      "Ġasy": 6578,
      "ĠDÄħb": 6579,
      "ĠpieniÄĻdzy": 6580,
      "ĠobrÄĻ": 6581,
      "ĠNarodowej": 6582,
      "Ġkontroli": 6583,
      "Ġkara": 6584,
      "Ġproblemu": 6585,
      "Ġ1967": 6586,
      "skry": 6587,
      "ĠkrÃ³tki": 6588,
      "Ġkwali": 6589,
      "ĠPucharu": 6590,
      "Ġzb": 6591,
      "ĠwiÄĻkszÄħ": 6592,
      "ĠspÃ³ÅĤki": 6593,
      "ĠpoczÄħtek": 6594,
      "tos": 6595,
      "ĠZespÃ³ÅĤ": 6596,
      "dnego": 6597,
      "ĠMari": 6598,
      "Ġkola": 6599,
      "Ġewentual": 6600,
      "ĠÅºrÃ³deÅĤ": 6601,
      "uch": 6602,
      "czba": 6603,
      "Ġmonta": 6604,
      "Ġepo": 6605,
      "ÅĤgar": 6606,
      "Ã¨": 6607,
      "ĠKoÅĽcie": 6608,
      "Ġmetal": 6609,
      "Ġemery": 6610,
      "OK": 6611,
      "ĠwÅĤosÃ³w": 6612,
      "Ġkolory": 6613,
      "Ġuprawia": 6614,
      "gene": 6615,
      "Ġszk": 6616,
      "Ġoby": 6617,
      "Ġrozegra": 6618,
      "ĠspoÅĤecznoÅĽci": 6619,
      "Ġwynik": 6620,
      "ÄĻb": 6621,
      "Ġstatu": 6622,
      "ĠÅĤaci": 6623,
      "ĠSzkoÅĤy": 6624,
      "ĠsÄĻ": 6625,
      "ĠLan": 6626,
      "Ġnauczyciel": 6627,
      "Ġdanego": 6628,
      "ĠUniwersytecie": 6629,
      "ĠkiedyÅĽ": 6630,
      "Ġzarejestrowa": 6631,
      "Ġegzempla": 6632,
      "ĠPamiÄĻ": 6633,
      "dba": 6634,
      "ĠmÅĤodych": 6635,
      "Ġpolu": 6636,
      "Ġzwraca": 6637,
      "ĠwÄĻgier": 6638,
      "low": 6639,
      "ĠprzestÄĻp": 6640,
      "padek": 6641,
      "mych": 6642,
      "tÅĤu": 6643,
      "stron": 6644,
      "Ġoch": 6645,
      "Ġ1956": 6646,
      "ĠbezpÅĤa": 6647,
      "stal": 6648,
      "ĠKle": 6649,
      "Ġepi": 6650,
      "Ġ1964": 6651,
      "ĠUniver": 6652,
      "Ġmasy": 6653,
      "ĠsÅĤÃ³w": 6654,
      "ĠbÅĤÄĻd": 6655,
      "towanych": 6656,
      "Ġfesti": 6657,
      "ĠfilmÃ³w": 6658,
      "Ġperku": 6659,
      "Ġzaledwie": 6660,
      "Å¼bie": 6661,
      "Ġkomen": 6662,
      "mowaÄĩ": 6663,
      "Ġ1948": 6664,
      "79": 6665,
      "rzona": 6666,
      "Ġ1947": 6667,
      "mato": 6668,
      "iÅĤ": 6669,
      "Ġwykonane": 6670,
      "ĠAleksandra": 6671,
      "Opis": 6672,
      "ĠÎ": 6673,
      "tkowy": 6674,
      "tta": 6675,
      "ĠrozwiÄħzanie": 6676,
      "Ġkogo": 6677,
      "Ġinternetowej": 6678,
      "noty": 6679,
      "ĠSkar": 6680,
      "ĠMiasto": 6681,
      "Ġdiece": 6682,
      "ĠVer": 6683,
      "xample": 6684,
      "Ġprzedszko": 6685,
      "Ġstosuje": 6686,
      "ĠwÅĤaÅĽciwoÅĽci": 6687,
      "ĠHiszpanii": 6688,
      "lizm": 6689,
      "Ġ1000": 6690,
      "Ġzlo": 6691,
      "lonia": 6692,
      "mieniem": 6693,
      "ĠdruÅ¼yny": 6694,
      "ĠzastÄħpi": 6695,
      "gor": 6696,
      "ĠzadaÅĦ": 6697,
      "Ġpolityki": 6698,
      "cheo": 6699,
      "ĠszkoÅĤa": 6700,
      "ĠSÅĤowa": 6701,
      "Ġprawda": 6702,
      "Ġkoszty": 6703,
      "ĠuzyskaÄĩ": 6704,
      ":)": 6705,
      "Ġ150": 6706,
      "Spo": 6707,
      "ĠutworÃ³w": 6708,
      "ĠKro": 6709,
      "ĠkupiÄĩ": 6710,
      "ĠmaÅĤych": 6711,
      "ogle": 6712,
      "Ġspis": 6713,
      "ĠciÄħÅ¼y": 6714,
      "Ġwiary": 6715,
      "as": 6716,
      "Ġkompleks": 6717,
      "ktuali": 6718,
      "ĠWam": 6719,
      "ĠpÃ³ÅĤnocno": 6720,
      "EM": 6721,
      "Ġrekor": 6722,
      "ĠEk": 6723,
      "Ġteni": 6724,
      "cono": 6725,
      "Ġolej": 6726,
      "Ġnomina": 6727,
      "Ġwierz": 6728,
      "2006": 6729,
      "59": 6730,
      "reszcie": 6731,
      "szar": 6732,
      "rzec": 6733,
      "ĠSka": 6734,
      "ĠSam": 6735,
      "Ġpiersi": 6736,
      "Ale": 6737,
      "ĠchwilÄĻ": 6738,
      "Ġkuchni": 6739,
      "ĠuÅ¼ytkowa": 6740,
      "ĠKsiÄħÅ¼": 6741,
      "Ġrun": 6742,
      "Ġpobra": 6743,
      "ĠpowstaÅĤy": 6744,
      "dzina": 6745,
      "Ġcharakterze": 6746,
      "Ġkompa": 6747,
      "Ġpoto": 6748,
      "owem": 6749,
      "ĠTeraz": 6750,
      "koÅĤo": 6751,
      "Ġidenty": 6752,
      "nnej": 6753,
      "dnikÃ³w": 6754,
      "ĠWindows": 6755,
      "ĠrozpoczÄĻÅĤa": 6756,
      "Ġdystry": 6757,
      "Ġataku": 6758,
      "Ġczaso": 6759,
      "bora": 6760,
      "ĠToru": 6761,
      "ĠSpoÅĤe": 6762,
      "ĠprzewodniczÄħ": 6763,
      "Ġprzechowy": 6764,
      "Ġpary": 6765,
      "ĠdÅĤugie": 6766,
      "2005": 6767,
      "ĠGeorge": 6768,
      "zor": 6769,
      "ĠDia": 6770,
      "Ġangielski": 6771,
      "ĠWorld": 6772,
      "shi": 6773,
      "ĠIr": 6774,
      "nikach": 6775,
      "Ġostro": 6776,
      "Ġwybrze": 6777,
      "ĠBrze": 6778,
      "Å¼onego": 6779,
      "nieÅĽÄĩ": 6780,
      "lanie": 6781,
      "Ġdziew": 6782,
      "Ġdodatkowe": 6783,
      "ach": 6784,
      "Ġmiejscach": 6785,
      "ĠmogÅĤy": 6786,
      "ĠmusiaÅĤ": 6787,
      "Ġniewie": 6788,
      "ĠkrÃ³tko": 6789,
      "Ġmen": 6790,
      "Ġodrzu": 6791,
      "ĠrobiÄĩ": 6792,
      "Ġmalarz": 6793,
      "ĠszczÄĻÅĽcie": 6794,
      "ĠWyÅ¼": 6795,
      "odc": 6796,
      "ĠgÅĤÃ³wnych": 6797,
      "Ġpopra": 6798,
      "skÃ³w": 6799,
      "pospolita": 6800,
      "ĠpozostaÅĤych": 6801,
      "Ġtwarzy": 6802,
      "Ġlicen": 6803,
      "Ġmoja": 6804,
      "Ġmaju": 6805,
      "macnia": 6806,
      "57": 6807,
      "centra": 6808,
      "ĠÅĽwiatÅĤa": 6809,
      "fikacja": 6810,
      "ÅĤod": 6811,
      "mowÄĻ": 6812,
      "ĠKlu": 6813,
      "Ġliteratury": 6814,
      "Ġ1960": 6815,
      "lonego": 6816,
      "52": 6817,
      "Ġzdecydowanie": 6818,
      "Ġnatychmiast": 6819,
      "ciÅĤa": 6820,
      "Ġlegen": 6821,
      "ĠÅºrÃ³dÅĤa": 6822,
      "sel": 6823,
      "88": 6824,
      "ĠsÅĤone": 6825,
      "Ġpowinni": 6826,
      "Ġrodzina": 6827,
      "Å¼sa": 6828,
      "ĠYou": 6829,
      "ĠZam": 6830,
      "ĠpowiÄĻk": 6831,
      "ĠNagrody": 6832,
      "Ġodbior": 6833,
      "Ġkomfor": 6834,
      "html": 6835,
      "ĠWojska": 6836,
      "sady": 6837,
      "ĠSuper": 6838,
      "ĠodbyÅĤa": 6839,
      "Ġjo": 6840,
      "ord": 6841,
      "Ġwysoko": 6842,
      "Ġskutek": 6843,
      "example": 6844,
      "pomor": 6845,
      "Ġoferuje": 6846,
      "ÅĽwiÄĻt": 6847,
      "ĠwyksztaÅĤ": 6848,
      "ĠokrÄĻgu": 6849,
      "tkowych": 6850,
      "Ġtymczas": 6851,
      "lania": 6852,
      "ĠAntoni": 6853,
      "suje": 6854,
      "ĠprzyjaciÃ³ÅĤ": 6855,
      "ÄĻÅĽÄĩ": 6856,
      "con": 6857,
      "Ġwspomina": 6858,
      "ĠRegi": 6859,
      "Ġsystemie": 6860,
      "szczu": 6861,
      "dnÄħ": 6862,
      "ĠpomysÅĤ": 6863,
      "Ġbazie": 6864,
      "Ġdyrektor": 6865,
      "Ġtransport": 6866,
      "moÅĽÄĩ": 6867,
      "Ġefektyw": 6868,
      "har": 6869,
      "ĠdoÅĽwiadczenia": 6870,
      "Ġap": 6871,
      "ĠpodkreÅĽla": 6872,
      "dzania": 6873,
      "trzeb": 6874,
      "Ġsierp": 6875,
      "ĠzmarÅĤ": 6876,
      "Ġcud": 6877,
      "ĠdrugÄħ": 6878,
      "klo": 6879,
      "ĠciaÅĤo": 6880,
      "wcÃ³w": 6881,
      "nna": 6882,
      "2000": 6883,
      "Ġstyczniu": 6884,
      "Ġdba": 6885,
      "ĠMarcin": 6886,
      "Ġsos": 6887,
      "Ġosobowych": 6888,
      "Ġrozumie": 6889,
      "stname": 6890,
      "Ġ1937": 6891,
      "ĠPani": 6892,
      "Ġwymienia": 6893,
      "Ġsprzy": 6894,
      "Gra": 6895,
      "ĠskÅĤadzie": 6896,
      "nastu": 6897,
      "Ġwystarczy": 6898,
      "cisk": 6899,
      "ĠDom": 6900,
      "Ġprowincji": 6901,
      "ĠÅĽlu": 6902,
      "tyczna": 6903,
      "pel": 6904,
      "mistrz": 6905,
      "Osta": 6906,
      "Ġdoskonale": 6907,
      "Go": 6908,
      "Ġczerwcu": 6909,
      "Ġdostaw": 6910,
      "czkÄħ": 6911,
      "ĠTre": 6912,
      "Ġdzieje": 6913,
      "bera": 6914,
      "Ġdzielnicy": 6915,
      "ĠVe": 6916,
      "ĠGminy": 6917,
      "Ġzastosowanie": 6918,
      "ĠpasaÅ¼er": 6919,
      "urea": 6920,
      "Ġpewne": 6921,
      "Ġwolno": 6922,
      "ĠDywi": 6923,
      "ĠniepeÅĤ": 6924,
      "piec": 6925,
      "chaÄĩ": 6926,
      "ĠMam": 6927,
      "ĠgÅĤosÃ³w": 6928,
      "ĠmÅĤodzieÅ¼y": 6929,
      "piÄĩ": 6930,
      "Ġzyska": 6931,
      "Przez": 6932,
      "CE": 6933,
      "ĠEgip": 6934,
      "ĠbÅĤÄĻ": 6935,
      "ĠNA": 6936,
      "Ġustaw": 6937,
      "Ġserialu": 6938,
      "Ġrynek": 6939,
      "2011": 6940,
      "Ġniemieckiego": 6941,
      "bierz": 6942,
      "obo": 6943,
      "Ġnajlepsze": 6944,
      "ĠznalazÅĤ": 6945,
      "Ġcech": 6946,
      "Ġkrea": 6947,
      "ĠmilionÃ³w": 6948,
      "wic": 6949,
      "Ġwszelkie": 6950,
      "Ġaplikacji": 6951,
      "Ġdziennikarz": 6952,
      "burg": 6953,
      "Ġplu": 6954,
      "larÃ³w": 6955,
      "Ġodzyska": 6956,
      "ĠWilhel": 6957,
      "Ġteorii": 6958,
      "ĠÅĽwiadomo": 6959,
      "Wszyst": 6960,
      "ĠOczywiÅĽcie": 6961,
      "Å¼ni": 6962,
      "Ġszkolenia": 6963,
      "ĠPrezyden": 6964,
      "ĠwydaÅĤ": 6965,
      "ĠwschÃ³d": 6966,
      "ĠmateriaÅĤu": 6967,
      "Nazwa": 6968,
      "ĠPO": 6969,
      "Ġtema": 6970,
      "ĠSS": 6971,
      "ĠFilm": 6972,
      "czymy": 6973,
      "ĠDra": 6974,
      "nÃ³": 6975,
      "ÅĤymi": 6976,
      "ĠksiÄħÅ¼ek": 6977,
      "Ġdziedzinie": 6978,
      "rei": 6979,
      "tyk": 6980,
      "Ġstosowania": 6981,
      "Ġ1950": 6982,
      "mira": 6983,
      "Ġresz": 6984,
      "Ġlekarza": 6985,
      "val": 6986,
      "ĠwytwÃ³r": 6987,
      "stÄħpienia": 6988,
      "genty": 6989,
      "scypli": 6990,
      "Ġszans": 6991,
      "ĠZostaÅĤ": 6992,
      "ĠTowns": 6993,
      "Ġskaza": 6994,
      "Ġudzie": 6995,
      "zjÄħ": 6996,
      "ĠPowia": 6997,
      "bienia": 6998,
      "ĠFrancu": 6999,
      "Ġwyobra": 7000,
      "ĠdzieÅĤa": 7001,
      "Ġpremiera": 7002,
      "ĠkrÃ³le": 7003,
      "Ġniemieckich": 7004,
      "ĠMieszka": 7005,
      "ĠFir": 7006,
      "lista": 7007,
      "sar": 7008,
      "Å¼yÅĤa": 7009,
      "Ġhod": 7010,
      "Ġhistoria": 7011,
      "ĠpowyÅ¼": 7012,
      "ezer": 7013,
      "Ġprowadzenia": 7014,
      "Ġwniosek": 7015,
      "Ġkawa": 7016,
      "ĠczÄĻÅĽciej": 7017,
      "Ġmary": 7018,
      "Doda": 7019,
      "2010": 7020,
      "ccy": 7021,
      "frastru": 7022,
      "Ġmaj": 7023,
      "Ġgrupie": 7024,
      "Ġwykaza": 7025,
      "bione": 7026,
      "MS": 7027,
      "ĠkaÅ¼da": 7028,
      "Ġ1965": 7029,
      "ĠZnaj": 7030,
      "Ġzato": 7031,
      "Ġ1966": 7032,
      "Ġwielki": 7033,
      "Ġdynami": 7034,
      "ĠoÅĽwiad": 7035,
      "Ġmoni": 7036,
      "chia": 7037,
      "Ġnasi": 7038,
      "âĢĶ": 7039,
      "ĠdÅĤugoÅĽÄĩ": 7040,
      "Ġzbo": 7041,
      "Ġzasila": 7042,
      "ÅĽciÄĩ": 7043,
      "Ġnegatyw": 7044,
      "Ġzali": 7045,
      "dowy": 7046,
      "kiedy": 7047,
      "ĠÅĽrodki": 7048,
      "ĠÅĤÄħczÄħ": 7049,
      "polskiego": 7050,
      "Ġfunkcje": 7051,
      "kowanych": 7052,
      "ĠzostanÄħ": 7053,
      "Ġ400": 7054,
      "Ġregionu": 7055,
      "Ġdes": 7056,
      "mpli": 7057,
      "tte": 7058,
      "ĠÅļwi": 7059,
      "ĠFrydery": 7060,
      "Ġglo": 7061,
      "ĠBri": 7062,
      "Å¼an": 7063,
      "Ġprzesu": 7064,
      "unkowo": 7065,
      "ID": 7066,
      "Ġostatnim": 7067,
      "Å¼ÄĻ": 7068,
      "Polska": 7069,
      "sport": 7070,
      "ĠzbiÃ³r": 7071,
      "ÅĤopo": 7072,
      "ÄĻzy": 7073,
      "nny": 7074,
      "grafi": 7075,
      "Ġmojego": 7076,
      "ĠnawiÄħ": 7077,
      "Ġwiecz": 7078,
      "Ġdomy": 7079,
      "Ġkali": 7080,
      "ĠJezusa": 7081,
      "formu": 7082,
      "Ġseku": 7083,
      "ĠPau": 7084,
      "69": 7085,
      "Ġodczu": 7086,
      "Absolwenci": 7087,
      "Ġdruga": 7088,
      "lowe": 7089,
      "Ġponadto": 7090,
      "Ġopinii": 7091,
      "Ġnacze": 7092,
      "Ġkryzy": 7093,
      "67": 7094,
      "2014": 7095,
      "pio": 7096,
      "Ġmoich": 7097,
      "Ġpobiera": 7098,
      "ise": 7099,
      "yer": 7100,
      "Ġegza": 7101,
      "ĠdowÃ³dzt": 7102,
      "Ġinnej": 7103,
      "Ġholender": 7104,
      "ĠAna": 7105,
      "ÃĵW": 7106,
      "szeniu": 7107,
      "tari": 7108,
      "Ġczele": 7109,
      "Gdy": 7110,
      "ĠPy": 7111,
      "Ġpodstawowych": 7112,
      "Ġobrony": 7113,
      "ĠpÃ³ÅĤnocnej": 7114,
      "tona": 7115,
      "ĠktÃ³rymi": 7116,
      "tkach": 7117,
      "Ġsamochodu": 7118,
      "tacjÄĻ": 7119,
      "Ġopiera": 7120,
      "Ġunie": 7121,
      "Ġprzeci": 7122,
      "Ġpozostaje": 7123,
      "letnie": 7124,
      "mus": 7125,
      "ĠRadzie": 7126,
      "ĠwyraÅ¼a": 7127,
      "ĠAnt": 7128,
      "Ġrywali": 7129,
      "kola": 7130,
      "ĠbudynkÃ³w": 7131,
      "53": 7132,
      "ĠAli": 7133,
      "ĠStanach": 7134,
      "ĠPolity": 7135,
      "Ġewangeli": 7136,
      "ĠStefa": 7137,
      "Ġkampanii": 7138,
      "Ġ1930": 7139,
      "ĠbrÄħz": 7140,
      "ĠÅģuka": 7141,
      "bru": 7142,
      "ĠuwzglÄĻd": 7143,
      "zycji": 7144,
      "ĠOprÃ³cz": 7145,
      "Ġmarcu": 7146,
      "KI": 7147,
      "nnych": 7148,
      "Ġ1957": 7149,
      "Ġrejestru": 7150,
      "ĠOlszty": 7151,
      "Ġnur": 7152,
      "Ġkonkursu": 7153,
      "Ġocenia": 7154,
      "ĠPierwszy": 7155,
      "stawia": 7156,
      "Ġlikwi": 7157,
      "ĠsprzedaÅ¼": 7158,
      "Ġwychowa": 7159,
      "Ġkonserwa": 7160,
      "Ġniemieckiej": 7161,
      "Ġspor": 7162,
      "Ġsobo": 7163,
      "Ġpiechoty": 7164,
      "szczÄħ": 7165,
      "Ġzachowania": 7166,
      "ĠXIII": 7167,
      "ĠposiadajÄħ": 7168,
      "ĠpoÅĤÄħczenie": 7169,
      "ĠÅĽlub": 7170,
      "Ġoprogram": 7171,
      "terii": 7172,
      "ĠobowiÄħzu": 7173,
      "ĠwÅĤasnÄħ": 7174,
      "ĠpeÅĤniÅĤ": 7175,
      "Ġzamku": 7176,
      "2012": 7177,
      "szan": 7178,
      "ĠNazwa": 7179,
      "Ġprzypadkach": 7180,
      "Ġobejmu": 7181,
      "ĠpÃ³ÅĤnocy": 7182,
      "ĠJose": 7183,
      "dzÄħc": 7184,
      "ĠuÅ¼ytku": 7185,
      "Kie": 7186,
      "Ġodbud": 7187,
      "tions": 7188,
      "ĠStrze": 7189,
      "kowskiej": 7190,
      "Ġenerge": 7191,
      "ĠJerzego": 7192,
      "tuÅĤ": 7193,
      "%.": 7194,
      "Ġwzor": 7195,
      "Ġ1934": 7196,
      "Ġwybrany": 7197,
      "cjonu": 7198,
      "Ġcyklu": 7199,
      "2009": 7200,
      "czak": 7201,
      "Ġgrudniu": 7202,
      "Ġotwiera": 7203,
      "Ġminima": 7204,
      "Ġizo": 7205,
      "Ġtereny": 7206,
      "Ġpowstanie": 7207,
      "ĠParyÅ¼u": 7208,
      "wsze": 7209,
      "Ġulega": 7210,
      "Ġwyszuki": 7211,
      "szczeÅĦ": 7212,
      "our": 7213,
      "Ġmomentu": 7214,
      "korzy": 7215,
      "2017": 7216,
      "Ġkolum": 7217,
      "ĠtekstÃ³w": 7218,
      "Ġpsychi": 7219,
      "Ġserwisu": 7220,
      "Ġprawnik": 7221,
      "tyfika": 7222,
      "Ġcmentarzu": 7223,
      "ĠpoÅĤoÅ¼one": 7224,
      "ĠdÄħ": 7225,
      "SS": 7226,
      "Ġswej": 7227,
      "ĠRzeczpospolita": 7228,
      "98": 7229,
      "czoÅĽÄĩ": 7230,
      "ĠwkrÃ³tce": 7231,
      "Ġpraktycznie": 7232,
      "Ġkanady": 7233,
      "Ġseksual": 7234,
      "ĠmieszkaÅĦcy": 7235,
      "Ġminera": 7236,
      "czko": 7237,
      "ĠFina": 7238,
      "Ġklasyfikacji": 7239,
      "ĠprzeglÄħdar": 7240,
      "ĠKazimierza": 7241,
      "centa": 7242,
      "ĠwstÄĻp": 7243,
      "Ġstosowane": 7244,
      "2013": 7245,
      "ED": 7246,
      "rzeniem": 7247,
      "ĠsystemÃ³w": 7248,
      "ĠprzyÅĤÄħ": 7249,
      "zjo": 7250,
      "Ġfilozof": 7251,
      "ĠkoÅĦc": 7252,
      "ĠChrystusa": 7253,
      "nowo": 7254,
      "Äį": 7255,
      "Ġtest": 7256,
      "Ġtermin": 7257,
      "ÅĤgorza": 7258,
      "ĠmiesiÄĻ": 7259,
      "Ġnapo": 7260,
      "Ġeksper": 7261,
      "op": 7262,
      "Ġprzekracza": 7263,
      "2008": 7264,
      "cznika": 7265,
      "ĠuczestnikÃ³w": 7266,
      "niesieniu": 7267,
      "DziaÅĤa": 7268,
      "Ġilu": 7269,
      "Ġ1933": 7270,
      "Ġrej": 7271,
      "szczeniu": 7272,
      "ĠÅĤÄħcznie": 7273,
      "cea": 7274,
      "Ġkano": 7275,
      "Ġlist": 7276,
      "Ġchory": 7277,
      "Ġformu": 7278,
      "Uczestnicy": 7279,
      "ĠJanusz": 7280,
      "ĠpociÄħ": 7281,
      "szona": 7282,
      "Ġopieku": 7283,
      "zujÄħc": 7284,
      "ĠKom": 7285,
      "ÅĽciem": 7286,
      "Ġzbi": 7287,
      "ĠPartii": 7288,
      "Ġtemperatury": 7289,
      "udo": 7290,
      "ĠKrakowa": 7291,
      "ĠTownship": 7292,
      "Ġarcybiskup": 7293,
      "fera": 7294,
      "zon": 7295,
      "ĠKrzyÅ¼a": 7296,
      "Ġrejestra": 7297,
      "finans": 7298,
      "Cho": 7299,
      "mion": 7300,
      "Ġ1962": 7301,
      "Ġbal": 7302,
      "Ġzmo": 7303,
      "end": 7304,
      "ĠPRL": 7305,
      "rowo": 7306,
      "ĠrÃ³": 7307,
      "boga": 7308,
      "ĠksztaÅĤt": 7309,
      "Åºnia": 7310,
      "ÅĽliÄĩ": 7311,
      "dap": 7312,
      "73": 7313,
      "ĠsoÅĤe": 7314,
      "Ġokolicach": 7315,
      "Ġbrzu": 7316,
      "zno": 7317,
      "Ġsing": 7318,
      "mper": 7319,
      "ĠsprawÄĻ": 7320,
      "rowi": 7321,
      "ĠNaleÅ¼y": 7322,
      "Ġdrog": 7323,
      "Ġcyfr": 7324,
      "ceum": 7325,
      "Ġgatunek": 7326,
      "Ġpracodaw": 7327,
      "Ġzakon": 7328,
      "ĠobrÄĻbie": 7329,
      "czyÅĦski": 7330,
      "Ġrelacji": 7331,
      "Ġtransportu": 7332,
      "Ġpublicy": 7333,
      "Ġpolicja": 7334,
      "Ġwarzy": 7335,
      "ĠÅģÄħ": 7336,
      "nospraw": 7337,
      "praszam": 7338,
      "ĠÅ¼yw": 7339,
      "Ġtury": 7340,
      "Ġmg": 7341,
      "2004": 7342,
      "dam": 7343,
      "ĠuÅĽmie": 7344,
      "ĠDodatkowo": 7345,
      "Ġczasami": 7346,
      "Ġdzwo": 7347,
      "kaz": 7348,
      "Ġwilgo": 7349,
      "Ġprocedu": 7350,
      "ÅĤowe": 7351,
      "Ġznie": 7352,
      "ĠKowa": 7353,
      "dzajÄħ": 7354,
      "Ġwidzenia": 7355,
      "ĠJagiel": 7356,
      "Ġzade": 7357,
      "Ġinni": 7358,
      "Ġpilo": 7359,
      "ĠLip": 7360,
      "Ġport": 7361,
      "ĠzwiÄħzek": 7362,
      "Ã³rza": 7363,
      "Ġkore": 7364,
      "ĠSal": 7365,
      "Ġsytuacja": 7366,
      "pina": 7367,
      "sada": 7368,
      "ĠrosnÄħ": 7369,
      "tive": 7370,
      "kowskim": 7371,
      ":||": 7372,
      "Ġ1928": 7373,
      "ĠpiÄĻciu": 7374,
      "Ġroczni": 7375,
      "Ġtable": 7376,
      "decznie": 7377,
      "ierÄĻ": 7378,
      "ĠwraÅ¼enie": 7379,
      "ĠFrank": 7380,
      "lenda": 7381,
      "Ġprzeby": 7382,
      "Ġlipcu": 7383,
      "ĠWÅĽrÃ³d": 7384,
      "ĠwysokoÅĽÄĩ": 7385,
      "tary": 7386,
      "ET": 7387,
      "cymi": 7388,
      "deracji": 7389,
      "szaÅĤ": 7390,
      "ĠdecyzjÄĻ": 7391,
      "ĠAndrzeja": 7392,
      "lane": 7393,
      "ĠwystÄħpiÅĤ": 7394,
      "Ġ1949": 7395,
      "ĠkrzyÅ¼": 7396,
      "51": 7397,
      "lonym": 7398,
      "Ġpropo": 7399,
      "niejsza": 7400,
      "ĠpoÅĤudnie": 7401,
      "wice": 7402,
      "dniki": 7403,
      "Ġmedal": 7404,
      "Ġ1958": 7405,
      "ĠbiorÄħ": 7406,
      "Ġpromieni": 7407,
      "Ġmistrz": 7408,
      "Ġuj": 7409,
      "ĠwÅĤasnego": 7410,
      "ĠTam": 7411,
      "Ġzdrowo": 7412,
      "nujÄħc": 7413,
      "Ġtworzenia": 7414,
      "ĠGÃ³ra": 7415,
      "ĠrÃ³Å¼norod": 7416,
      "ĠrÄħ": 7417,
      "Ġsprowa": 7418,
      "buna": 7419,
      "Ġwcale": 7420,
      "Ġoperacji": 7421,
      "cebo": 7422,
      "pan": 7423,
      "niona": 7424,
      "padzie": 7425,
      "ĠobciÄħ": 7426,
      "Ġuniwersyte": 7427,
      "Ġidzie": 7428,
      "Ġzasadzie": 7429,
      "Ã³dÅº": 7430,
      "nat": 7431,
      "Ġdanej": 7432,
      "ĠdowÃ³dca": 7433,
      "ĠĠĊ": 7434,
      "ĠczÄĻÅĽciowo": 7435,
      "Ġgitara": 7436,
      "OÅļ": 7437,
      "wscho": 7438,
      "Ġkome": 7439,
      "jek": 7440,
      "ĠpowiÄħza": 7441,
      "ĠpaÅºdzierniku": 7442,
      "pliwoÅĽci": 7443,
      "74": 7444,
      "ĠMedal": 7445,
      "ĠsprzÄĻtu": 7446,
      "kujÄħ": 7447,
      "ĠpamiÄĻtaÄĩ": 7448,
      "Ġmarket": 7449,
      "2016": 7450,
      "Ġnume": 7451,
      "ista": 7452,
      "Ġwytrzyma": 7453,
      "Ġtrzecie": 7454,
      "muni": 7455,
      "Ġobron": 7456,
      "vel": 7457,
      "ĠgÅĤÃ³wnej": 7458,
      "Ġ;)": 7459,
      "Ġcena": 7460,
      "ĠstudiÃ³w": 7461,
      "cjalna": 7462,
      "ĠGol": 7463,
      "Ġwzmoc": 7464,
      "ĠWarszawskiego": 7465,
      "ĠwyÅ¼ej": 7466,
      "ĠAleksander": 7467,
      "ĠmÅĤod": 7468,
      "niÄĻte": 7469,
      "ĠÅĽredniej": 7470,
      "ĠpoÅĤudniowej": 7471,
      "Ġsiatka": 7472,
      "Wita": 7473,
      "ĠKarola": 7474,
      "nden": 7475,
      "ĠStefan": 7476,
      "Ġprzycho": 7477,
      "ĠuÅ¼ytkownika": 7478,
      "Ġzrezy": 7479,
      "ĠzwyciÄĻstwo": 7480,
      "ĠprzedsiÄĻbiorstwa": 7481,
      "Ġprofesor": 7482,
      "hr": 7483,
      "lowej": 7484,
      "Ġ1935": 7485,
      "Ġtradycji": 7486,
      "Ġwniosku": 7487,
      "ĠInterne": 7488,
      "mani": 7489,
      "ĠmiÄĻk": 7490,
      "czami": 7491,
      "jnym": 7492,
      "zia": 7493,
      "Ġsporo": 7494,
      "ĠszeÅĽÄĩ": 7495,
      "lacje": 7496,
      "ĠFin": 7497,
      "Ġnaru": 7498,
      "Ġlite": 7499,
      "MP": 7500,
      "62": 7501,
      "zacho": 7502,
      "ĠpaÅĤa": 7503,
      "kter": 7504,
      "fal": 7505,
      "2007": 7506,
      "ĠogÃ³lno": 7507,
      "ĠWydziaÅĤu": 7508,
      "ĠzamÃ³wienia": 7509,
      "piÄĻk": 7510,
      "wiona": 7511,
      "ĠobjÄħÅĤ": 7512,
      "iny": 7513,
      "tykÃ³w": 7514,
      "ÅĤoÅ¼enie": 7515,
      "Ġmiejscem": 7516,
      "Ge": 7517,
      "ĠwysyÅĤa": 7518,
      "Ġitd": 7519,
      "Ġste": 7520,
      "Ġrecep": 7521,
      "Å¼onej": 7522,
      "ĠÅĤazie": 7523,
      "DZ": 7524,
      "ĠFranciszek": 7525,
      "Ġgaze": 7526,
      "Ġskali": 7527,
      "Ġ48": 7528,
      "Ġpodoba": 7529,
      "ĠprzejÄĻ": 7530,
      "Ġnieprzy": 7531,
      "Ġdemokra": 7532,
      "ĠVII": 7533,
      "ĠprowadziÅĤ": 7534,
      "ĠAust": 7535,
      "ĠbÄĻdziesz": 7536,
      "ntro": 7537,
      "Å¼ka": 7538,
      "solu": 7539,
      "Ġniedzie": 7540,
      "ĠNajÅĽwiÄĻt": 7541,
      "ĠuÅ¼yciu": 7542,
      "ĠspoÅĤecznej": 7543,
      "Ġkatastro": 7544,
      "dki": 7545,
      "Ġwynagro": 7546,
      "Ġkultur": 7547,
      "mart": 7548,
      "Ġszan": 7549,
      "Ġintegra": 7550,
      "Ġ*": 7551,
      "Ġpodobne": 7552,
      "ĠdodaÄĩ": 7553,
      "ligen": 7554,
      "NY": 7555,
      "dliwoÅĽci": 7556,
      "ĠzaczÄĻÅĤa": 7557,
      "Ġznaczy": 7558,
      "Ġwybi": 7559,
      "ĠPozosta": 7560,
      "ĠzarzÄħdzania": 7561,
      "Ġhor": 7562,
      "powszech": 7563,
      "edytuj": 7564,
      "ĠHy": 7565,
      "ĠJacek": 7566,
      "Ġbiegu": 7567,
      "Ġwzrostu": 7568,
      "ĠwodÄħ": 7569,
      "Ġ1929": 7570,
      "Ġniespo": 7571,
      "WÅĤa": 7572,
      "Ġaku": 7573,
      "Ġprzysta": 7574,
      "ĠuzaleÅ¼": 7575,
      "Ġpoby": 7576,
      "ĠzachÃ³d": 7577,
      "ownikÃ³w": 7578,
      "ĠdÅĤo": 7579,
      "ĠAs": 7580,
      "Ġcookies": 7581,
      "Ġ1963": 7582,
      "nowski": 7583,
      "Bu": 7584,
      "bÄĻdzie": 7585,
      "Ġmono": 7586,
      "ĠkoÅĽciele": 7587,
      "ĠKawa": 7588,
      "ĠPÃ³Åºniej": 7589,
      "riu": 7590,
      "sowe": 7591,
      "nowy": 7592,
      "ĠbranÅ¼y": 7593,
      "ĠOgÃ³lno": 7594,
      "ĠZwy": 7595,
      "Ġopozy": 7596,
      "ilka": 7597,
      "ĠLitera": 7598,
      "ĠposiÅĤ": 7599,
      "jechaÅĤ": 7600,
      "ĠliczyÅĤa": 7601,
      "nowu": 7602,
      "Ġogranicza": 7603,
      "ĠUniversi": 7604,
      "ĠlÄĻ": 7605,
      "ĠSÄħd": 7606,
      "Ġmieszkania": 7607,
      "mimo": 7608,
      "ĠStrona": 7609,
      "Ġfundu": 7610,
      "Ġrodzinie": 7611,
      "2015": 7612,
      "Ġwystarcza": 7613,
      "szewski": 7614,
      "ĠsamochÃ³d": 7615,
      "ĠAzji": 7616,
      "Ġsklepie": 7617,
      "Ġsierpniu": 7618,
      "ĠNorwe": 7619,
      "fel": 7620,
      "Ġpatr": 7621,
      "Ġprzepisy": 7622,
      "ĠpostÄĻpowania": 7623,
      "pry": 7624,
      "ĠMona": 7625,
      "ĠprawosÅĤaw": 7626,
      "ĠmateriaÅĤ": 7627,
      "ĠEdu": 7628,
      "Ġ1952": 7629,
      "wiono": 7630,
      "Ġcele": 7631,
      "ĠElÅ¼bie": 7632,
      "ĠKomitetu": 7633,
      "ĠodrÄĻb": 7634,
      "ĠskrÃ³": 7635,
      "stanty": 7636,
      "zdrawiam": 7637,
      "Ġsilnik": 7638,
      "ĠJaponii": 7639,
      "dujÄħ": 7640,
      "Ġstatysty": 7641,
      "ĠAK": 7642,
      "ĠpaÅĦstwo": 7643,
      "Ġnieprze": 7644,
      "niowych": 7645,
      "ĠPowszech": 7646,
      "trzymu": 7647,
      "Ġ1922": 7648,
      "Ġwielkie": 7649,
      "Ġrezy": 7650,
      "Ġfolwar": 7651,
      "ĠwrÄĻcz": 7652,
      "Ġeksploa": 7653,
      "71": 7654,
      "Ġnorwe": 7655,
      "Ġparku": 7656,
      "ĠpozycjÄĻ": 7657,
      "formowa": 7658,
      "Ġtelef": 7659,
      "Polity": 7660,
      "Ġinstytucji": 7661,
      "Ġinwestycji": 7662,
      "ĠokazaÅĤo": 7663,
      "dowane": 7664,
      "Ġperspek": 7665,
      "strali": 7666,
      "Ġzakup": 7667,
      "ĠwÅĤaÅĽciwie": 7668,
      "logu": 7669,
      "ĠwiÄĻkszych": 7670,
      "Ġherbu": 7671,
      "ÅĽlÄħ": 7672,
      "los": 7673,
      "ĠNajwyÅ¼": 7674,
      "df": 7675,
      "Ġkoron": 7676,
      "Ġspodzie": 7677,
      "ĠmiÄĻÅĽni": 7678,
      "stycznych": 7679,
      "char": 7680,
      "ĠGali": 7681,
      "Pos": 7682,
      "ĠGer": 7683,
      "ĠGor": 7684,
      "rzaÅĤ": 7685,
      "Ġ1932": 7686,
      "ĠLondynie": 7687,
      "ĠBryty": 7688,
      "ĠMil": 7689,
      "pitu": 7690,
      "ĠPaw": 7691,
      "Ġuczelni": 7692,
      "dzanie": 7693,
      "ĠKlub": 7694,
      "doba": 7695,
      "Ġfaktu": 7696,
      "Ġkosmi": 7697,
      "Ġspecyfi": 7698,
      "bis": 7699,
      "Ġuzyskania": 7700,
      "JeÅ¼eli": 7701,
      "bÃ³r": 7702,
      "regu": 7703,
      "ĠGospodar": 7704,
      "ĠByÅĤa": 7705,
      "Å¼onym": 7706,
      "lskiego": 7707,
      "Ġkot": 7708,
      "Ġobiekty": 7709,
      "kÅĤo": 7710,
      "logicznej": 7711,
      "unt": 7712,
      "lio": 7713,
      "ĠRec": 7714,
      "ĠduÅ¼a": 7715,
      "Ġodpowiednie": 7716,
      "lti": 7717,
      "nÄĻÅĤy": 7718,
      "Ġ()": 7719,
      "ĠHenryka": 7720,
      "Ġgatunku": 7721,
      "Ġcieszy": 7722,
      "camy": 7723,
      "ye": 7724,
      "Ġznanych": 7725,
      "Ne": 7726,
      "fle": 7727,
      "ĠspoÅĤecznych": 7728,
      "ĠwnÄĻtrza": 7729,
      "Ġmalar": 7730,
      "Ġteore": 7731,
      "ĠPracy": 7732,
      "ĠukoÅĦczyÅĤ": 7733,
      "Ġrzadko": 7734,
      "ĠAp": 7735,
      "nemu": 7736,
      "Ġelement": 7737,
      "wojewÃ³dztwo": 7738,
      "Ġdiagno": 7739,
      "Ġ1959": 7740,
      "Ġdefini": 7741,
      "pÅĤywa": 7742,
      "Ġzarzu": 7743,
      "Ġodebra": 7744,
      "Ġlistopadzie": 7745,
      "Ġproste": 7746,
      "Ġ1924": 7747,
      "chno": 7748,
      "ĠmateriaÅĤy": 7749,
      "ĠKru": 7750,
      "Ġportu": 7751,
      "ĠWszystko": 7752,
      "Ġutrzymy": 7753,
      "Ġgaz": 7754,
      "ĠznÃ³w": 7755,
      "ĠroÅĽliny": 7756,
      "Ġwyprodu": 7757,
      "Ġ33": 7758,
      "Ġwych": 7759,
      "ĠBÃ³g": 7760,
      "ĠRepubliki": 7761,
      "ĠÅ¼ywo": 7762,
      "ĠwypÅĤa": 7763,
      "Ġkwietniu": 7764,
      "ĠdrogÄĻ": 7765,
      "Ġsamych": 7766,
      "ĠzewnÄħtrz": 7767,
      "ĠrozwiÄħzaÅĦ": 7768,
      "ĠdokumentÃ³w": 7769,
      "Ġ1914": 7770,
      "Ġkru": 7771,
      "ĠprzesÅĤa": 7772,
      "Ġrach": 7773,
      "Ġwizer": 7774,
      "Ġprzechodzi": 7775,
      "Ġpakie": 7776,
      "tter": 7777,
      "czonÄħ": 7778,
      "Ġopu": 7779,
      "ĠJagiello": 7780,
      "wiec": 7781,
      "ĠuÅ¼ywane": 7782,
      "ĠwpÅĤywa": 7783,
      "96": 7784,
      "Ġ#": 7785,
      "Ġujaw": 7786,
      "zmie": 7787,
      "ĠpÅĤci": 7788,
      "ĠhistoriÄĻ": 7789,
      "Ġprywatne": 7790,
      "Ġkarty": 7791,
      "Ġorganizm": 7792,
      "tce": 7793,
      "ĠwÅĤosy": 7794,
      "ĠprÃ³by": 7795,
      "Ġwydanie": 7796,
      "Ġbel": 7797,
      "ĠJakub": 7798,
      "Ġalterna": 7799,
      "ĠZu": 7800,
      "ĠâĨ": 7801,
      "Ġportalu": 7802,
      "ĠMin": 7803,
      "dzaÄĩ": 7804,
      "Ġgranicach": 7805,
      "ĠprojektÃ³w": 7806,
      "Ġzaufa": 7807,
      "dzis": 7808,
      "Ġkomunikacji": 7809,
      "Ġ1961": 7810,
      "szono": 7811,
      "ĠkoÅĦczy": 7812,
      "Ġtygodniu": 7813,
      "wiga": 7814,
      "ĠPrawo": 7815,
      "Ġsztuk": 7816,
      "ĠnajwaÅ¼niejszych": 7817,
      "ik": 7818,
      "Ġkonstytu": 7819,
      "ĠNajlep": 7820,
      "rÃ³Å¼nia": 7821,
      "ĠtuÅ¼": 7822,
      "2002": 7823,
      "Ġspecjalne": 7824,
      "ĠdoÅĽwiadczenie": 7825,
      "Ġwykry": 7826,
      "tele": 7827,
      "ĠIm": 7828,
      "lary": 7829,
      "natu": 7830,
      "ĠCu": 7831,
      "sora": 7832,
      "Ġpartne": 7833,
      "ĠoÅĽwiet": 7834,
      "Ġzachodniej": 7835,
      "Ġmodu": 7836,
      "Ġdyna": 7837,
      "skimi": 7838,
      "Ġrecen": 7839,
      "ĠDow": 7840,
      "Ġznaczenia": 7841,
      "Ġkory": 7842,
      "Ġumy": 7843,
      "85": 7844,
      "Ġpublicznej": 7845,
      "Ġekspery": 7846,
      "Ġbiur": 7847,
      "ĠOlimpi": 7848,
      "ĠAgen": 7849,
      "wczych": 7850,
      "Ġgor": 7851,
      "RA": 7852,
      "sista": 7853,
      "ret": 7854,
      "ĠpoÅĽrednictwem": 7855,
      "ĠnoÅ¼nej": 7856,
      "ĠWÅĤadysÅĤawa": 7857,
      "Ġmora": 7858,
      "Ġwysy": 7859,
      "Ġinnowa": 7860,
      "portu": 7861,
      "ĠsÅĤuÅ¼y": 7862,
      "the": 7863,
      "Ġmusimy": 7864,
      "ktry": 7865,
      "ĠPolskie": 7866,
      "ĠfirmÄĻ": 7867,
      "nujemy": 7868,
      "Ġbazy": 7869,
      "Polskie": 7870,
      "tkowej": 7871,
      "Ġzba": 7872,
      "92": 7873,
      "Ġsaty": 7874,
      "ĠMaÅĤgorza": 7875,
      "ĠpaÅĤac": 7876,
      "63": 7877,
      "zowania": 7878,
      "Ġ2023": 7879,
      "ĠDanie": 7880,
      "Ġedycji": 7881,
      "97": 7882,
      "ĠmiÅĤoÅĽÄĩ": 7883,
      "ĠpomÃ³c": 7884,
      "Ġunik": 7885,
      "Ġgospodarki": 7886,
      "Ġ1951": 7887,
      "Ġzwal": 7888,
      "Ġwydania": 7889,
      "ĠzakoÅĦczyÅĤ": 7890,
      "Ġzagranicznych": 7891,
      "ĠbÃ³": 7892,
      "ĠprzywÃ³d": 7893,
      "mentach": 7894,
      "Ġ1925": 7895,
      "Kolej": 7896,
      "Ġstoi": 7897,
      "ĠGrand": 7898,
      "Ġzaby": 7899,
      "ziem": 7900,
      "Ġzaawans": 7901,
      "bumy": 7902,
      "ĠdrÃ³g": 7903,
      "ðŁ": 7904,
      "Ġryb": 7905,
      "lli": 7906,
      "Ġpewnie": 7907,
      "Ġdokony": 7908,
      "luje": 7909,
      "ĠIN": 7910,
      "ĠÅĽrodku": 7911,
      "ĠPrzemy": 7912,
      "dzonej": 7913,
      "Ġcechy": 7914,
      "EK": 7915,
      "Ġkobieta": 7916,
      "ĠMikoÅĤaja": 7917,
      "ĠcaÅĤa": 7918,
      "ByÅĤ": 7919,
      "Ġowa": 7920,
      "ĠposÅĤu": 7921,
      "ĠNagroda": 7922,
      "ĠÅ¼adnego": 7923,
      "simy": 7924,
      "Ġprepara": 7925,
      "OB": 7926,
      "Ġspek": 7927,
      "lskich": 7928,
      "ĠudziaÅĤem": 7929,
      "kowano": 7930,
      "Ġnajlepszy": 7931,
      "Ġ1931": 7932,
      "Ġwybuch": 7933,
      "ĠnajwaÅ¼niejsze": 7934,
      "ĠPÃ³ÅĤnocnej": 7935,
      "dziaÅĤy": 7936,
      "ĠÅļlÄħska": 7937,
      "kopa": 7938,
      "pora": 7939,
      "Ġpewnym": 7940,
      "ĠwiÄĻkszej": 7941,
      "EC": 7942,
      "stero": 7943,
      "ĠinÅ¼ynier": 7944,
      "Ġsrebr": 7945,
      "ĠTylko": 7946,
      "Ġwir": 7947,
      "2003": 7948,
      "ĠdolarÃ³w": 7949,
      "ĠAdministra": 7950,
      "Ad": 7951,
      "ĠRado": 7952,
      "ĠVo": 7953,
      "ĠMistrzostw": 7954,
      "Ġarcheo": 7955,
      "tana": 7956,
      "forum": 7957,
      "Ġodnale": 7958,
      "Ġuzasa": 7959,
      "chach": 7960,
      "ĠOpen": 7961,
      "83": 7962,
      "ĠstaÄĩ": 7963,
      "Ġwspomaga": 7964,
      "ĠÅĽwiÄĻto": 7965,
      "nieÅĦ": 7966,
      "dzkie": 7967,
      "ĠwpÅĤywem": 7968,
      "EL": 7969,
      "zdo": 7970,
      "Ġinternetowych": 7971,
      "ÅĽwie": 7972,
      "Ġoddzie": 7973,
      "ĠInstytut": 7974,
      "ĠCD": 7975,
      "ĠstÄħd": 7976,
      "ston": 7977,
      "Ġ!": 7978,
      "ĠWyda": 7979,
      "Ġkwar": 7980,
      "AmerykaÅĦscy": 7981,
      "Ġoceny": 7982,
      "Ġzaburzenia": 7983,
      "ĠprzedÅĤu": 7984,
      "ĠstaÅĤe": 7985,
      "ele": 7986,
      "Ġdeka": 7987,
      "JA": 7988,
      "mierz": 7989,
      "wcze": 7990,
      "nieniu": 7991,
      "ĠSha": 7992,
      "Ã³br": 7993,
      "Lau": 7994,
      "Ġplanowa": 7995,
      "Ġorganizacja": 7996,
      "ĠprzeÅĤomie": 7997,
      "ras": 7998,
      "ĠbÅĤy": 7999,
      "ĠrÃ³wnowa": 8000,
      "Ġzer": 8001,
      "robo": 8002,
      "cus": 8003,
      "ĠwÄĻgla": 8004,
      "Ġbiega": 8005,
      "ĠWilliam": 8006,
      "ĠZbigniew": 8007,
      "ĠrÃ³wna": 8008,
      "ksa": 8009,
      "Ġwyz": 8010,
      "ĠotrzymaÅĤa": 8011,
      "Ġrakie": 8012,
      "Ġistnienia": 8013,
      "Ġdopas": 8014,
      "stÄĻpuje": 8015,
      "Ġ1955": 8016,
      "Obie": 8017,
      "stian": 8018,
      "tnikÃ³w": 8019,
      "ĠzmieniÄĩ": 8020,
      "ĠEdward": 8021,
      "ĠBio": 8022,
      "61": 8023,
      "niesienie": 8024,
      "obi": 8025,
      "rzyÅĤa": 8026,
      "rÃ³Å¼nic": 8027,
      "kr": 8028,
      "ĠHonor": 8029,
      "Ġtransa": 8030,
      "ĠwygraÅĤ": 8031,
      "ĠGdaÅĦsku": 8032,
      "nujÄħ": 8033,
      "ĠWoj": 8034,
      "ĠbÅĤogosÅĤa": 8035,
      "Bi": 8036,
      "nnym": 8037,
      "mum": 8038,
      "Ġpunkty": 8039,
      "komi": 8040,
      "Ġdrewna": 8041,
      "Zna": 8042,
      "ĠÅĽcie": 8043,
      "Ġsamolotu": 8044,
      "szÅĤy": 8045,
      "ĠOpera": 8046,
      "2001": 8047,
      "ĠzuÅ¼y": 8048,
      "vy": 8049,
      "Ġspoj": 8050,
      "emu": 8051,
      "ĠstopieÅĦ": 8052,
      "Ġbomb": 8053,
      "Ġzorganizowa": 8054,
      "Wsie": 8055,
      "Ġterenu": 8056,
      "ĠStary": 8057,
      "Ġodpowiedni": 8058,
      "ĠspoÅĤeczeÅĦstwa": 8059,
      "logiczny": 8060,
      "rur": 8061,
      "dzimy": 8062,
      "styczny": 8063,
      "Ġpracowni": 8064,
      "Ġsiedem": 8065,
      "Ġserwis": 8066,
      "Ġpublicznych": 8067,
      "IC": 8068,
      ".âĢĿ": 8069,
      "jki": 8070,
      "nnego": 8071,
      "ÅĤoÅ¼y": 8072,
      "Ġ1953": 8073,
      "ĠIgna": 8074,
      "Ġjeziora": 8075,
      "Åºli": 8076,
      "lery": 8077,
      "ĠRegu": 8078,
      "ĠwÅĤadzÄĻ": 8079,
      "ĠKole": 8080,
      "ĠMaciej": 8081,
      "ĠzwiÄħzany": 8082,
      "Ġostate": 8083,
      "Ġwzajem": 8084,
      "ĠStre": 8085,
      "Ġwoda": 8086,
      "ĠsamolotÃ³w": 8087,
      "ĠnagrodÄĻ": 8088,
      "unkÃ³w": 8089,
      "Ġubo": 8090,
      "Ġzadanie": 8091,
      "Ġodbi": 8092,
      "otel": 8093,
      "ĠurzÄħd": 8094,
      "tio": 8095,
      "ĠBlu": 8096,
      "Ha": 8097,
      "biny": 8098,
      "ĠmajÄħtku": 8099,
      "Ġniena": 8100,
      "ĠgÅĤÃ³wny": 8101,
      "non": 8102,
      "Ġreal": 8103,
      "Ġbaro": 8104,
      "ĠwydarzeÅĦ": 8105,
      "Ġorganizmu": 8106,
      "Ġtram": 8107,
      "han": 8108,
      "Ġstolicy": 8109,
      "niny": 8110,
      "Ġoparciu": 8111,
      "Ġziemia": 8112,
      "Ġtowar": 8113,
      "ĠWiÄĻkszoÅĽÄĩ": 8114,
      "ral": 8115,
      "ĠkapÅĤa": 8116,
      "ĠPuchar": 8117,
      "ÅĤama": 8118,
      "ĠRozpo": 8119,
      "ĠwyraÅºnie": 8120,
      "ĠcaÅĤkiem": 8121,
      "MiejscowoÅĽci": 8122,
      "Ġustanowi": 8123,
      "bow": 8124,
      "Ġ1926": 8125,
      "Ġ01": 8126,
      "Ġnagro": 8127,
      "gura": 8128,
      "bienie": 8129,
      "ĠodpowiedzialnoÅĽci": 8130,
      "ĠKatowicach": 8131,
      "ĠwiÄħza": 8132,
      "myka": 8133,
      "wskich": 8134,
      "czoraj": 8135,
      "ĠmÅĤodzieÅ¼": 8136,
      "Ġlutym": 8137,
      "rzÄħdzenia": 8138,
      "ĠpÅĤu": 8139,
      "Ġdwoma": 8140,
      "ĠwyglÄħd": 8141,
      "Ġchcemy": 8142,
      "For": 8143,
      "ĠCla": 8144,
      "Ġpapier": 8145,
      "ĠPoczÄħtkowo": 8146,
      "Bra": 8147,
      "tycznie": 8148,
      "Ġmanda": 8149,
      "ĠpodziaÅĤ": 8150,
      "ori": 8151,
      "szczÄĻd": 8152,
      "wskie": 8153,
      "ĠWÅĤoch": 8154,
      "AG": 8155,
      "cuje": 8156,
      "Ġautorstwa": 8157,
      "Ġherba": 8158,
      "Ġstosunkowo": 8159,
      "Ġprzeniesio": 8160,
      "sznie": 8161,
      "Ġela": 8162,
      "Ġfu": 8163,
      "Ġspecjalnie": 8164,
      "ĠKli": 8165,
      "Ġ75": 8166,
      "%,": 8167,
      "Ġodczy": 8168,
      "Ġznajdziesz": 8169,
      "Ġlaurea": 8170,
      "Ġsumie": 8171,
      "Ġszeroko": 8172,
      "ĠsprzÄĻt": 8173,
      "Ġniech": 8174,
      "ĠÅĽcieÅ¼": 8175,
      "Ġgle": 8176,
      "Ġszac": 8177,
      "ĠIndia": 8178,
      "ĠGrzegorz": 8179,
      "Ġutwory": 8180,
      "Ġligi": 8181,
      "ĠniepeÅĤnospraw": 8182,
      "Ġpisze": 8183,
      "Ġzapobiega": 8184,
      "Ã³wki": 8185,
      "ĠpamiÄħ": 8186,
      "ĠzaÅĤoÅ¼enia": 8187,
      "wersa": 8188,
      "ĠKonstytu": 8189,
      "niÅĤa": 8190,
      "ĠHistoria": 8191,
      "ĠTri": 8192,
      "Ġterminie": 8193,
      "Ġakademicki": 8194,
      "Ġproducenta": 8195,
      "Ġpropa": 8196,
      "ĠAgnie": 8197,
      "ide": 8198,
      "ĠSmo": 8199,
      "wicy": 8200,
      "yo": 8201,
      "lop": 8202,
      "wny": 8203,
      "ĠPen": 8204,
      "pek": 8205,
      "ortuga": 8206,
      "bez": 8207,
      "ĠpowrÃ³ciÅĤ": 8208,
      "Ġlos": 8209,
      "owskich": 8210,
      "tum": 8211,
      "Ġpodwo": 8212,
      "Ġgeografi": 8213,
      "Ġopisy": 8214,
      "ĠBoÅ¼ej": 8215,
      "ĠInstytutu": 8216,
      "Ġgatunki": 8217,
      "Ġarchitek": 8218,
      "Ġprocent": 8219,
      "ĠPrac": 8220,
      "ĠWtedy": 8221,
      "ĠHit": 8222,
      "gue": 8223,
      "ĠpojazdÃ³w": 8224,
      "Ġpewien": 8225,
      "stanie": 8226,
      "samowi": 8227,
      "Ġodpad": 8228,
      "NIE": 8229,
      "Ġpodstawowe": 8230,
      "Produ": 8231,
      "gdzie": 8232,
      "Ġwyspy": 8233,
      "Ġigrzy": 8234,
      "ĠSpa": 8235,
      "dzonego": 8236,
      "ĠPole": 8237,
      "ĠwodÄĻ": 8238,
      "ĠpeÅĤno": 8239,
      "ĠupamiÄĻ": 8240,
      "ĠPierwsze": 8241,
      "ĠwynikÃ³w": 8242,
      "Ġtymi": 8243,
      "Ġzmiana": 8244,
      "Ġsied": 8245,
      "Ġwskazuje": 8246,
      "lory": 8247,
      "nieniem": 8248,
      "ana": 8249,
      "Ġ1923": 8250,
      "ĠÅ¼u": 8251,
      "Ġzlokali": 8252,
      "Ġzastrze": 8253,
      "Ñĥ": 8254,
      "Ġfan": 8255,
      "Ġdystrybu": 8256,
      "Ġnauk": 8257,
      "ĠGoogle": 8258,
      "bla": 8259,
      "Ġstali": 8260,
      "dawca": 8261,
      "Ġciekawe": 8262,
      "Ġ1927": 8263,
      "zar": 8264,
      "wiÅĤa": 8265,
      "86": 8266,
      "jenia": 8267,
      "Ġmetro": 8268,
      "ĠWito": 8269,
      "Ġosobist": 8270,
      "dalem": 8271,
      "zmem": 8272,
      "Ġpiosenkarka": 8273,
      "komo": 8274,
      "ceÅĦ": 8275,
      "Ġosiem": 8276,
      "Ġnasza": 8277,
      "Ġpancer": 8278,
      "Ġjuz": 8279,
      "ĠVAT": 8280,
      "94": 8281,
      "Ġlicznych": 8282,
      "ĠAdama": 8283,
      "zowanie": 8284,
      "ĠLou": 8285,
      "Ġmian": 8286,
      "ĠRoman": 8287,
      "Ġopisu": 8288,
      "Ġlinia": 8289,
      "ĠwnÄĻtrz": 8290,
      "ĠÅĤÄħczy": 8291,
      "FA": 8292,
      "ĠpoÅĤoÅ¼ony": 8293,
      "ĠgrupÄĻ": 8294,
      "Ġzanim": 8295,
      "pisz": 8296,
      "Ġofercie": 8297,
      "gady": 8298,
      "Kiedy": 8299,
      "Ku": 8300,
      "ĠWia": 8301,
      "ĠurzÄĻd": 8302,
      "dzieÅ¼y": 8303,
      "Dru": 8304,
      "owÄĻ": 8305,
      "ÅĤÄħd": 8306,
      "Ġposie": 8307,
      "minowa": 8308,
      "Ġniedaw": 8309,
      "Ġuprze": 8310,
      "ĠukÅĤada": 8311,
      "ĠOstatni": 8312,
      "ĠwynosiÅĤa": 8313,
      "lizacja": 8314,
      "ĠIstnie": 8315,
      "Ġelementem": 8316,
      "pedia": 8317,
      "inte": 8318,
      "Ġwalce": 8319,
      "her": 8320,
      "ĠprzeszedÅĤ": 8321,
      "wro": 8322,
      "ĠmÃ³z": 8323,
      "ĠNauk": 8324,
      "ĠDÅĤugo": 8325,
      "ĠzginÄĻÅĤo": 8326,
      "ĠÅĽrednio": 8327,
      "Ġimienia": 8328,
      "Ġpomimo": 8329,
      "jka": 8330,
      "szli": 8331,
      "Ġrock": 8332,
      "Ġmuzyka": 8333,
      "mÅĤod": 8334,
      "Ð²": 8335,
      "nk": 8336,
      "Ġwymieni": 8337,
      "Ġtez": 8338,
      "ĠprÃ³bu": 8339,
      "ĠnawiÄħza": 8340,
      "ĠRafa": 8341,
      "ĠJean": 8342,
      "ĠhiszpaÅĦski": 8343,
      "dnicy": 8344,
      "ords": 8345,
      "Ġfabu": 8346,
      "ĠgÅĤoÅĽ": 8347,
      "Ġ34": 8348,
      "Ġzabi": 8349,
      "ĠczÅĤonkowie": 8350,
      "ĠporÃ³wnaniu": 8351,
      "Ġkariery": 8352,
      "Ġbiskupa": 8353,
      "Ġratu": 8354,
      "niosÅĤa": 8355,
      "Ġklimaty": 8356,
      "wamy": 8357,
      "ĠzespoÅĤy": 8358,
      "ville": 8359,
      "popular": 8360,
      "Ġtekstu": 8361,
      "Ġotacza": 8362,
      "ĠInternet": 8363,
      "Ġkomunisty": 8364,
      "ĠWieÅĽ": 8365,
      "ĠciÄħgle": 8366,
      "nÄĻÅĤo": 8367,
      "Ġmedycy": 8368,
      "ĠXII": 8369,
      "rozo": 8370,
      "grup": 8371,
      "ĠStowarzyszenia": 8372,
      "Ġnajwy": 8373,
      "ĠkorzystaÄĩ": 8374,
      "Ġobrazu": 8375,
      "ĠdziewiÄĻ": 8376,
      "ĠprogramÃ³w": 8377,
      "Ġniezwyk": 8378,
      "Ġrozmawia": 8379,
      "ĠpojawiÅĤ": 8380,
      "Ġwyklu": 8381,
      "Ġkoncentra": 8382,
      "ĠoÅĤ": 8383,
      "Ġmatka": 8384,
      "Ġimprezy": 8385,
      "Ġwykonanie": 8386,
      "ĠpolskÄħ": 8387,
      "ĠPaul": 8388,
      "ĠstosowaÄĩ": 8389,
      "ĠrzÄĻdu": 8390,
      "Ġkontr": 8391,
      "KaÅ¼": 8392,
      "seudo": 8393,
      "niak": 8394,
      "Ġprzeja": 8395,
      "ĠFu": 8396,
      "ĠGwia": 8397,
      "Ġzaopa": 8398,
      "niÅ¼": 8399,
      "Ġwarstw": 8400,
      "ĠprzeszÅĤoÅĽci": 8401,
      "mig": 8402,
      "sma": 8403,
      "ĠstÄĻ": 8404,
      "rena": 8405,
      "Ġzmniejsza": 8406,
      "tycznym": 8407,
      "logicznego": 8408,
      "Ġspi": 8409,
      "Ġwykonywania": 8410,
      "ĠwykÅĤadowca": 8411,
      "Ġmiejskie": 8412,
      "Â³": 8413,
      "czce": 8414,
      "Ġimieniu": 8415,
      "ĠpojawiajÄħ": 8416,
      "Ġprzebywa": 8417,
      "Ġprzywi": 8418,
      "Ġterytoria": 8419,
      "ĠSzwajcar": 8420,
      "ssi": 8421,
      "Ġletni": 8422,
      "ĠÅĽli": 8423,
      "ĠPrawa": 8424,
      "ĠpÅĤyt": 8425,
      "ĠPosiada": 8426,
      "Ġlekar": 8427,
      "ĠNowej": 8428,
      "Ġkamien": 8429,
      "Ġzasadni": 8430,
      "Inne": 8431,
      "Ġakcep": 8432,
      "ersona": 8433,
      "Ġkomputera": 8434,
      "ĠBydgoszczy": 8435,
      "media": 8436,
      "ÅĤk": 8437,
      "kÅĤ": 8438,
      "ĠÅ»a": 8439,
      "niÄĻty": 8440,
      "ĠmiaÅĤam": 8441,
      "ĠIX": 8442,
      "âĢĿ).": 8443,
      "Ġzdobywa": 8444,
      "Ġwielokrotnie": 8445,
      "gin": 8446,
      "Ġautora": 8447,
      "IV": 8448,
      "bal": 8449,
      "ĠgÅĤÃ³wne": 8450,
      "ĠCzÄĻÅĽÄĩ": 8451,
      "Ġtrasy": 8452,
      "Ġmatki": 8453,
      "ĠmiesiÄħc": 8454,
      "pp": 8455,
      "Ġdobrej": 8456,
      "Ġsklepu": 8457,
      "ĠdostÄĻpu": 8458,
      "ĠwÅĤasnoÅĽci": 8459,
      "Ġmio": 8460,
      "Ġznowu": 8461,
      "zes": 8462,
      "ĠVIII": 8463,
      "ĠkawaÅĤ": 8464,
      "Sie": 8465,
      "ĠðŁ": 8466,
      "ĠHel": 8467,
      "Ġlikwida": 8468,
      "ĠkoÅĽcio": 8469,
      "Dem": 8470,
      "Ġpost": 8471,
      "Ġwysokie": 8472,
      "ĠOchro": 8473,
      "waÅ¼nie": 8474,
      "93": 8475,
      "Ġprzetr": 8476,
      "ĠnastÄĻpuje": 8477,
      "ĠzrÃ³Å¼nic": 8478,
      "Ġsilnika": 8479,
      "ĠniepodlegÅĤoÅĽci": 8480,
      "ĠBiaÅĤoru": 8481,
      "kÅĤadem": 8482,
      "ĠSty": 8483,
      "ĠSek": 8484,
      "ĠodsÅĤo": 8485,
      "ĠÂ§": 8486,
      "Ġryzyko": 8487,
      "ĠBank": 8488,
      "Ġsubstancji": 8489,
      "bii": 8490,
      "Ġbitwy": 8491,
      "Ġzapach": 8492,
      "ĠKonkur": 8493,
      "Ġzastanawia": 8494,
      "Ã³wka": 8495,
      "ĠMarian": 8496,
      "Ġprzyspie": 8497,
      "ĠpowtÃ³": 8498,
      "ĠspotkaÅĦ": 8499,
      "szeni": 8500,
      "Ġprocesie": 8501,
      "ĠSzwecji": 8502,
      "Ġoficjalnie": 8503,
      "ĠformÄĻ": 8504,
      "ĠPal": 8505,
      "ĠRada": 8506,
      "pka": 8507,
      "via": 8508,
      "Ġdobrym": 8509,
      "rozu": 8510,
      "udi": 8511,
      "Ġmuzyk": 8512,
      "Ġstatus": 8513,
      "Å¼nych": 8514,
      "ĠmiesiÄħce": 8515,
      "Ġodcinku": 8516,
      "Ġzarazem": 8517,
      "ĠDavid": 8518,
      "ĠPom": 8519,
      "Ġkonferencji": 8520,
      "-)": 8521,
      "ĠktÃ³remu": 8522,
      "ĠwÄħtpliwoÅĽci": 8523,
      "Ġhipote": 8524,
      "way": 8525,
      "Ġinteligen": 8526,
      "ĠUÅ¼ytkow": 8527,
      "berta": 8528,
      "Ġpomor": 8529,
      "ĠAmeryki": 8530,
      "ckiem": 8531,
      "Ġprezes": 8532,
      "met": 8533,
      "ĠÅĽwi": 8534,
      "lana": 8535,
      "ĠwÅĤasnym": 8536,
      "Ġadministracji": 8537,
      "ĠJezio": 8538,
      "ĠwÅĤaÅĽciciel": 8539,
      "ĠdÃ³br": 8540,
      "Ġudo": 8541,
      "ĠwÅĤaÅĽciciela": 8542,
      "ĠKre": 8543,
      "rzbie": 8544,
      "zan": 8545,
      "karpa": 8546,
      "ĠÅ¼ydowskiego": 8547,
      "zbi": 8548,
      "Ġoptyma": 8549,
      "Ġzasko": 8550,
      "ĠnapÄĻd": 8551,
      "Ġpark": 8552,
      "Ġjednostka": 8553,
      "ĠFranciszka": 8554,
      "enty": 8555,
      "Ġ37": 8556,
      "ÅĤku": 8557,
      "...)": 8558,
      "Ġobiekt": 8559,
      "ĠSejmu": 8560,
      "ĠkoniecznoÅĽci": 8561,
      "ĠSil": 8562,
      "kse": 8563,
      "Ġblu": 8564,
      "Ġpiosenki": 8565,
      "Ġostatnio": 8566,
      "ĠÅĤago": 8567,
      "ĠtowarÃ³w": 8568,
      "ĠaktywnoÅĽci": 8569,
      "PL": 8570,
      "Ġdawna": 8571,
      "Ġobserw": 8572,
      "Ġdzieli": 8573,
      "ĠÅļwiÄĻto": 8574,
      "Ġmowa": 8575,
      "Ġinicjatywy": 8576,
      "Ġstronach": 8577,
      "Ġ120": 8578,
      "Ġkonkursie": 8579,
      "Ġtemperatura": 8580,
      "dnienie": 8581,
      "ĠTour": 8582,
      "89": 8583,
      "Pu": 8584,
      "kul": 8585,
      "niejszÄħ": 8586,
      "Ġszlache": 8587,
      "dol": 8588,
      "Ġprogramie": 8589,
      "Ġzamek": 8590,
      "Ġzapis": 8591,
      "Ġprzedstawicieli": 8592,
      "Ġwzmacnia": 8593,
      "ĠProgram": 8594,
      "Ġrozmowy": 8595,
      "ĠrozpoczÄĻto": 8596,
      "Ġrozry": 8597,
      "ans": 8598,
      "ranu": 8599,
      "Ġdrzewa": 8600,
      "nos": 8601,
      "ĠWysp": 8602,
      "ĠgÄĻ": 8603,
      "ĠprzyjÄħÅĤ": 8604,
      "Ġzasob": 8605,
      "ktorÃ³w": 8606,
      "Ġzdarza": 8607,
      "ĠFre": 8608,
      "ress": 8609,
      "ĠskÅĤadnikÃ³w": 8610,
      "Uwagi": 8611,
      "ĠPC": 8612,
      "taÅĤ": 8613,
      "Ġwschodniej": 8614,
      "Å¼ki": 8615,
      "ĠCity": 8616,
      "kwa": 8617,
      "ĠpapieÅ¼a": 8618,
      "ried": 8619,
      "Ġczasopis": 8620,
      "tha": 8621,
      "czanie": 8622,
      "Ġradio": 8623,
      "Gru": 8624,
      "Ġzwolen": 8625,
      "bki": 8626,
      "rabin": 8627,
      "IM": 8628,
      "Ġkwestii": 8629,
      "likwi": 8630,
      "Ġstowarzy": 8631,
      "zaleÅ¼": 8632,
      "Ġkoszt": 8633,
      "ÅĤasza": 8634,
      "polu": 8635,
      "ĠLudowej": 8636,
      "lidar": 8637,
      "wis": 8638,
      "ĠTakie": 8639,
      "ĠbiaÅĤo": 8640,
      "ĠgminÄĻ": 8641,
      "Ġweek": 8642,
      "Ġwoli": 8643,
      "Ġbadaw": 8644,
      "ĠzajÄĻÄĩ": 8645,
      "PoczÄħ": 8646,
      "Ġzatwier": 8647,
      "ĠMeksy": 8648,
      "Ġobcho": 8649,
      "ford": 8650,
      "Ġzga": 8651,
      "Wyda": 8652,
      "Ġobiektu": 8653,
      "Ġobozu": 8654,
      "Ġswe": 8655,
      "ĠbÃ³l": 8656,
      "ĠdostÄĻpny": 8657,
      "ĠsÅĤowo": 8658,
      "siad": 8659,
      "Ġniemieckie": 8660,
      "jako": 8661,
      "ĠTeo": 8662,
      "ĠDemokra": 8663,
      "new": 8664,
      "Ġdwukrotnie": 8665,
      "Ġwychodzi": 8666,
      "Ġfirmie": 8667,
      "Ġzgody": 8668,
      "ĠSzu": 8669,
      "Ġund": 8670,
      "Ġpolitycznych": 8671,
      "SC": 8672,
      "ĠnajwiÄĻksze": 8673,
      "ĠMedy": 8674,
      "Ġwspom": 8675,
      "Ġkurs": 8676,
      "ĠpacjentÃ³w": 8677,
      "ĠmiarÄĻ": 8678,
      "Ġpil": 8679,
      "ĠusÅĤy": 8680,
      "ĠartykuÅĤÃ³w": 8681,
      "ĠpowstaÅĤo": 8682,
      "ĠJorku": 8683,
      "Ġform": 8684,
      "nomii": 8685,
      "Ġrozgrywa": 8686,
      "landia": 8687,
      "ĠWspÃ³l": 8688,
      "ffi": 8689,
      "ĠsieÄĩ": 8690,
      "ĠPÅĤo": 8691,
      "ĠNowe": 8692,
      "ĠÂ»": 8693,
      "Ġtrakta": 8694,
      "Äĩmi": 8695,
      "ĠWz": 8696,
      "Ġznana": 8697,
      "ĠSaint": 8698,
      "lasy": 8699,
      "telni": 8700,
      "Ġdeparta": 8701,
      "ming": 8702,
      "Ġredu": 8703,
      "1999": 8704,
      "Ġkorzystania": 8705,
      "Ġsynte": 8706,
      "Ġneuro": 8707,
      "Ġpublikacji": 8708,
      "Ġinteres": 8709,
      "ĠpozostaÅĤe": 8710,
      "gowych": 8711,
      "ÅĤuje": 8712,
      "Ġwzmia": 8713,
      "Ġost": 8714,
      "ĠBob": 8715,
      "Ġfron": 8716,
      "ĠPoniewaÅ¼": 8717,
      "ĠskÄħd": 8718,
      "Ġlotniczy": 8719,
      "ĠuÅĤatwia": 8720,
      "ĠdzieciÄĻ": 8721,
      "ĠpowierzchniÄĻ": 8722,
      "ĠDzieÅĦ": 8723,
      "ĠprzemysÅĤu": 8724,
      "Ġwszech": 8725,
      "Ġposzu": 8726,
      "ĠosiÄħgniÄĻcia": 8727,
      "Ġargu": 8728,
      "Ġgrun": 8729,
      "Ġkoszykarz": 8730,
      "Ġsprawa": 8731,
      "ownictwa": 8732,
      "ĠSzczeci": 8733,
      "ĠgwaÅĤ": 8734,
      "ĠsprawÄħ": 8735,
      "Ġneo": 8736,
      "nor": 8737,
      "waga": 8738,
      "ĠNiemcÃ³w": 8739,
      "xi": 8740,
      "Ġpraktyce": 8741,
      "Ġ00": 8742,
      "terem": 8743,
      "deks": 8744,
      "Albumy": 8745,
      "sco": 8746,
      "kingu": 8747,
      "Ġnapa": 8748,
      "ĠlistÄĻ": 8749,
      "ĠbyÅĤoby": 8750,
      "szyÅĤa": 8751,
      "szeÅĦ": 8752,
      "GÅĤÃ³w": 8753,
      "ĠTrybuna": 8754,
      "ĠwysiÅĤ": 8755,
      "czasem": 8756,
      "Laurea": 8757,
      "kcjÄħ": 8758,
      "ĠGli": 8759,
      "diÃ³w": 8760,
      "Ġobszaru": 8761,
      "bine": 8762,
      "Ġbrata": 8763,
      "Ġpodaje": 8764,
      "Ġwszelkich": 8765,
      "ĠJezus": 8766,
      "Ġsprzyja": 8767,
      "ĠNajwiÄĻk": 8768,
      "Ġzakres": 8769,
      "sper": 8770,
      "Ġprecy": 8771,
      "ĠwyjÄħtkowo": 8772,
      "Ġwysu": 8773,
      "Ġhotelu": 8774,
      "rzan": 8775,
      "lom": 8776,
      "Ġura": 8777,
      "ĠZda": 8778,
      "OG": 8779,
      "Ġmiastem": 8780,
      "ĠdÅºwiÄĻk": 8781,
      "ĠcaÅĤoÅĽÄĩ": 8782,
      "ĠRok": 8783,
      "Ġzago": 8784,
      "ĠreÅ¼yserii": 8785,
      "conych": 8786,
      "Ġkompe": 8787,
      "tkowÄħ": 8788,
      "Ġoper": 8789,
      "ĠZwiÄħzek": 8790,
      "ĠAposto": 8791,
      "ĠchorÃ³b": 8792,
      "bka": 8793,
      "szard": 8794,
      "ĠCan": 8795,
      "Ġmani": 8796,
      "bara": 8797,
      "Ġbatali": 8798,
      "Ġwaha": 8799,
      "fen": 8800,
      "mowych": 8801,
      "Ġmoderni": 8802,
      "ĠJedy": 8803,
      "ben": 8804,
      "ĠmaÅĤy": 8805,
      "Ġekra": 8806,
      "Ġary": 8807,
      "Ġprokura": 8808,
      "ĠVol": 8809,
      "Ġwojskowy": 8810,
      "ĠznalazÅĤa": 8811,
      "gier": 8812,
      "ĠStaro": 8813,
      "ĠuzupeÅĤ": 8814,
      "Ġekspo": 8815,
      "iÄĻkujÄĻ": 8816,
      "ĠLeo": 8817,
      "ĠwielkÄħ": 8818,
      "Ġmniejsze": 8819,
      "ÅĤownik": 8820,
      "dora": 8821,
      "ĠÅĤat": 8822,
      "Ġzabawy": 8823,
      "Ġosiedla": 8824,
      "BA": 8825,
      "ĠLotni": 8826,
      "jami": 8827,
      "Ġnieod": 8828,
      "Ġposze": 8829,
      "ĠJames": 8830,
      "ppe": 8831,
      "ĠPhi": 8832,
      "Ġskra": 8833,
      "mowie": 8834,
      "Ġcesarza": 8835,
      "ĠLigi": 8836,
      "twor": 8837,
      "tkowym": 8838,
      "merica": 8839,
      "tÅĤo": 8840,
      "spodar": 8841,
      "drze": 8842,
      "lonÄħ": 8843,
      "ĠSpecja": 8844,
      "Ġszer": 8845,
      "Ġprawem": 8846,
      "ĠTrÃ³j": 8847,
      "ĠpojawiÅĤy": 8848,
      "lizmu": 8849,
      "Ġzaplan": 8850,
      "cieka": 8851,
      "dawcy": 8852,
      "ĠtrudnoÅĽci": 8853,
      "Ġkontek": 8854,
      "ĠwyjÄħtkiem": 8855,
      "ĠzwrÃ³ciÄĩ": 8856,
      "82": 8857,
      "Ġpri": 8858,
      "Ġpotrzebne": 8859,
      "Ġmedali": 8860,
      "ĠÅĤaÅĦcu": 8861,
      "Ġtygodnia": 8862,
      "ziono": 8863,
      "ĠsprawdziÄĩ": 8864,
      "Ġautobu": 8865,
      "Ġprowadzenie": 8866,
      "Be": 8867,
      "ĠskÃ³rÄĻ": 8868,
      "ĠksiÄħÅ¼ka": 8869,
      "trzeÄĩ": 8870,
      "lnoÅĽlÄħ": 8871,
      "ĠGimna": 8872,
      "Ġinfrastru": 8873,
      "Ġvi": 8874,
      "Ġroman": 8875,
      "soli": 8876,
      "wii": 8877,
      "Ġniemiecka": 8878,
      "Ġwielkim": 8879,
      "dt": 8880,
      "Ġplatfor": 8881,
      "Ġzaleca": 8882,
      "ings": 8883,
      "ĠÅĽpiewa": 8884,
      "Pow": 8885,
      "jnÄħ": 8886,
      "owskie": 8887,
      "Ġprzyczyn": 8888,
      "Ġbywa": 8889,
      "stein": 8890,
      "Witam": 8891,
      "ĠczegoÅĽ": 8892,
      "ÅĤaw": 8893,
      "Ġwyru": 8894,
      "Ġsmu": 8895,
      "Ġspecjalisty": 8896,
      "Ġkonsekwen": 8897,
      "ĠPoÅĤudniowej": 8898,
      "Ġthat": 8899,
      "ĠProwa": 8900,
      "Ġup": 8901,
      "ĠrÄħk": 8902,
      "ĠIgrzy": 8903,
      "ĠparÄĻ": 8904,
      "ĠMichaÅĤa": 8905,
      "Ġserwisie": 8906,
      "Ry": 8907,
      "ttle": 8908,
      "Ġinstalacji": 8909,
      "Ġtelefon": 8910,
      "Ġmonitor": 8911,
      "Ġodwiedza": 8912,
      "ĠartykuÅĤ": 8913,
      "ĠÅĽciÄħ": 8914,
      "Ġakty": 8915,
      "Demografia": 8916,
      "cs": 8917,
      "ĠGry": 8918,
      "rady": 8919,
      "Ġjedynym": 8920,
      "woka": 8921,
      "Ġsal": 8922,
      "ĠMichael": 8923,
      "Ġprzesy": 8924,
      "skutek": 8925,
      "ĠprowadziÄĩ": 8926,
      "Ġkalenda": 8927,
      "ĠÅĽnie": 8928,
      "ĠJuli": 8929,
      "Ġnaturalne": 8930,
      "ĠsÅĤabo": 8931,
      "twiej": 8932,
      "BC": 8933,
      "Ġnaukowych": 8934,
      "Ġswych": 8935,
      "ĠÅĤadu": 8936,
      "ĠwykorzystaÄĩ": 8937,
      "Ġpobytu": 8938,
      "87": 8939,
      "Ġwsparcie": 8940,
      "ĠutwÃ³r": 8941,
      "ĠÅĽwiatÅĤo": 8942,
      "Ã³ÅĤy": 8943,
      "Ġrefor": 8944,
      "Ġhandlu": 8945,
      "tli": 8946,
      "Ġsportowy": 8947,
      "tzw": 8948,
      "ĠgÄĻsto": 8949,
      "ĠâĢ¢": 8950,
      "Ġstruktury": 8951,
      "Ġmistrzostw": 8952,
      "ĠwrÃ³ci": 8953,
      "Ġkrew": 8954,
      "WspÃ³ÅĤ": 8955,
      "Ġgnia": 8956,
      "Ġmulti": 8957,
      "ÅĤom": 8958,
      "Ġministra": 8959,
      "chami": 8960,
      "ĠmyÅĽl": 8961,
      "ĠObo": 8962,
      "ĠEko": 8963,
      "fiÄĻ": 8964,
      "ĠÅ¼eg": 8965,
      "ÅĤos": 8966,
      "ĠpÅĤywa": 8967,
      "ĠskorzystaÄĩ": 8968,
      "top": 8969,
      "Ġreakcji": 8970,
      "Ġpracuje": 8971,
      "Ġogni": 8972,
      "OWE": 8973,
      "nowe": 8974,
      "Ġzakupu": 8975,
      "Ġmiaste": 8976,
      "ĠdÅĤuÅ¼ej": 8977,
      "ĠAustrii": 8978,
      "ue": 8979,
      "ĠKobie": 8980,
      "gnacji": 8981,
      "Ġpowszechnie": 8982,
      "Ġprzygotowania": 8983,
      "ĠdorosÅĤych": 8984,
      "Ġodde": 8985,
      "ĠZdr": 8986,
      "Samo": 8987,
      "obecnie": 8988,
      "taria": 8989,
      "Ġwynikiem": 8990,
      "ĠTVP": 8991,
      "Ġpowtarza": 8992,
      "ĠZarzÄħdu": 8993,
      "Ġemigra": 8994,
      "Ġtabe": 8995,
      "Ġrodzice": 8996,
      "Ġ1917": 8997,
      "oo": 8998,
      "ĠwÅĤasny": 8999,
      "ĠJack": 9000,
      "mona": 9001,
      "ĠÅĽwietnie": 9002,
      "Ġcenie": 9003,
      "Ġwydany": 9004,
      "ĠUniversity": 9005,
      "ĠRosy": 9006,
      "mentami": 9007,
      "1945": 9008,
      "Ġmusisz": 9009,
      "ĠpodwyÅ¼": 9010,
      "ĠpodjÄħÅĤ": 9011,
      "ownika": 9012,
      "ĠScho": 9013,
      "Ġdyscypli": 9014,
      "Ġutru": 9015,
      "ÅĤyn": 9016,
      "Aby": 9017,
      "ĠZale": 9018,
      "Ġ600": 9019,
      "ĠHal": 9020,
      "ĠchÅĤopa": 9021,
      "ĠwzÃ³r": 9022,
      "Ġefekty": 9023,
      "ĠWojewÃ³": 9024,
      "wnego": 9025,
      "ĠNawet": 9026,
      "ĠMazowie": 9027,
      "ĠoddziaÅĤ": 9028,
      "lacjÄĻ": 9029,
      "Ġwsparcia": 9030,
      "Ġwreszcie": 9031,
      "ĠciepÅĤa": 9032,
      "Ġdodatkowych": 9033,
      "gatu": 9034,
      "Ġkamieni": 9035,
      "Ġmon": 9036,
      "91": 9037,
      "Ġture": 9038,
      "ĠNar": 9039,
      "Ġeuropejskich": 9040,
      "ĠPolskÄĻ": 9041,
      "ÅĤowÄħ": 9042,
      "ĠklÄĻ": 9043,
      "ĠFeli": 9044,
      "lnik": 9045,
      "Ġestety": 9046,
      "ĠkrzyÅ¼a": 9047,
      "szyn": 9048,
      "Ġstabil": 9049,
      "ĠwiedzÄĻ": 9050,
      "Ġwicepre": 9051,
      "ĠzespoÅĤÃ³w": 9052,
      "ĠwÃ³d": 9053,
      "tina": 9054,
      "Ġpowiat": 9055,
      "ĠÅĤatwiej": 9056,
      "Ġzamor": 9057,
      "ĠkomÃ³rek": 9058,
      "ĠniezbÄĻdne": 9059,
      "ire": 9060,
      "dzkich": 9061,
      "strzyma": 9062,
      "Ġfoto": 9063,
      "Ġofiar": 9064,
      "ĠskÃ³r": 9065,
      "Ġmus": 9066,
      "dae": 9067,
      "Ġdwudzie": 9068,
      "ĠKrajowej": 9069,
      "Ġ1910": 9070,
      "ĠzawodnikÃ³w": 9071,
      "ĠJeszcze": 9072,
      "Ġelegan": 9073,
      "84": 9074,
      "Ġocho": 9075,
      "Ġspotkaniu": 9076,
      "Ġzajmowa": 9077,
      "Ġraj": 9078,
      "ĠWiele": 9079,
      "ĠMikoÅĤaj": 9080,
      "Ġbakter": 9081,
      "Ġstanowisku": 9082,
      "Ġniesamowi": 9083,
      "ĠrÄĻko": 9084,
      "ĠÅĤ": 9085,
      "Ġcztero": 9086,
      "ĠBli": 9087,
      "ĠokreÅĽlonych": 9088,
      "Ġhodow": 9089,
      "Ġmalu": 9090,
      "mierza": 9091,
      "ĠGÃ³ry": 9092,
      "skami": 9093,
      "hn": 9094,
      "ĠsÅĤod": 9095,
      "Ġpostanowie": 9096,
      "rd": 9097,
      "rok": 9098,
      "ĠpoglÄħ": 9099,
      "Ġrodu": 9100,
      "Ġostatniej": 9101,
      "Tran": 9102,
      "raÅ¼": 9103,
      "ĠGdaÅĦsk": 9104,
      "ĠUrzÄĻdu": 9105,
      "ĠMate": 9106,
      "Ġ55": 9107,
      "Ġdekora": 9108,
      "ĠwspÃ³lnego": 9109,
      "ĠmÃ³zgu": 9110,
      "Ġwalk": 9111,
      "Ġczytel": 9112,
      "ĠspoÅĤeczne": 9113,
      "ĠtytuÅĤem": 9114,
      "Pola": 9115,
      "ĠwrocÅĤa": 9116,
      "chii": 9117,
      "Ġfry": 9118,
      "pus": 9119,
      "ĠBene": 9120,
      "ĠKM": 9121,
      "Tre": 9122,
      "Ġleczenie": 9123,
      "81": 9124,
      "ĠStan": 9125,
      "Ġmuzyczny": 9126,
      "ĠChor": 9127,
      "szczona": 9128,
      "Ġetap": 9129,
      "Ġzapewne": 9130,
      "ĠFC": 9131,
      "ĠÅ¼yci": 9132,
      "ĠksiÄħÅ¼ce": 9133,
      "gory": 9134,
      "Ġwodo": 9135,
      "ĠAustralii": 9136,
      "ĠNob": 9137,
      "ney": 9138,
      "Ġetapie": 9139,
      "Cha": 9140,
      "ĠspÅĤa": 9141,
      "ĠlekÃ³w": 9142,
      "mata": 9143,
      "ĠParku": 9144,
      "ĠÅºrÃ³dÅĤo": 9145,
      "Ġzag": 9146,
      "ĠGrupa": 9147,
      "prawdopodob": 9148,
      "ĠwskaÅº": 9149,
      "Ġzachwy": 9150,
      "lka": 9151,
      "Ġliczy": 9152,
      "ĠstudentÃ³w": 9153,
      "biÄĻ": 9154,
      "szonych": 9155,
      "Ġzastosowania": 9156,
      "rzono": 9157,
      "Ġdebiu": 9158,
      "ndy": 9159,
      "Ġnaukow": 9160,
      "ĠPortuga": 9161,
      "rzÄħdzenie": 9162,
      "Ġpaliwa": 9163,
      "gda": 9164,
      "Ġcesar": 9165,
      "Ġ250": 9166,
      "ĠAlex": 9167,
      "Ġopieki": 9168,
      "Ġsystematy": 9169,
      "ĠBezpie": 9170,
      "Ġabsolu": 9171,
      "ĠLos": 9172,
      "Ġrodzaje": 9173,
      "Ġkrajobraz": 9174,
      "Â·": 9175,
      "ĠzdoÅĤa": 9176,
      "ĠszczÄĻÅĽli": 9177,
      "Ġpoci": 9178,
      "ĠBre": 9179,
      "ĠniezaleÅ¼nie": 9180,
      "Ġprzepisa": 9181,
      "Ġprzygotowy": 9182,
      "My": 9183,
      "ĠOficjalna": 9184,
      "ĠksztaÅĤcie": 9185,
      "Ġpomia": 9186,
      "ĠrÃ³wnie": 9187,
      "Ġkonieczne": 9188,
      "ĠkaÅ¼dÄħ": 9189,
      "wacji": 9190,
      "Ġfinale": 9191,
      "ĠosÅĤa": 9192,
      "ĠkÅĤopo": 9193,
      "ĠKonstanty": 9194,
      "ĠObywa": 9195,
      "ĠKoÅĤo": 9196,
      "Ġwielkiego": 9197,
      "ĠPodobnie": 9198,
      "ĠTowarzystwo": 9199,
      "Ġosi": 9200,
      "ĠPlan": 9201,
      "mperium": 9202,
      "Ġniczym": 9203,
      "ĠRzymie": 9204,
      "cili": 9205,
      "Ġwyrzu": 9206,
      "Ġwzniesio": 9207,
      "Ġdopuszcza": 9208,
      "twar": 9209,
      "ĠÅ¼ela": 9210,
      "Ġsali": 9211,
      "ĠwyraÅº": 9212,
      "Ġgli": 9213,
      "ĠNowego": 9214,
      "Ġparlamentar": 9215,
      "gy": 9216,
      "Ġmaszyny": 9217,
      "Ġkated": 9218,
      "ĠKatowice": 9219,
      "Ġnatury": 9220,
      "logiÄĻ": 9221,
      "ĠRzeszy": 9222,
      "ĠtwÃ³rczoÅĽci": 9223,
      "ĠupÅĤy": 9224,
      "ĠgÅĤu": 9225,
      "ĠofertÄĻ": 9226,
      "zmy": 9227,
      "ÅĦstwem": 9228,
      "Ġqu": 9229,
      "Ġmobil": 9230,
      "Ġlewej": 9231,
      "sse": 9232,
      "Ġflo": 9233,
      "ĠzdjÄĻcie": 9234,
      "ux": 9235,
      "wers": 9236,
      "Ġbom": 9237,
      "ĠwÅĤaÅĽcicielem": 9238,
      "Ġlokalnych": 9239,
      "Ġobjawy": 9240,
      "Obecnie": 9241,
      "Ġzbudowany": 9242,
      "wziÄĻ": 9243,
      "cher": 9244,
      "ĠIS": 9245,
      "ĠRock": 9246,
      "Ġkontaktu": 9247,
      "Ġwybuchu": 9248,
      "Ġ65": 9249,
      "ĠczÄĻstot": 9250,
      "ĠsÅĤuÅ¼b": 9251,
      "ĠZygmunt": 9252,
      "ĠistniejÄħ": 9253,
      "gowe": 9254,
      "tkowego": 9255,
      "nionego": 9256,
      "ĠzdolnoÅĽci": 9257,
      "towo": 9258,
      "kto": 9259,
      "Ġgnie": 9260,
      "ĠwiedzieÄĩ": 9261,
      "ĠbezpieczeÅĦstwo": 9262,
      "Ġsmo": 9263,
      "jenie": 9264,
      "ĠParla": 9265,
      "inga": 9266,
      "Ġumieszcza": 9267,
      "ĠdziesiÄħ": 9268,
      "ĠÅ¼adnej": 9269,
      "mnieÄĩ": 9270,
      "ruje": 9271,
      "ĠkilkanaÅĽcie": 9272,
      "ĠTrzy": 9273,
      "ĠÅĽwiÄĻta": 9274,
      "Ġkupu": 9275,
      "Ġdziennie": 9276,
      "ĠWÄĻgier": 9277,
      "ĠurzÄĻdu": 9278,
      "Ġeks": 9279,
      "Ġmecze": 9280,
      "Ġprawnych": 9281,
      "Ġwykorzystywane": 9282,
      "Ġpokoj": 9283,
      "ĠMicro": 9284,
      "Kariera": 9285,
      "Ġfal": 9286,
      "ĠAf": 9287,
      "ĠFlo": 9288,
      "ĠdostÄĻpnych": 9289,
      "ĠokrÄĻtÃ³w": 9290,
      "ric": 9291,
      "Ġskompli": 9292,
      "Ġodcinek": 9293,
      "ĠÅĽciany": 9294,
      "Ġwydzie": 9295,
      "ĠpuÅĤku": 9296,
      "ĠnarzÄĻdzia": 9297,
[...]
