{
  "version": "1.0",
  "truncation": null,
  "padding": null,
  "added_tokens": [
    {
      "id": 0,
      "content": "<|pad|>",
      "single_word": false,
      "lstrip": false,
      "rstrip": false,
      "normalized": false,
      "special": true
    },
    {
      "id": 1,
      "content": "<|endoftext|>",
      "single_word": false,
      "lstrip": false,
      "rstrip": false,
      "normalized": false,
      "special": true
    },
    {
      "id": 2,
      "content": "<|user|>",
      "single_word": false,
      "lstrip": false,
      "rstrip": false,
      "normalized": false,
      "special": true
    },
    {
      "id": 3,
      "content": "<|assistant|>",
      "single_word": false,
      "lstrip": false,
      "rstrip": false,
      "normalized": false,
      "special": true
    },
    {
      "id": 4,
      "content": "<|context|>",
      "single_word": false,
      "lstrip": false,
      "rstrip": false,
      "normalized": false,
      "special": true
    }
  ],
  "normalizer": null,
  "pre_tokenizer": {
    "type": "ByteLevel",
    "add_prefix_space": false,
    "trim_offsets": true,
    "use_regex": true
  },
  "post_processor": {
    "type": "ByteLevel",
    "add_prefix_space": true,
    "trim_offsets": false,
    "use_regex": true
  },
  "decoder": {
    "type": "ByteLevel",
    "add_prefix_space": true,
    "trim_offsets": true,
    "use_regex": true
  },
  "model": {
    "type": "BPE",
    "dropout": null,
    "unk_token": null,
    "continuing_subword_prefix": null,
    "end_of_word_suffix": null,
    "fuse_unk": false,
    "byte_fallback": true,
    "ignore_merges": false,
    "vocab": {
      "<|pad|>": 0,
      "<|endoftext|>": 1,
      "<|user|>": 2,
      "<|assistant|>": 3,
      "<|context|>": 4,
      "!": 5,
      "\"": 6,
      "#": 7,
      "$": 8,
      "%": 9,
      "&": 10,
      "'": 11,
      "(": 12,
      ")": 13,
      "*": 14,
      "+": 15,
      ",": 16,
      "-": 17,
      ".": 18,
      "/": 19,
      "0": 20,
      "1": 21,
      "2": 22,
      "3": 23,
      "4": 24,
      "5": 25,
      "6": 26,
      "7": 27,
      "8": 28,
      "9": 29,
      ":": 30,
      ";": 31,
      "<": 32,
      "=": 33,
      ">": 34,
      "?": 35,
      "@": 36,
      "A": 37,
      "B": 38,
      "C": 39,
      "D": 40,
      "E": 41,
      "F": 42,
      "G": 43,
      "H": 44,
      "I": 45,
      "J": 46,
      "K": 47,
      "L": 48,
      "M": 49,
      "N": 50,
      "O": 51,
      "P": 52,
      "Q": 53,
      "R": 54,
      "S": 55,
      "T": 56,
      "U": 57,
      "V": 58,
      "W": 59,
      "X": 60,
      "Y": 61,
      "Z": 62,
      "[": 63,
      "\\": 64,
      "]": 65,
      "^": 66,
      "_": 67,
      "`": 68,
      "a": 69,
      "b": 70,
      "c": 71,
      "d": 72,
      "e": 73,
      "f": 74,
      "g": 75,
      "h": 76,
      "i": 77,
      "j": 78,
      "k": 79,
      "l": 80,
      "m": 81,
      "n": 82,
      "o": 83,
      "p": 84,
      "q": 85,
      "r": 86,
      "s": 87,
      "t": 88,
      "u": 89,
      "v": 90,
      "w": 91,
      "x": 92,
      "y": 93,
      "z": 94,
      "{": 95,
      "|": 96,
      "}": 97,
      "~": 98,
      "¡": 99,
      "¢": 100,
      "£": 101,
      "¤": 102,
      "¥": 103,
      "¦": 104,
      "§": 105,
      "¨": 106,
      "©": 107,
      "ª": 108,
      "«": 109,
      "¬": 110,
      "®": 111,
      "¯": 112,
      "°": 113,
      "±": 114,
      "²": 115,
      "³": 116,
      "´": 117,
      "µ": 118,
      "¶": 119,
      "·": 120,
      "¸": 121,
      "¹": 122,
      "º": 123,
      "»": 124,
      "¼": 125,
      "½": 126,
      "¾": 127,
      "¿": 128,
      "À": 129,
      "Á": 130,
      "Â": 131,
      "Ã": 132,
      "Ä": 133,
      "Å": 134,
      "Æ": 135,
      "Ç": 136,
      "È": 137,
      "É": 138,
      "Ê": 139,
      "Ë": 140,
      "Ì": 141,
      "Í": 142,
      "Î": 143,
      "Ï": 144,
      "Ð": 145,
      "Ñ": 146,
      "Ò": 147,
      "Ó": 148,
      "Ô": 149,
      "Õ": 150,
      "Ö": 151,
      "×": 152,
      "Ø": 153,
      "Ù": 154,
      "Ú": 155,
      "Û": 156,
      "Ü": 157,
      "Ý": 158,
      "Þ": 159,
      "ß": 160,
      "à": 161,
      "á": 162,
      "â": 163,
      "ã": 164,
      "ä": 165,
      "å": 166,
      "æ": 167,
      "ç": 168,
      "è": 169,
      "é": 170,
      "ê": 171,
      "ë": 172,
      "ì": 173,
      "í": 174,
      "î": 175,
      "ï": 176,
      "ð": 177,
      "ñ": 178,
      "ò": 179,
      "ó": 180,
      "ô": 181,
      "õ": 182,
      "ö": 183,
      "÷": 184,
      "ø": 185,
      "ù": 186,
      "ú": 187,
      "û": 188,
      "ü": 189,
      "ý": 190,
      "þ": 191,
      "ÿ": 192,
      "Ā": 193,
      "ā": 194,
      "Ă": 195,
      "ă": 196,
      "Ą": 197,
      "ą": 198,
      "Ć": 199,
      "ć": 200,
      "Ĉ": 201,
      "ĉ": 202,
      "Ċ": 203,
      "ċ": 204,
      "Č": 205,
      "č": 206,
      "Ď": 207,
      "ď": 208,
      "Đ": 209,
      "đ": 210,
      "Ē": 211,
      "ē": 212,
      "Ĕ": 213,
      "ĕ": 214,
      "Ė": 215,
      "ė": 216,
      "Ę": 217,
      "ę": 218,
      "Ě": 219,
      "ě": 220,
      "Ĝ": 221,
      "ĝ": 222,
      "Ğ": 223,
      "ğ": 224,
      "Ġ": 225,
      "ġ": 226,
      "Ģ": 227,
      "ģ": 228,
      "Ĥ": 229,
      "ĥ": 230,
      "Ħ": 231,
      "ħ": 232,
      "Ĩ": 233,
      "ĩ": 234,
      "Ī": 235,
      "ī": 236,
      "Ĭ": 237,
      "ĭ": 238,
      "Į": 239,
      "į": 240,
      "İ": 241,
      "ı": 242,
      "Ĳ": 243,
      "ĳ": 244,
      "Ĵ": 245,
      "ĵ": 246,
      "Ķ": 247,
      "ķ": 248,
      "ĸ": 249,
      "Ĺ": 250,
      "ĺ": 251,
      "Ļ": 252,
      "ļ": 253,
      "Ľ": 254,
      "ľ": 255,
      "Ŀ": 256,
      "ŀ": 257,
      "Ł": 258,
      "ł": 259,
      "Ń": 260,
      "ie": 261,
      "ÅĤ": 262,
      "Ġp": 263,
      "Ġw": 264,
      "st": 265,
      "ow": 266,
      "na": 267,
      "ni": 268,
      "cz": 269,
      "ch": 270,
      "Äħ": 271,
      "ÄĻ": 272,
      "Ġz": 273,
      "Ã³": 274,
      "rz": 275,
      "ra": 276,
      "Ġs": 277,
      "nie": 278,
      "Ġo": 279,
      "ro": 280,
      "Ġd": 281,
      "Å¼": 282,
      "ne": 283,
      "ny": 284,
      "Ġk": 285,
      "ÅĽ": 286,
      "Ġt": 287,
      "li": 288,
      "Ġi": 289,
      "Ġpo": 290,
      "Ġm": 291,
      "sk": 292,
      "ia": 293,
      "sz": 294,
      "go": 295,
      "Ġna": 296,
      "je": 297,
      "rze": 298,
      "dz": 299,
      "ar": 300,
      "Ã³w": 301,
      "âĢ": 302,
      "iÄĻ": 303,
      "le": 304,
      "re": 305,
      "ÅĤa": 306,
      "owa": 307,
      "wa": 308,
      "ci": 309,
      "no": 310,
      "Ġb": 311,
      "sta": 312,
      "la": 313,
      "nia": 314,
      "ka": 315,
      "er": 316,
      "Ġ(": 317,
      "ĠP": 318,
      "Ġza": 319,
      "ty": 320,
      "Ġdo": 321,
      "mi": 322,
      "or": 323,
      "ĠâĢ": 324,
      "Ġ1": 325,
      "ce": 326,
      "Ġje": 327,
      "Ġa": 328,
      "ja": 329,
      "Ġu": 330,
      "Ġwy": 331,
      "ta": 332,
      "rzy": 333,
      "jÄħ": 334,
      "ĠW": 335,
      "ki": 336,
      "Äĩ": 337,
      "ÅĤo": 338,
      "ko": 339,
      "cy": 340,
      "Ġprze": 341,
      "ÅĦ": 342,
      "te": 343,
      "da": 344,
      "ku": 345,
      "ry": 346,
      "ĠsiÄĻ": 347,
      "ĠS": 348,
      "Ġro": 349,
      "Ġg": 350,
      "nych": 351,
      "po": 352,
      "ÅĽci": 353,
      "tu": 354,
      "ĠâĢĵ": 355,
      "wo": 356,
      "ma": 357,
      "en": 358,
      "ĠK": 359,
      "Ġko": 360,
      "Ġnie": 361,
      "ĠM": 362,
      "ÅĤy": 363,
      "to": 364,
      "lo": 365,
      "ski": 366,
      "cj": 367,
      "Ġcz": 368,
      "Ġod": 369,
      "Å¼e": 370,
      "dy": 371,
      "zy": 372,
      "skie": 373,
      "owe": 374,
      "wi": 375,
      "cze": 376,
      "ru": 377,
      "owy": 378,
      "ĠB": 379,
      "ĠA": 380,
      "ĠĊ": 381,
      "lu": 382,
      "cie": 383,
      "Ġte": 384,
      "ca": 385,
      "Ġf": 386,
      "ĠN": 387,
      "tÃ³": 388,
      "mie": 389,
      "kie": 390,
      "wie": 391,
      "sa": 392,
      "em": 393,
      "Ġ19": 394,
      "cji": 395,
      "za": 396,
      "ĠC": 397,
      "ĠR": 398,
      "czy": 399,
      "Ġ2": 400,
      "Ġst": 401,
      "ĠktÃ³": 402,
      "Å¼y": 403,
      "nej": 404,
      "Ġjest": 405,
      "rÃ³": 406,
      "ga": 407,
      "ĠPo": 408,
      "do": 409,
      "szy": 410,
      "ĠJ": 411,
      "gi": 412,
      "Ġprzy": 413,
      "Ġma": 414,
      "ĠD": 415,
      "Ġby": 416,
      "Ġob": 417,
      "pa": 418,
      "ĠG": 419,
      "in": 420,
      "on": 421,
      "dzie": 422,
      "du": 423,
      "nego": 424,
      "raz": 425,
      "ÅĤu": 426,
      "pi": 427,
      "ĠO": 428,
      "Ġja": 429,
      "ĠZ": 430,
      "Ġty": 431,
      "Ġe": 432,
      "sy": 433,
      "ĠT": 434,
      "ÅĽÄĩ": 435,
      "ĠI": 436,
      "mu": 437,
      "sze": 438,
      "nÄħ": 439,
      "Ġpod": 440,
      "dzi": 441,
      "cza": 442,
      "Ġmo": 443,
      "owie": 444,
      "Ġli": 445,
      "ĠL": 446,
      "ĠÅĽ": 447,
      "âĢĿ": 448,
      "nym": 449,
      "cho": 450,
      "mo": 451,
      "Ġre": 452,
      "an": 453,
      "ĠâĢŀ": 454,
      "de": 455,
      "Ġta": 456,
      "Ġin": 457,
      "Ġprzez": 458,
      "Ġsta": 459,
      "owi": 460,
      "owo": 461,
      "Ġroz": 462,
      "cja": 463,
      "wia": 464,
      "ier": 465,
      "Ġpro": 466,
      "Ġdz": 467,
      "si": 468,
      "by": 469,
      "00": 470,
      "pe": 471,
      "kÃ³w": 472,
      "Ġwie": 473,
      "jÄĻ": 474,
      "ska": 475,
      "),": 476,
      "pu": 477,
      "Ġwo": 478,
      "ĠH": 479,
      "wy": 480,
      ").": 481,
      "Ġh": 482,
      "Ġjed": 483,
      "Ġto": 484,
      "niu": 485,
      "fi": 486,
      "sty": 487,
      "Ġpa": 488,
      "su": 489,
      "Ġroku": 490,
      "bi": 491,
      "osta": 492,
      "Ġlu": 493,
      "niej": 494,
      "sza": 495,
      "skiego": 496,
      "Ġr": 497,
      "dni": 498,
      "Åº": 499,
      "ĠE": 500,
      "Ġoraz": 501,
      "sto": 502,
      "ter": 503,
      "Ġpra": 504,
      "ĠF": 505,
      "gra": 506,
      "Ã³ÅĤ": 507,
      "co": 508,
      "Ġsz": 509,
      "cia": 510,
      "kÅĤa": 511,
      "my": 512,
      "ĠÅ¼e": 513,
      "ba": 514,
      "Ġzna": 515,
      "owych": 516,
      "ĠNa": 517,
      "zna": 518,
      "Ġmie": 519,
      "Ġka": 520,
      "owej": 521,
      "tycz": 522,
      "ek": 523,
      "il": 524,
      "Ġok": 525,
      "al": 526,
      "sp": 527,
      "sie": 528,
      "Ġn": 529,
      "noÅĽci": 530,
      "so": 531,
      "stÄĻ": 532,
      "Ġch": 533,
      "io": 534,
      "mia": 535,
      "men": 536,
      "Ġze": 537,
      "ĠsÄħ": 538,
      "Ġkon": 539,
      "Ġzosta": 540,
      "un": 541,
      "skiej": 542,
      "bie": 543,
      "jÄħcy": 544,
      "rowa": 545,
      "Ġla": 546,
      "bli": 547,
      "dze": 548,
      "ĠktÃ³ry": 549,
      "Ġmia": 550,
      "ran": 551,
      "ĠU": 552,
      "kt": 553,
      "Ġpow": 554,
      "Ġni": 555,
      "ĠktÃ³re": 556,
      "bu": 557,
      "Ġnaj": 558,
      "me": 559,
      "bo": 560,
      "we": 561,
      "rod": 562,
      "gu": 563,
      "Ġsy": 564,
      "ona": 565,
      "ĠKo": 566,
      "pra": 567,
      "ju": 568,
      "pie": 569,
      "ÅĤe": 570,
      "Ġsa": 571,
      "ĠÅ": 572,
      "Ġtak": 573,
      "ĠĠ": 574,
      "ÅĦst": 575,
      "Ġjako": 576,
      "ii": 577,
      "nd": 578,
      "czÄħ": 579,
      "czne": 580,
      "Ġce": 581,
      "jÄħce": 582,
      "skich": 583,
      "jÄĻzy": 584,
      "Ã³r": 585,
      "rzÄħ": 586,
      "tÃ³w": 587,
      "ez": 588,
      "Å¼a": 589,
      "Ġdla": 590,
      "Ġczy": 591,
      "iÄĻk": 592,
      "ierw": 593,
      "Ġspo": 594,
      "dzy": 595,
      "czo": 596,
      "ÅĤÃ³w": 597,
      "wiÄħ": 598,
      "jÄħc": 599,
      "Ġdzie": 600,
      "rÄĻ": 601,
      "tor": 602,
      "cyj": 603,
      "19": 604,
      "nu": 605,
      "âĢĵ": 606,
      "Ġ3": 607,
      "ze": 608,
      "dzia": 609,
      "ĠPol": 610,
      "ĠjÄĻzy": 611,
      "dowa": 612,
      "ckie": 613,
      "rza": 614,
      "zu": 615,
      "Ġsto": 616,
      "Ġwz": 617,
      "owego": 618,
      "um": 619,
      "ĠKa": 620,
      "Ġlub": 621,
      "ÅĤÄħ": 622,
      "kowa": 623,
      "cki": 624,
      "nika": 625,
      "Ġcza": 626,
      "ery": 627,
      "Ġ20": 628,
      "Ġde": 629,
      "Ġjak": 630,
      "Ġ18": 631,
      "ĠczÄĻ": 632,
      "ĠMa": 633,
      "Ġtym": 634,
      "Ġjego": 635,
      "ur": 636,
      "niem": 637,
      "Ġda": 638,
      "ĠwÅĤa": 639,
      "cu": 640,
      "ĠJe": 641,
      "sÅĤa": 642,
      "ĠX": 643,
      "rÃ³Å¼": 644,
      "ĠrÃ³w": 645,
      "cznych": 646,
      "Ġprzed": 647,
      "nÄĻ": 648,
      "rak": 649,
      "Ġco": 650,
      "ĠtakÅ¼e": 651,
      "ist": 652,
      "stÄĻp": 653,
      "Ġpol": 654,
      "Ġle": 655,
      "Ġokre": 656,
      "noÅĽÄĩ": 657,
      "towa": 658,
      "spo": 659,
      "skim": 660,
      "ĠCh": 661,
      "Ġme": 662,
      "Ġgo": 663,
      "Ġra": 664,
      "is": 665,
      "ĠZa": 666,
      "Ġba": 667,
      "nak": 668,
      "Ġpierw": 669,
      "kiem": 670,
      "Ġar": 671,
      "ĠRo": 672,
      "Ġwoj": 673,
      "ul": 674,
      "el": 675,
      "dza": 676,
      "Po": 677,
      "Ã³l": 678,
      "nt": 679,
      "siÄĻ": 680,
      "iÄĻdzy": 681,
      "kÅĤad": 682,
      "lÄĻ": 683,
      "sko": 684,
      "Ġ200": 685,
      "logi": 686,
      "cjÄĻ": 687,
      "Ġgru": 688,
      "ĠteÅ¼": 689,
      "ji": 690,
      "cha": 691,
      "nymi": 692,
      "ĠPa": 693,
      "tem": 694,
      "ĠbyÅĤ": 695,
      "ral": 696,
      "Ġwe": 697,
      "ĠJa": 698,
      "II": 699,
      "sowa": 700,
      "Ġfi": 701,
      "nik": 702,
      "iaÅĤa": 703,
      "iel": 704,
      "Ġmu": 705,
      "Ġmi": 706,
      "ÅĽcie": 707,
      "cje": 708,
      "cÃ³w": 709,
      "Ġsp": 710,
      "Ġpoz": 711,
      "Ġ4": 712,
      "ud": 713,
      "ory": 714,
      "ri": 715,
      "one": 716,
      "ĠÅ¼y": 717,
      "nic": 718,
      "lÄħ": 719,
      "uro": 720,
      "Ġpowsta": 721,
      "ge": 722,
      "se": 723,
      "ĠNie": 724,
      "owÄħ": 725,
      "be": 726,
      "js": 727,
      "owym": 728,
      "wÃ³": 729,
      "kÄħ": 730,
      "Ġwi": 731,
      "tach": 732,
      "ary": 733,
      "Ġjednak": 734,
      "ĠWy": 735,
      "Ġswo": 736,
      "ste": 737,
      "zo": 738,
      "niÄĻ": 739,
      "war": 740,
      "Ġor": 741,
      "ĠuÅ¼y": 742,
      "Ġca": 743,
      "nii": 744,
      "nieÅ¼": 745,
      "cznie": 746,
      "Ġwsp": 747,
      "nowi": 748,
      "for": 749,
      "Ġnaz": 750,
      "Ġtego": 751,
      "uk": 752,
      "siÄħ": 753,
      "ĠÅļ": 754,
      "ĠÅĽwia": 755,
      "czas": 756,
      "two": 757,
      "Âł": 758,
      "ktu": 759,
      "ĠmoÅ¼": 760,
      "ĠdziaÅĤa": 761,
      "cznej": 762,
      "ony": 763,
      "ĠDo": 764,
      "ĠBo": 765,
      "prowa": 766,
      "Ġ5": 767,
      "tni": 768,
      "ĠrÃ³wnieÅ¼": 769,
      "lko": 770,
      "Ġpi": 771,
      "Ġlicz": 772,
      "Ġkom": 773,
      "ĠMar": 774,
      "Ġwar": 775,
      "szych": 776,
      "zm": 777,
      "Ġwieku": 778,
      "Ġbi": 779,
      "kty": 780,
      "ng": 781,
      "Ġich": 782,
      "owania": 783,
      "tr": 784,
      "Ġdu": 785,
      "szyst": 786,
      "owaÅĤ": 787,
      "gani": 788,
      "Ġkra": 789,
      "czÄĻ": 790,
      "ti": 791,
      "ĠSta": 792,
      "Ġbez": 793,
      "ono": 794,
      "wiÄĻ": 795,
      "ĠzwiÄħ": 796,
      "Ġdy": 797,
      "Ġfor": 798,
      "lej": 799,
      "czny": 800,
      "ĠzostaÅĤ": 801,
      "Ġso": 802,
      "Ġbo": 803,
      "Ġop": 804,
      "rÃ³d": 805,
      "py": 806,
      "ĠrÃ³Å¼": 807,
      "lar": 808,
      "kich": 809,
      "Ġmiejs": 810,
      "fa": 811,
      "jÄħcych": 812,
      "Ġgra": 813,
      "tk": 814,
      "Ġele": 815,
      "18": 816,
      "stem": 817,
      "ĠMi": 818,
      "Ã³b": 819,
      "Ġwyko": 820,
      "ÅĦski": 821,
      "prze": 822,
      "ĠpaÅĦst": 823,
      "Ġbar": 824,
      "dnie": 825,
      "ciÄħ": 826,
      "den": 827,
      "Ġrze": 828,
      "Ġno": 829,
      "szcze": 830,
      "âĢĿ.": 831,
      "Ġpe": 832,
      "ĠLe": 833,
      "stwa": 834,
      "sku": 835,
      "unk": 836,
      "ĠSz": 837,
      "dÃ³w": 838,
      "szÄħ": 839,
      "ĠV": 840,
      "gÃ³l": 841,
      "trz": 842,
      "dÅĤu": 843,
      "stÄĻpu": 844,
      "Ġjedno": 845,
      "Ġjej": 846,
      "ha": 847,
      "ĠWar": 848,
      "ĠmiÄĻdzy": 849,
      "gÅĤo": 850,
      "Ġnad": 851,
      "Ġwszyst": 852,
      "ĠRa": 853,
      "Ġ6": 854,
      "Ġ194": 855,
      "Ġpoli": 856,
      "rem": 857,
      "Ġpowie": 858,
      "bra": 859,
      "ĠgÅĤÃ³w": 860,
      "nÃ³w": 861,
      "iada": 862,
      "ĠMo": 863,
      "pad": 864,
      "he": 865,
      "Ġpar": 866,
      "sÃ³b": 867,
      "Ġpre": 868,
      "Ġge": 869,
      "cÄħ": 870,
      "Ġlo": 871,
      "kaÅĦ": 872,
      "twa": 873,
      "Ġdru": 874,
      "Ġwyda": 875,
      "dzÄħ": 876,
      "ej": 877,
      "Ġpla": 878,
      "Ġal": 879,
      "trzy": 880,
      "Å¼Äħ": 881,
      "tar": 882,
      "fia": 883,
      "dob": 884,
      "tego": 885,
      "Ġga": 886,
      "nty": 887,
      "Ġ201": 888,
      "âĢĿ,": 889,
      "tera": 890,
      "Ġ199": 891,
      "Ġznaj": 892,
      "czna": 893,
      "ÅĽli": 894,
      "Ġau": 895,
      "rÄħ": 896,
      "ok": 897,
      "ĠIn": 898,
      "tw": 899,
      "ĠLi": 900,
      "Ġlat": 901,
      "lne": 902,
      "pisy": 903,
      "ĠwiÄĻk": 904,
      "ÄĻd": 905,
      "kÄĻ": 906,
      "Ġlatach": 907,
      "ĠRe": 908,
      "ali": 909,
      "gie": 910,
      "Ġale": 911,
      "cznego": 912,
      "owanie": 913,
      "Ġstanowi": 914,
      "Ã³Åº": 915,
      "Ġsie": 916,
      "pÅĤy": 917,
      "praw": 918,
      "ĠbyÅĤa": 919,
      "ĠĠĠĠ": 920,
      "ĠBa": 921,
      "Ġtra": 922,
      "tro": 923,
      "ĠbyÄĩ": 924,
      "dzenia": 925,
      "glÄĻ": 926,
      "Na": 927,
      "ĠAr": 928,
      "wiÄĻk": 929,
      "oru": 930,
      "gro": 931,
      "Ġ7": 932,
      "Przy": 933,
      "pera": 934,
      "kach": 935,
      "pisa": 936,
      "skÄħ": 937,
      "log": 938,
      "ĠWarsza": 939,
      "wier": 940,
      "szo": 941,
      "zie": 942,
      "tek": 943,
      "ÅĽnie": 944,
      "Ġpraw": 945,
      "stnie": 946,
      "Ġsk": 947,
      "Ġpos": 948,
      "tra": 949,
      "mier": 950,
      "ultu": 951,
      "us": 952,
      "dziaÅĤ": 953,
      "szym": 954,
      "Ġten": 955,
      "Ġim": 956,
      "doc": 957,
      "ĠWo": 958,
      "Ġfunk": 959,
      "ber": 960,
      "fe": 961,
      "mery": 962,
      "Ġoko": 963,
      "<|": 964,
      "dem": 965,
      "|>": 966,
      "chi": 967,
      "ĠbyÅĤo": 968,
      "dzo": 969,
      "Ġfa": 970,
      "Ġ17": 971,
      "ĠmoÅ¼e": 972,
      "Ġpowo": 973,
      "Ġc": 974,
      "res": 975,
      "Ġ8": 976,
      "zowa": 977,
      "Ġnp": 978,
      "Ġstro": 979,
      "nowa": 980,
      "od": 981,
      "szta": 982,
      "stÄħ": 983,
      "ĠSa": 984,
      "Ġju": 985,
      "stra": 986,
      "Ġ15": 987,
      "Ġkla": 988,
      "Ġprzeci": 989,
      "szcza": 990,
      "nio": 991,
      "rzu": 992,
      "lem": 993,
      "wer": 994,
      "Ã³ÅĤno": 995,
      "ĠII": 996,
      "kry": 997,
      "ĠkrÃ³": 998,
      "staw": 999,
      "Ã³Åºniej": 1000,
      "ogra": 1001,
      "Ġ193": 1002,
      "Ġodp": 1003,
      "âĢĻ": 1004,
      "tnie": 1005,
      "Ġorgani": 1006,
      "czenie": 1007,
      "ĠokreÅĽ": 1008,
      "stu": 1009,
      "sÅĤ": 1010,
      "ĠÅĤa": 1011,
      "Ġpocho": 1012,
      "dar": 1013,
      "Ġkil": 1014,
      "zywa": 1015,
      "ĠEuro": 1016,
      "Ġgdy": 1017,
      "ner": 1018,
      "Ġtylko": 1019,
      "chni": 1020,
      "ckiego": 1021,
      "20": 1022,
      "im": 1023,
      "dÅĤug": 1024,
      "ĠwzglÄĻ": 1025,
      "nek": 1026,
      "Ġhist": 1027,
      "Ġru": 1028,
      "Ġsamo": 1029,
      "Ġbada": 1030,
      "sÃ³w": 1031,
      "czes": 1032,
      "ÅĦskiego": 1033,
      "ĠbyÅĤy": 1034,
      "Ġmar": 1035,
      "nÄĻtrz": 1036,
      "ÅĤÄĻ": 1037,
      "ĠTa": 1038,
      "ciu": 1039,
      "Å¼o": 1040,
      "czenia": 1041,
      "sce": 1042,
      "ĠktÃ³ra": 1043,
      "Ġpu": 1044,
      "Ġmiasta": 1045,
      "Ġ9": 1046,
      "Ġwa": 1047,
      "ĠpoczÄħ": 1048,
      "dnia": 1049,
      "pro": 1050,
      "ĠOd": 1051,
      "Ġnale": 1052,
      "th": 1053,
      "dziej": 1054,
      "lnych": 1055,
      "Ġposta": 1056,
      "dno": 1057,
      "ĠczÄĻÅĽci": 1058,
      "Ġsu": 1059,
      "wnÄĻtrz": 1060,
      "ÅĤowie": 1061,
      "ĠmoÅ¼na": 1062,
      "Ġsystem": 1063,
      "ĠwspÃ³ÅĤ": 1064,
      "cjÄħ": 1065,
      "nku": 1066,
      "dziÅĤ": 1067,
      "ĠKon": 1068,
      "Ġtwo": 1069,
      "Ã³d": 1070,
      "ĠwiÄĻ": 1071,
      "Ġniemie": 1072,
      "Ġcy": 1073,
      "nikÃ³w": 1074,
      "redni": 1075,
      "rzÄĻ": 1076,
      "sÅĤaw": 1077,
      "Ġoso": 1078,
      "Ġtej": 1079,
      "ser": 1080,
      "Ġ10": 1081,
      "gÄħ": 1082,
      "ĠktÃ³rych": 1083,
      "Ġznajdu": 1084,
      "ĠTe": 1085,
      "ĠuÅ¼ywa": 1086,
      "rzÄħd": 1087,
      "Ġinnych": 1088,
      "Ġry": 1089,
      "usz": 1090,
      "stwo": 1091,
      "Ġkolej": 1092,
      "ÅĤon": 1093,
      "Ġ198": 1094,
      "sztaÅĤ": 1095,
      "kim": 1096,
      "nem": 1097,
      "tery": 1098,
      "kcji": 1099,
      "ĠspoÅĤe": 1100,
      "Ã³ÅĤnoc": 1101,
      "di": 1102,
      "ĠpÃ³Åºniej": 1103,
      "ĠFran": 1104,
      "kaza": 1105,
      "ĠokrÄĻ": 1106,
      "Ġsty": 1107,
      "scho": 1108,
      "mii": 1109,
      "nad": 1110,
      "ktÃ³": 1111,
      "kÅĤada": 1112,
      "Ġistnie": 1113,
      "ĠPrze": 1114,
      "Ġprodu": 1115,
      "strze": 1116,
      "tych": 1117,
      "Ġprzeciw": 1118,
      "Ġproce": 1119,
      "ĠBy": 1120,
      "miÄĻ": 1121,
      "Ġkultu": 1122,
      "ĠWiel": 1123,
      "scy": 1124,
      "ĠniÅ¼": 1125,
      "Ġ16": 1126,
      "che": 1127,
      "szej": 1128,
      "Ġsze": 1129,
      "Ġuwa": 1130,
      "forma": 1131,
      "cznym": 1132,
      "waÅĤ": 1133,
      "dow": 1134,
      "pej": 1135,
      "ĠÅĽwiat": 1136,
      "zmu": 1137,
      "Przypisy": 1138,
      "ers": 1139,
      "Ġpozosta": 1140,
      "Ġtu": 1141,
      "stru": 1142,
      "bro": 1143,
      "ec": 1144,
      "mar": 1145,
      "mina": 1146,
      "Ġtere": 1147,
      "zacji": 1148,
      "Ġmiesz": 1149,
      "zw": 1150,
      "Ġzie": 1151,
      "Ġkie": 1152,
      "tÄĻ": 1153,
      "tki": 1154,
      "ĠSo": 1155,
      "ryty": 1156,
      "bec": 1157,
      "waÅ¼": 1158,
      "sÅĤu": 1159,
      "ho": 1160,
      "Ġozna": 1161,
      "wu": 1162,
      "Ġspe": 1163,
      "leÅ¼": 1164,
      "Ġ12": 1165,
      "Ġuzna": 1166,
      "ĠCz": 1167,
      "mÃ³w": 1168,
      "cznÄħ": 1169,
      "ĠnastÄĻp": 1170,
      "pol": 1171,
      "man": 1172,
      "Ġcha": 1173,
      "Ġsi": 1174,
      "wania": 1175,
      "gen": 1176,
      "Ġcie": 1177,
      "lek": 1178,
      "pre": 1179,
      "zi": 1180,
      "ĠzwiÄħz": 1181,
      "Ġczasie": 1182,
      "ĠWe": 1183,
      "kre": 1184,
      "ĠOr": 1185,
      "rÃ³w": 1186,
      "ĠMe": 1187,
      "nicy": 1188,
      "mach": 1189,
      "Ġrozpo": 1190,
      "sem": 1191,
      "Ġswoje": 1192,
      "kro": 1193,
      "kami": 1194,
      "oria": 1195,
      "ĠjÄħ": 1196,
      "ÅĤk": 1197,
      "Ġgdzie": 1198,
      "ĠPolsce": 1199,
      "miast": 1200,
      "ron": 1201,
      "Ġprzedsta": 1202,
      "ĠdÅĤu": 1203,
      "ĠjuÅ¼": 1204,
      "lny": 1205,
      "ĠktÃ³rej": 1206,
      "jo": 1207,
      "Ġprogra": 1208,
      "mowa": 1209,
      "trzyma": 1210,
      "dzenie": 1211,
      "Ġnich": 1212,
      "Äħd": 1213,
      "nach": 1214,
      "tora": 1215,
      "tru": 1216,
      "ĠAl": 1217,
      "kiej": 1218,
      "Ġprowa": 1219,
      "Ġfil": 1220,
      "tyw": 1221,
      "ĠDa": 1222,
      "cych": 1223,
      "mienia": 1224,
      "tyczne": 1225,
      "ĠCo": 1226,
      "koÅĦ": 1227,
      "row": 1228,
      "ĠokoÅĤo": 1229,
      "ÅĤudni": 1230,
      "Ġcho": 1231,
      "ĠzostaÅĤa": 1232,
      "szech": 1233,
      "rzenia": 1234,
      "Ġof": 1235,
      "ÅĽcia": 1236,
      "stytu": 1237,
      "Ġ197": 1238,
      "ÅĦstwa": 1239,
      "Ġreli": 1240,
      "ĠwpÅĤy": 1241,
      "ĠPolski": 1242,
      "ckich": 1243,
      "ĠPi": 1244,
      "Ġek": 1245,
      "szego": 1246,
      "Å¼ej": 1247,
      "menta": 1248,
      "Ġon": 1249,
      "kiego": 1250,
      "ĠsÅĤ": 1251,
      "ck": 1252,
      "Ġzach": 1253,
      "tej": 1254,
      "lnie": 1255,
      "roni": 1256,
      "ĠAu": 1257,
      "ĠWa": 1258,
      "ĠÅĽmier": 1259,
      "ĠRze": 1260,
      "der": 1261,
      "liwo": 1262,
      "Ġbu": 1263,
      "Ġtych": 1264,
      "chu": 1265,
      "ibli": 1266,
      "Ġpomo": 1267,
      "Ġwoje": 1268,
      "Ġse": 1269,
      "Ġelekt": 1270,
      "oba": 1271,
      "lega": 1272,
      "Ġ195": 1273,
      "ckiej": 1274,
      "hi": 1275,
      "Ġ-": 1276,
      "Ġcharak": 1277,
      "lan": 1278,
      "zji": 1279,
      "Ġjedy": 1280,
      "mien": 1281,
      "ÅĽrÃ³d": 1282,
      "ĠÅ»": 1283,
      "jÄħca": 1284,
      "Ġ196": 1285,
      "ort": 1286,
      "ĠHa": 1287,
      "cej": 1288,
      "Ġprzypad": 1289,
      "wiera": 1290,
      "Ġpodczas": 1291,
      "Ġzbi": 1292,
      "Ġobec": 1293,
      "niku": 1294,
      "Ġczer": 1295,
      "ĠWi": 1296,
      "ĠPod": 1297,
      "tku": 1298,
      "ĠwystÄĻpu": 1299,
      "gii": 1300,
      "Ġnau": 1301,
      "Ġobie": 1302,
      "ium": 1303,
      "stro": 1304,
      "ĠwÅĤas": 1305,
      "Ġosta": 1306,
      "ĠNe": 1307,
      "ĠGe": 1308,
      "ĠzwiÄħza": 1309,
      "Ġusta": 1310,
      "ĠkoÅĦ": 1311,
      "Ġzdo": 1312,
      "ĠMu": 1313,
      "ĠzÅĤo": 1314,
      "wiet": 1315,
      "Ġszy": 1316,
      "Ġjednost": 1317,
      "stÃ³w": 1318,
      "stÄħpi": 1319,
      "ĠkaÅ¼": 1320,
      "Ġzacho": 1321,
      "lnej": 1322,
      "ĠKoÅĽci": 1323,
      "cer": 1324,
      "wiaz": 1325,
      "ĠÅĽrod": 1326,
      "ĠLu": 1327,
      "Ġwal": 1328,
      "bar": 1329,
      "ĠLa": 1330,
      "rach": 1331,
      "Ġpoprze": 1332,
      "ÅĦskiej": 1333,
      "ĠDe": 1334,
      "orÃ³w": 1335,
      "Ġcze": 1336,
      "ĠczÄĻsto": 1337,
      "chy": 1338,
      "ÅĤych": 1339,
      "wen": 1340,
      "nosi": 1341,
      "ĠUni": 1342,
      "toli": 1343,
      "mieni": 1344,
      "cach": 1345,
      "logii": 1346,
      "Ġodpowie": 1347,
      "Ġzwy": 1348,
      "ler": 1349,
      "cka": 1350,
      "jedno": 1351,
      "Ġbardzo": 1352,
      "ĠktÃ³rym": 1353,
      "spodar": 1354,
      "Ġwojny": 1355,
      "owski": 1356,
      "budowa": 1357,
      "Ġbud": 1358,
      "ÅĦskie": 1359,
      "Ġkar": 1360,
      "Ġszcze": 1361,
      "ĠPar": 1362,
      "Ġposiada": 1363,
      "Ġwprowa": 1364,
      "wane": 1365,
      "per": 1366,
      "ĠGa": 1367,
      "ĠczÄĻÅĽÄĩ": 1368,
      "Ġ192": 1369,
      "ĠXV": 1370,
      ".,": 1371,
      "ĠzaÅĤo": 1372,
      "Ġlitera": 1373,
      "ing": 1374,
      "ĠktÃ³rego": 1375,
      "Ġpom": 1376,
      "kona": 1377,
      "syj": 1378,
      "Ġwykorzy": 1379,
      "Ġpier": 1380,
      "Ġbra": 1381,
      "maty": 1382,
      "17": 1383,
      "Ġstosu": 1384,
      "orii": 1385,
      "ten": 1386,
      "ĠsposÃ³b": 1387,
      "dek": 1388,
      "ĠNaj": 1389,
      "ĠzewnÄĻtrz": 1390,
      "Ġpoja": 1391,
      "ĠAn": 1392,
      "ĠPrzy": 1393,
      "ĠJo": 1394,
      "wÃ³j": 1395,
      "ment": 1396,
      "Ġwyso": 1397,
      "Ġtys": 1398,
      "Ġ14": 1399,
      "obacz": 1400,
      "lozo": 1401,
      "ĠjÄĻzyk": 1402,
      "lnoÅĽci": 1403,
      "ren": 1404,
      "Ġszko": 1405,
      "Ġser": 1406,
      "ĠHe": 1407,
      "grani": 1408,
      "Ġnauk": 1409,
      "pada": 1410,
      "dobnie": 1411,
      "ĠXX": 1412,
      "Ġraz": 1413,
      "ĠsÅĤu": 1414,
      "Ġdro": 1415,
      "ĠKra": 1416,
      "lna": 1417,
      "Ġtrze": 1418,
      "ĠmajÄħ": 1419,
      "Ġ13": 1420,
      "ĠXI": 1421,
      "Ġpubli": 1422,
      "try": 1423,
      "Ġstosowa": 1424,
      "Ġzw": 1425,
      "nami": 1426,
      "logia": 1427,
      "ĠosÃ³b": 1428,
      "Ġad": 1429,
      "wanie": 1430,
      "000": 1431,
      "Ġwielu": 1432,
      "land": 1433,
      "arÃ³w": 1434,
      "Ġana": 1435,
      "Ġku": 1436,
      "mio": 1437,
      "ografia": 1438,
      "Ġsku": 1439,
      "ĠpaÅĦstwa": 1440,
      "kra": 1441,
      "trze": 1442,
      "ÄĻg": 1443,
      "Å¼enia": 1444,
      "ĠÅģ": 1445,
      "Ġzasa": 1446,
      "lnego": 1447,
      "now": 1448,
      "ĠciÄħ": 1449,
      "Zobacz": 1450,
      "publi": 1451,
      "Ġ11": 1452,
      "mat": 1453,
      "pnia": 1454,
      "jem": 1455,
      "Ġinter": 1456,
      "Ġwiele": 1457,
      "ĠÅĤÄħ": 1458,
      "stan": 1459,
      "ĠwiÄĻkszo": 1460,
      "Ġska": 1461,
      "jmu": 1462,
      "Ġlud": 1463,
      "ĠHi": 1464,
      "ÅĤem": 1465,
      "lia": 1466,
      "ĠpeÅĤ": 1467,
      "tycznych": 1468,
      "Ġpowierz": 1469,
      "Ġne": 1470,
      "czonych": 1471,
      "Ġ[": 1472,
      "Ġzawiera": 1473,
      "syte": 1474,
      "Ġmniej": 1475,
      "Ġnatu": 1476,
      "czone": 1477,
      "Ġwrze": 1478,
      "szczy": 1479,
      "ĠPro": 1480,
      "ÅĽnia": 1481,
      "ĠoÅĽ": 1482,
      "len": 1483,
      "Ġtzw": 1484,
      "ĠTo": 1485,
      "ĠjÄĻzyka": 1486,
      "dia": 1487,
      "Ġczyli": 1488,
      "niki": 1489,
      "Ġmiejsce": 1490,
      "Å¼u": 1491,
      "Ġponad": 1492,
      "daw": 1493,
      "np": 1494,
      "wersyte": 1495,
      "ĠSy": 1496,
      "ĠÅ¼ycia": 1497,
      "ĠczÅĤon": 1498,
      "Ġoznacza": 1499,
      "peÅĤ": 1500,
      "ĠmogÄħ": 1501,
      "Ġgene": 1502,
      "czej": 1503,
      "ÅĤej": 1504,
      "dniej": 1505,
      "ich": 1506,
      "ĠCa": 1507,
      "pli": 1508,
      "tka": 1509,
      "Ġklasy": 1510,
      "sek": 1511,
      "Å¼enie": 1512,
      "Ġzmia": 1513,
      "ĠniektÃ³": 1514,
      "jÄħcego": 1515,
      "ĠksiÄĻ": 1516,
      "rab": 1517,
      "ĠpÃ³ÅĤnoc": 1518,
      "bÄĻ": 1519,
      "ĠnajwiÄĻk": 1520,
      "Ġkraju": 1521,
      "Ġnazywa": 1522,
      "glÄħ": 1523,
      "ĠrzÄħ": 1524,
      "Ġpopu": 1525,
      "sji": 1526,
      "ÅĽniej": 1527,
      "ÅĤego": 1528,
      "toÅĽci": 1529,
      "Ġdoda": 1530,
      "tÄħ": 1531,
      "iaÅĤ": 1532,
      "niÄħ": 1533,
      "ĠJu": 1534,
      "fo": 1535,
      "star": 1536,
      "tomiast": 1537,
      "fika": 1538,
      "Ġtrzy": 1539,
      "Ġrodza": 1540,
      "10": 1541,
      "Ġpierwszy": 1542,
      "Ġdwa": 1543,
      "Ġkilka": 1544,
      "Ġzda": 1545,
      "Ġgwiaz": 1546,
      "Ġsztu": 1547,
      "Åºdzie": 1548,
      "Ġkry": 1549,
      "mniej": 1550,
      "czu": 1551,
      "rzym": 1552,
      "ĠÅº": 1553,
      "ÅĤoÅĽci": 1554,
      "bÄħ": 1555,
      "Ã©": 1556,
      "lenia": 1557,
      "Ġpoda": 1558,
      "Ġha": 1559,
      "ut": 1560,
      "ÅĦska": 1561,
      "czyÅĤ": 1562,
      "Ġfilozo": 1563,
      "Ġsier": 1564,
      "owiÄħ": 1565,
      "ĠksiÄħ": 1566,
      "Ġhi": 1567,
      "ĠpaÅĦstw": 1568,
      "nta": 1569,
      "Ġpodstaw": 1570,
      "Ġokresie": 1571,
      "ĠBe": 1572,
      "Ġkwa": 1573,
      "ksztaÅĤ": 1574,
      "ĠMie": 1575,
      "wÃ³r": 1576,
      "jÄħcej": 1577,
      "Ġprac": 1578,
      "ard": 1579,
      "cep": 1580,
      "zyden": 1581,
      "Ġv": 1582,
      "Ġpie": 1583,
      "Ġwyb": 1584,
      "onu": 1585,
      "Ġsym": 1586,
      "lenie": 1587,
      "Ġrodzi": 1588,
      "Ġwraz": 1589,
      "jÄħcÄħ": 1590,
      "Ġstycz": 1591,
      "ĠNarod": 1592,
      "Ġpan": 1593,
      "Ġter": 1594,
      "wet": 1595,
      "rzeÅĽci": 1596,
      "koÅĽci": 1597,
      "Ġwiel": 1598,
      "Ġak": 1599,
      "zen": 1600,
      "Za": 1601,
      "Ġ0": 1602,
      "iÄĻki": 1603,
      "ĠmiaÅĤ": 1604,
      "ĠGo": 1605,
      "ĠdwÃ³": 1606,
      "ÅĦskich": 1607,
      "15": 1608,
      "rzeÅĽcija": 1609,
      "ĠgÅĤo": 1610,
      "ĠNiem": 1611,
      "Ġmuzy": 1612,
      "Ġsamy": 1613,
      "ria": 1614,
      "ĠPra": 1615,
      "tel": 1616,
      "ĠÅĽwie": 1617,
      "Ġhe": 1618,
      "ĠmieszkaÅĦ": 1619,
      "Ġwojsk": 1620,
      "Ġelemen": 1621,
      "ĠdwÃ³ch": 1622,
      "dÄħ": 1623,
      "Ġgospodar": 1624,
      "wany": 1625,
      "owiada": 1626,
      "ÄĻdÄħ": 1627,
      "wod": 1628,
      "Ġkonie": 1629,
      "Ġstru": 1630,
      "Ġpew": 1631,
      "Lin": 1632,
      "miesz": 1633,
      "prac": 1634,
      "ton": 1635,
      "Ġwszystkich": 1636,
      "tom": 1637,
      "Ġznajduje": 1638,
      "Ġpor": 1639,
      "czeÅĽnie": 1640,
      "stosowa": 1641,
      "pozy": 1642,
      "Ġstra": 1643,
      "ĠSe": 1644,
      "Ġpara": 1645,
      "zja": 1646,
      "Ġwyra": 1647,
      "par": 1648,
      "Ġoddzia": 1649,
      "ĠZie": 1650,
      "Ġho": 1651,
      "ĠzewnÄĻtrzne": 1652,
      "ĠgÅĤÃ³wnie": 1653,
      "Ġmeto": 1654,
      "ĠuwaÅ¼a": 1655,
      "Ġuzy": 1656,
      "ĠczÅĤowie": 1657,
      "ĠRu": 1658,
      "Ġarty": 1659,
      "usza": 1660,
      "Ġsek": 1661,
      "lii": 1662,
      "czych": 1663,
      "Ġtran": 1664,
      "Ġlip": 1665,
      "ciÄĻ": 1666,
      "fini": 1667,
      "ĠprÃ³": 1668,
      "Ġdia": 1669,
      "lnoÅĽÄĩ": 1670,
      "ckim": 1671,
      "sÅĤawa": 1672,
      "ĠwzglÄĻdu": 1673,
      "moÅ¼": 1674,
      "Ġczerw": 1675,
      "Ġpisa": 1676,
      "Ġfizy": 1677,
      "Ġnada": 1678,
      "leg": 1679,
      "kar": 1680,
      "Ġcelu": 1681,
      "Ġopera": 1682,
      "narod": 1683,
      "ĠpoÅĽ": 1684,
      "Ġfran": 1685,
      "emi": 1686,
      "Ġodby": 1687,
      "owane": 1688,
      "cyjne": 1689,
      "..": 1690,
      "ĠzostaÅĤy": 1691,
      "gna": 1692,
      "tkowo": 1693,
      "ĠZjedno": 1694,
      "czeÅĽniej": 1695,
      "mor": 1696,
      "merykaÅĦ": 1697,
      "Ġspraw": 1698,
      "gÄĻ": 1699,
      ".)": 1700,
      "Ġsil": 1701,
      "ĠHo": 1702,
      "Ġutwo": 1703,
      "ster": 1704,
      "owarzy": 1705,
      "owaÄĩ": 1706,
      "dopo": 1707,
      "Ġuro": 1708,
      "tami": 1709,
      "Ġwscho": 1710,
      "Ġzgo": 1711,
      "III": 1712,
      "rwa": 1713,
      "Ġpart": 1714,
      "dÄĻ": 1715,
      "ĠBer": 1716,
      "Ġobsz": 1717,
      "Ġrozwi": 1718,
      "Ġdzi": 1719,
      "niach": 1720,
      "ĠzaÅĽ": 1721,
      "ĠNi": 1722,
      "Åºdzier": 1723,
      "ĠJan": 1724,
      "lacji": 1725,
      "Ġnawet": 1726,
      "Ġczas": 1727,
      "jski": 1728,
      "ĠRzy": 1729,
      "Ġinne": 1730,
      "Linki": 1731,
      "czeniu": 1732,
      "and": 1733,
      "ĠpoÅĤudni": 1734,
      "Ġinforma": 1735,
      "kom": 1736,
      "Ġpowodu": 1737,
      "Ġpozy": 1738,
      "szu": 1739,
      "16": 1740,
      "Ġml": 1741,
      "Ġwyzna": 1742,
      "ĠIII": 1743,
      "Ġtrady": 1744,
      "lni": 1745,
      "tyka": 1746,
      "jÃ³w": 1747,
      "Ġwers": 1748,
      "tory": 1749,
      "ns": 1750,
      "Ġcent": 1751,
      "Ġgrupy": 1752,
      "Ġwywo": 1753,
      "pisu": 1754,
      "ĠÅ¼": 1755,
      "nar": 1756,
      "Ġmater": 1757,
      "uropej": 1758,
      "nki": 1759,
      "Ġnazwa": 1760,
      "Ġauto": 1761,
      "szpa": 1762,
      "Wy": 1763,
      "ĠbÄĻdÄħ": 1764,
      "ĠÅĽw": 1765,
      "12": 1766,
      "Ġspra": 1767,
      "Ġmor": 1768,
      "ĠpÅĤy": 1769,
      "Ġener": 1770,
      "Ġlisto": 1771,
      "Ġwyniku": 1772,
      "ĠpaÅºdzier": 1773,
      "sti": 1774,
      "ĠwspÃ³l": 1775,
      "Ġhistory": 1776,
      "ktÃ³w": 1777,
      "nictwo": 1778,
      "ĠÅĽredni": 1779,
      "Ġgro": 1780,
      "Ġdowo": 1781,
      "Ġaby": 1782,
      "ĠWie": 1783,
      "ve": 1784,
      "cyjnych": 1785,
      "Ġtem": 1786,
      "ĠKrzy": 1787,
      "ĠwrzeÅĽnia": 1788,
      "Ġsame": 1789,
      "ĠrÃ³Å¼nych": 1790,
      "lnym": 1791,
      "towi": 1792,
      "Ġotrzyma": 1793,
      "Ġwia": 1794,
      "ktyw": 1795,
      "ĠKrÃ³": 1796,
      "owymi": 1797,
      "Ġnarod": 1798,
      "Ġcia": 1799,
      "tury": 1800,
      "Ġtam": 1801,
      "ĠÅĽmierci": 1802,
      "Ġnazw": 1803,
      "Ġrea": 1804,
      "ĠWoj": 1805,
      "Ġmy": 1806,
      "ĠokreÅĽla": 1807,
      "ĠmÅĤo": 1808,
      "Ġkomu": 1809,
      "dzin": 1810,
      "ĠszczegÃ³l": 1811,
      "Ġprzedstawi": 1812,
      "Bibli": 1813,
      "Ġstaro": 1814,
      "net": 1815,
      "Ġang": 1816,
      "ÅĤym": 1817,
      "wÃ³dz": 1818,
      "Ġul": 1819,
      "Ġ=": 1820,
      "ĠUniwersyte": 1821,
      "ĠXIX": 1822,
      "Ġnim": 1823,
      "ir": 1824,
      "maga": 1825,
      "Ġodkry": 1826,
      "wem": 1827,
      "Ġdrugie": 1828,
      "jÄħcym": 1829,
      "tere": 1830,
      "ejmu": 1831,
      "onÄħ": 1832,
      "ĠdÅĤugo": 1833,
      "rzenie": 1834,
      "wolu": 1835,
      "Ġrzeczy": 1836,
      "ke": 1837,
      "tion": 1838,
      "Ġnowo": 1839,
      "Ġnatomiast": 1840,
      "ÅĦstwo": 1841,
      "wiÄħza": 1842,
      "rea": 1843,
      "Ġ30": 1844,
      "ĠLo": 1845,
      "spÃ³ÅĤ": 1846,
      "lin": 1847,
      "fek": 1848,
      "kon": 1849,
      "Ġtek": 1850,
      "ĠwedÅĤug": 1851,
      "fii": 1852,
      "Ġsza": 1853,
      "ĠmÄĻ": 1854,
      "mysÅĤ": 1855,
      "Ġwynosi": 1856,
      "ĠnastÄĻpnie": 1857,
      "Ġsamym": 1858,
      "rywa": 1859,
      "legÅĤo": 1860,
      "mini": 1861,
      "Ġgrudnia": 1862,
      "Ġmili": 1863,
      "Ġjedynie": 1864,
      "owskiego": 1865,
      "Ġprawa": 1866,
      "Ġjeden": 1867,
      "Ko": 1868,
      "dra": 1869,
      "ĠTy": 1870,
      "Ġstruktu": 1871,
      "ciÅĤ": 1872,
      "ĠwiÄĻc": 1873,
      "tua": 1874,
      "ĠpoÅĤÄħ": 1875,
      "tali": 1876,
      "cen": 1877,
      "zuje": 1878,
      "tne": 1879,
      "ĠCy": 1880,
      "Ġ25": 1881,
      "kle": 1882,
      "Ġrzym": 1883,
      "cznoÅĽci": 1884,
      "owany": 1885,
      "bur": 1886,
      "zeum": 1887,
      "ÅĦskim": 1888,
      "Ġzde": 1889,
      "moÅ¼li": 1890,
      "ĠwÅĤaÅĽci": 1891,
      "cego": 1892,
      "Ġprawo": 1893,
      "laz": 1894,
      "matycz": 1895,
      "Ġprzypadku": 1896,
      "Ġpowierzchni": 1897,
      "Ġtypu": 1898,
      "min": 1899,
      "Ġsierpnia": 1900,
      "ian": 1901,
      "Ġkwiet": 1902,
      "ĠczÄħ": 1903,
      "Ġstud": 1904,
      "Ġlecz": 1905,
      "Ġwykona": 1906,
      "ob": 1907,
      "twie": 1908,
      "Ġdwu": 1909,
      "Ġpozio": 1910,
      "Ġfrancu": 1911,
      "cjona": 1912,
      "ĠWarszawa": 1913,
      "14": 1914,
      "Ġsymbo": 1915,
      "stawie": 1916,
      "Ġpostaci": 1917,
      "Ġone": 1918,
      "Ġcesa": 1919,
      "Ġkompu": 1920,
      "ĠskÅĤada": 1921,
      "waÄĩ": 1922,
      "ksy": 1923,
      "ÅĽciej": 1924,
      "Ġkieru": 1925,
      "ÅĽni": 1926,
      "ĠchrzeÅĽcija": 1927,
      "Ġuzyska": 1928,
      "Ġkilku": 1929,
      "Bibliografia": 1930,
      "Ġwielo": 1931,
      "ĠpoczÄħtku": 1932,
      "tur": 1933,
      "lnÄħ": 1934,
      "Ġbardziej": 1935,
      "Ġzdoby": 1936,
      "Ġszyb": 1937,
      "Ġtrak": 1938,
      "ĠpoÅĤo": 1939,
      "czony": 1940,
      "Ġdanych": 1941,
      "Ġdaw": 1942,
      "ÅĤnie": 1943,
      "wodni": 1944,
      "chodzi": 1945,
      "ĠCe": 1946,
      "ĠosiÄħ": 1947,
      "gij": 1948,
      "Ġpoprzez": 1949,
      "bardziej": 1950,
      "vi": 1951,
      "Ġona": 1952,
      "pis": 1953,
      "ÄĻzy": 1954,
      "por": 1955,
      "Ã³wczas": 1956,
      "Ġrozwo": 1957,
      "wyÅ¼": 1958,
      "Ġliczby": 1959,
      "wskiego": 1960,
      "ĠPe": 1961,
      "tura": 1962,
      "Je": 1963,
      "Ġdob": 1964,
      "arÃ³wno": 1965,
      "ĠJed": 1966,
      "ĠÅ¼a": 1967,
      "ĠksiÄħÅ¼": 1968,
      "ang": 1969,
      "Ġog": 1970,
      "gne": 1971,
      "Ġproje": 1972,
      "13": 1973,
      "ĠpomiÄĻdzy": 1974,
      "ĠmieszkaÅĦcÃ³w": 1975,
      "Ġjeszcze": 1976,
      "kÅĤadu": 1977,
      "ÅĤkowi": 1978,
      "ĠÅ»y": 1979,
      "lub": 1980,
      "Ġide": 1981,
      "jÄħÅĤ": 1982,
      "Ġmiejsc": 1983,
      "spoli": 1984,
      "nica": 1985,
      "les": 1986,
      "km": 1987,
      "rytyj": 1988,
      "istoria": 1989,
      "ĠFi": 1990,
      "Ġtakie": 1991,
      "ciem": 1992,
      "Ġpis": 1993,
      "ĠzakoÅĦ": 1994,
      "Do": 1995,
      "sar": 1996,
      "ĠÅļwiÄĻ": 1997,
      "sja": 1998,
      "ĠRy": 1999,
      "Ġstycznia": 2000,
      "Ġstop": 2001,
      "rami": 2002,
      "liwoÅĽci": 2003,
      "gÃ³w": 2004,
      ");": 2005,
      "Ġucze": 2006,
      "Ġtempera": 2007,
      "ĠZe": 2008,
      "rzo": 2009,
      "Ġofi": 2010,
      "ĠKar": 2011,
      "ote": 2012,
      "Ġforma": 2013,
      "Ġczerwca": 2014,
      "ĠtwÃ³r": 2015,
      "Ġmln": 2016,
      "ĠktÃ³rzy": 2017,
      "czaj": 2018,
      "Ġdow": 2019,
      "ĠjÄĻzyku": 2020,
      "Ġstrony": 2021,
      "Ġdziedzi": 2022,
      "Ġlipca": 2023,
      "Ġgrup": 2024,
      "ĠAnd": 2025,
      "Ġregi": 2026,
      "nÄħÅĤ": 2027,
      "Ġmiasto": 2028,
      "rÃ³t": 2029,
      "rych": 2030,
      "Ġjednym": 2031,
      "onÃ³w": 2032,
      "Ã³j": 2033,
      "niewaÅ¼": 2034,
      "ĠnaleÅ¼y": 2035,
      "ĠwÄĻg": 2036,
      "Ġludzi": 2037,
      "Ġilo": 2038,
      "zacja": 2039,
      "zaleÅ¼": 2040,
      "Ġpracy": 2041,
      "sach": 2042,
      "Ġmaja": 2043,
      "ĠWil": 2044,
      "Ġfo": 2045,
      "ĠJest": 2046,
      "zio": 2047,
      "ĠÅºrÃ³d": 2048,
      "Ġzwie": 2049,
      "Ġ190": 2050,
      "nictwa": 2051,
      "ĠÅ¼o": 2052,
      "Ã³g": 2053,
      "Ġpsy": 2054,
      "ĠskÅĤad": 2055,
      "Ġsam": 2056,
      "Ġliczba": 2057,
      "Ġwska": 2058,
      "cenia": 2059,
      "Ġprzeprowa": 2060,
      "ĠprzykÅĤad": 2061,
      "Ġmate": 2062,
      "owoÅĽci": 2063,
      "Ġprezyden": 2064,
      "Ġniez": 2065,
      "cyjny": 2066,
      "Ġbie": 2067,
      "ĠÅĽwiecie": 2068,
      "ÅĤowa": 2069,
      "Ġopar": 2070,
      "nisty": 2071,
      "Ro": 2072,
      "ĠkoÅĽci": 2073,
      "ĠCho": 2074,
      "Ġstar": 2075,
      "Ġnatural": 2076,
      "kÃ³ÅĤ": 2077,
      "gar": 2078,
      "qu": 2079,
      "Ġkobie": 2080,
      "ĠzostaÅĤo": 2081,
      "ĠBar": 2082,
      "Ġstanu": 2083,
      "Ġspecja": 2084,
      "eru": 2085,
      "Ġchemi": 2086,
      "nk": 2087,
      "erytor": 2088,
      "ĠÅĽwiatowej": 2089,
      "czyÄĩ": 2090,
      "ĠwczeÅĽniej": 2091,
      "Ġpolitycz": 2092,
      "ĠdziÄĻki": 2093,
      "ĠCen": 2094,
      "ĠprzyjÄĻ": 2095,
      "Ġwszystkie": 2096,
      "11": 2097,
      "dro": 2098,
      "Ġoby": 2099,
      "ĠFe": 2100,
      "ĠwÅĽrÃ³d": 2101,
      "Ġ100": 2102,
      "ĠWÅĤa": 2103,
      "ĠnastÄĻpu": 2104,
      "dzna": 2105,
      "ĠÅĽwiata": 2106,
      "puszcza": 2107,
      "listy": 2108,
      "Ġgre": 2109,
      "ĠĠĠĠĠĠĠĠ": 2110,
      "Ġterenie": 2111,
      "biera": 2112,
      "Ġsprze": 2113,
      "Ġoj": 2114,
      "wski": 2115,
      "ĠSÅĤo": 2116,
      "Ġpowszech": 2117,
      "Ġczasu": 2118,
      "Ġani": 2119,
      "mentu": 2120,
      "Ġgatu": 2121,
      "ble": 2122,
      "ÅĽwia": 2123,
      "Ġstwo": 2124,
      "SA": 2125,
      "va": 2126,
      "ĠogÃ³l": 2127,
      "tym": 2128,
      "ĠThe": 2129,
      "ĠcaÅĤkowi": 2130,
      "toÅĽÄĩ": 2131,
      "Ġtakich": 2132,
      "gia": 2133,
      "ĠBry": 2134,
      "Ġregu": 2135,
      "tt": 2136,
      "stwie": 2137,
      "Ġzajmu": 2138,
      "ĠSu": 2139,
      "Ġniego": 2140,
      "Ġinnymi": 2141,
      "ĠtÅĤu": 2142,
      "ĠrozpoczÄĻ": 2143,
      "ĠmÃ³w": 2144,
      "ĠzaczÄĻ": 2145,
      "Ġzawar": 2146,
      "wan": 2147,
      "poÅĽ": 2148,
      "Å¼yt": 2149,
      "ÄĻdzie": 2150,
      "ĠDu": 2151,
      "ĠJego": 2152,
      "wala": 2153,
      "Å¼one": 2154,
      "Ġwielko": 2155,
      "Ġograni": 2156,
      "ĠzarÃ³wno": 2157,
      "nienia": 2158,
      "ãģ": 2159,
      "ĠgÃ³r": 2160,
      "pospoli": 2161,
      "ĠpaÅºdziernika": 2162,
      "50": 2163,
      "licy": 2164,
      "Ġkwietnia": 2165,
      "Nie": 2166,
      "dgo": 2167,
      "Ġnr": 2168,
      "Ġmarca": 2169,
      "Ġdwie": 2170,
      "tedy": 2171,
      "ĠMuzeum": 2172,
      "kowie": 2173,
      "Ġkiedy": 2174,
      "ĠKsiÄĻ": 2175,
      "ministra": 2176,
      "dÅĤ": 2177,
      "ĠudziaÅĤ": 2178,
      "Ġprzyczy": 2179,
      "racji": 2180,
      "Ġrzeczywi": 2181,
      "wal": 2182,
      "Ġ.": 2183,
      "ĠwÃ³wczas": 2184,
      "ĠPu": 2185,
      "ĠnaleÅ¼Äħ": 2186,
      "ĠPla": 2187,
      "dio": 2188,
      "Ġosa": 2189,
      "Ġpoza": 2190,
      "pod": 2191,
      "dr": 2192,
      "ĠÅ¼oÅĤnie": 2193,
      "kcja": 2194,
      "Ġreligij": 2195,
      "usa": 2196,
      "Ġpolskich": 2197,
      "oÅĤa": 2198,
      "nomi": 2199,
      "lowa": 2200,
      "Ġwarun": 2201,
      "sen": 2202,
      "Ġsobie": 2203,
      "Ġtrwa": 2204,
      "iÄħ": 2205,
      "ĠwartoÅĽci": 2206,
      "czeni": 2207,
      "Ġwzro": 2208,
      "Ġwojen": 2209,
      "Ġcharaktery": 2210,
      "jawi": 2211,
      "Ġwobec": 2212,
      "Ġlistopada": 2213,
      "Ġâ": 2214,
      "Ġpowstania": 2215,
      "ĠpomocÄħ": 2216,
      "ĠwojewÃ³dz": 2217,
      "ĠÅļlÄħ": 2218,
      "ĠRoz": 2219,
      "ĠZjednoczonych": 2220,
      "Ġobro": 2221,
      "sual": 2222,
      "Ġterytor": 2223,
      "metr": 2224,
      "serwa": 2225,
      "ĠSi": 2226,
      "ĠPozna": 2227,
      "czni": 2228,
      "ĠÅĽwiÄĻ": 2229,
      "sch": 2230,
      "ĠSt": 2231,
      "prezen": 2232,
      "Ġkonty": 2233,
      "Ġniewie": 2234,
      "Ġwszystkim": 2235,
      "dziÄĩ": 2236,
      "Ġobraz": 2237,
      "Ġtwier": 2238,
      "200": 2239,
      "Ġzastosowa": 2240,
      "dÅº": 2241,
      "Ġtru": 2242,
      "Ġczyn": 2243,
      "nkÃ³w": 2244,
      "fry": 2245,
      "Ġwod": 2246,
      "ĠY": 2247,
      "Ġbio": 2248,
      "ĠczÅĤowieka": 2249,
      "dnio": 2250,
      "ĠstanowiÄħ": 2251,
      "wiÄħz": 2252,
      "Ġloka": 2253,
      "ĠKomi": 2254,
      "Ġeksp": 2255,
      "ĠniektÃ³rych": 2256,
      "Ġ\"": 2257,
      "Ġprawdopo": 2258,
      "ĠludnoÅĽci": 2259,
      "ÅĤow": 2260,
      "194": 2261,
      "ĠjÄĻzykÃ³w": 2262,
      "lei": 2263,
      "ĠamerykaÅĦ": 2264,
      "ĠStani": 2265,
      "ĠpÅĤa": 2266,
      "niÅĤ": 2267,
      "ĠPow": 2268,
      "czÄĻÅĽciej": 2269,
      "In": 2270,
      "ple": 2271,
      "Ġstanie": 2272,
      "Ġpun": 2273,
      "ÅĦca": 2274,
      "ĠBu": 2275,
      "Ġanty": 2276,
      "siÅĤ": 2277,
      "spe": 2278,
      "rek": 2279,
      "wali": 2280,
      "czego": 2281,
      "bia": 2282,
      "Ġpopular": 2283,
      "naj": 2284,
      "szko": 2285,
      "Ġtyp": 2286,
      "Ġtytu": 2287,
      "22": 2288,
      "ĠpiÄĻ": 2289,
      "Ġprzestrze": 2290,
      "ĠmiaÅĤa": 2291,
      "rÃ³j": 2292,
      "szenie": 2293,
      "ĠFa": 2294,
      "wana": 2295,
      "ĠwiÄħ": 2296,
      "Ġen": 2297,
      "pia": 2298,
      "czÄħÅĤ": 2299,
      "gru": 2300,
      "Ġkoniec": 2301,
      "Ġpolity": 2302,
      "ĠEuropej": 2303,
      "Ġtele": 2304,
      "ktor": 2305,
      "siÄĻcy": 2306,
      "Ġprogram": 2307,
      "dli": 2308,
      "tacji": 2309,
      "szcz": 2310,
      "ĠSzko": 2311,
      "ĠoddziaÅĤy": 2312,
      "tio": 2313,
      "ĠzwiÄħzku": 2314,
      "ĠGu": 2315,
      "Ġautor": 2316,
      "ina": 2317,
      "Ã¼": 2318,
      "Ġzam": 2319,
      "Ġbli": 2320,
      "ĠHen": 2321,
      "Ġswoich": 2322,
      "30": 2323,
      "Ġkatoli": 2324,
      "Ġwysp": 2325,
      "ĠKrÃ³le": 2326,
      "lone": 2327,
      "ĠwpÅĤyw": 2328,
      "ĠAmery": 2329,
      "Ġdecy": 2330,
      "twÃ³r": 2331,
      "Ã³ze": 2332,
      "Prze": 2333,
      "tle": 2334,
      "lep": 2335,
      "ĠwaÅ¼": 2336,
      "Ġsub": 2337,
      "piero": 2338,
      "del": 2339,
      "ĠWarszawie": 2340,
      "stw": 2341,
      "ĠBi": 2342,
      "Ka": 2343,
      "Ġpoe": 2344,
      "Ġczym": 2345,
      "ĠSte": 2346,
      "ĠLud": 2347,
      "ĠtworzÄħ": 2348,
      "ĠBra": 2349,
      "ĠzaleÅ¼": 2350,
      "Ġsyn": 2351,
      "Ġwier": 2352,
      "Ġ24": 2353,
      "Ġbyli": 2354,
      "wych": 2355,
      "mpa": 2356,
      "szÅĤo": 2357,
      "Ġnap": 2358,
      "ĠbezpoÅĽ": 2359,
      "Ġplane": 2360,
      "ĠwzglÄĻdem": 2361,
      "Ġzale": 2362,
      "Ġ189": 2363,
      "Ġbibli": 2364,
      "ĠroÅĽli": 2365,
      "Ġsytua": 2366,
      "ĠJoh": 2367,
      "ÅĽla": 2368,
      "Od": 2369,
      "ll": 2370,
      "ĠGru": 2371,
      "Å¼yÅĤ": 2372,
      "ĠDzie": 2373,
      "pÅĤa": 2374,
      "ĠrolÄĻ": 2375,
      "cÅĤa": 2376,
      "Ġniej": 2377,
      "cami": 2378,
      "ĠwiÄĻkszoÅĽÄĩ": 2379,
      "Ġanali": 2380,
      "21": 2381,
      "rie": 2382,
      "ĠksztaÅĤ": 2383,
      "Ġab": 2384,
      "Ġangiel": 2385,
      "ver": 2386,
      "ÄĻsto": 2387,
      "jach": 2388,
      "ĠMia": 2389,
      "ĠwspÃ³ÅĤczes": 2390,
      "Ġnapisa": 2391,
      "ĠPierw": 2392,
      "Ġarchi": 2393,
      "Ġsystemu": 2394,
      "Ġpolskiej": 2395,
      "Ġnajbardziej": 2396,
      "ĠJÃ³ze": 2397,
      "tyczÄħ": 2398,
      "rii": 2399,
      "rum": 2400,
      "sand": 2401,
      "ĠOk": 2402,
      "Ġuda": 2403,
      "tal": 2404,
      "Ġnor": 2405,
      "Ġkm": 2406,
      "Ġlata": 2407,
      "Ġmateria": 2408,
      "Ġpodzie": 2409,
      "ĠKu": 2410,
      "ĠdziaÅĤania": 2411,
      "zwy": 2412,
      "Ġzapo": 2413,
      "ĠZiemi": 2414,
      "tkÃ³w": 2415,
      "Ġhistorii": 2416,
      "Ġisto": 2417,
      "Ġlutego": 2418,
      "Ġrozwoju": 2419,
      "chro": 2420,
      "cent": 2421,
      "tan": 2422,
      "ĠÅĽrodowi": 2423,
      "owodowa": 2424,
      "ĠwÅĤadz": 2425,
      "ĠDz": 2426,
      "Ġkonstru": 2427,
      "Ġadministra": 2428,
      "Ġci": 2429,
      "cenie": 2430,
      "Ġobecnie": 2431,
      "tz": 2432,
      "ya": 2433,
      "Ġemi": 2434,
      "ĠduÅ¼y": 2435,
      "ĠwiÄĻcej": 2436,
      "ĠÐ": 2437,
      "Ġpierwsze": 2438,
      "ĠobowiÄħ": 2439,
      "Ġdzieci": 2440,
      "Ġdni": 2441,
      "ĠpojÄĻ": 2442,
      "wicz": 2443,
      "ĠAlek": 2444,
      "dzeni": 2445,
      "ros": 2446,
      "cjo": 2447,
      "ĠGda": 2448,
      "nizm": 2449,
      "okra": 2450,
      "powie": 2451,
      "Ġefek": 2452,
      "pew": 2453,
      "Historia": 2454,
      "Ġmaszy": 2455,
      "Ġludz": 2456,
      "199": 2457,
      "twar": 2458,
      "Ġopa": 2459,
      "Ġnazwy": 2460,
      "przy": 2461,
      "ĠKatowi": 2462,
      "ĠosiÄħg": 2463,
      "ĠsÅĤowa": 2464,
      "cÄĻ": 2465,
      "Ġpodob": 2466,
      "Pod": 2467,
      "Å¼ony": 2468,
      "ĠpamiÄĻ": 2469,
      "Ġsiedzi": 2470,
      "Ġkan": 2471,
      "syw": 2472,
      ".:": 2473,
      "Ġopie": 2474,
      "ĠwÅĤadzy": 2475,
      "ÅĤaszcza": 2476,
      "spa": 2477,
      "Ġ+": 2478,
      "ĠCze": 2479,
      "Ġfilm": 2480,
      "sia": 2481,
      "nikiem": 2482,
      "nienie": 2483,
      "Ġgeo": 2484,
      "Ġzada": 2485,
      "Ġzamiesz": 2486,
      "bior": 2487,
      "ĠJana": 2488,
      "Pa": 2489,
      "ĠWedÅĤug": 2490,
      "kÅĤady": 2491,
      "szczegÃ³l": 2492,
      "Ġziem": 2493,
      "tecznie": 2494,
      "Ġpodstawie": 2495,
      "Ġelektro": 2496,
      "rew": 2497,
      "chodzÄħ": 2498,
      "mer": 2499,
      "Ġwtedy": 2500,
      "Ġoprac": 2501,
      "becnie": 2502,
      "Ġzespo": 2503,
      "Ã¡": 2504,
      "ph": 2505,
      "czeÅĦstwa": 2506,
      "dnich": 2507,
      "waÅ¼niej": 2508,
      "lina": 2509,
      "ĠgdyÅ¼": 2510,
      "Ġ50": 2511,
      "twier": 2512,
      "ĠKoÅĽciÃ³ÅĤ": 2513,
      "licza": 2514,
      "lach": 2515,
      "ĠdotyczÄħ": 2516,
      "ĠwyrÃ³Å¼": 2517,
      "Ġprzede": 2518,
      "Ġliczb": 2519,
      "Ġper": 2520,
      "Ġwyraz": 2521,
      "ĠZwiÄħz": 2522,
      "Pol": 2523,
      "Â°": 2524,
      "Ġdokona": 2525,
      "Naj": 2526,
      "Ġ186": 2527,
      "ĠwystÄĻpuje": 2528,
      "ĠbÄĻdzie": 2529,
      "Ġdrugiej": 2530,
      "Ã¶": 2531,
      "Ma": 2532,
      "ĠiÅ¼": 2533,
      "cyjnego": 2534,
      "Ġobszar": 2535,
      "sÅĤo": 2536,
      "waÅĤy": 2537,
      "ĠBryta": 2538,
      "ĠOb": 2539,
      "ces": 2540,
      "lona": 2541,
      "fikowa": 2542,
      "iera": 2543,
      "lony": 2544,
      "Ġprzyro": 2545,
      "Ġjednego": 2546,
      "ĠsÅĤa": 2547,
      "ĠumoÅ¼li": 2548,
      "Ġrosyj": 2549,
      "menty": 2550,
      "Ġl": 2551,
      "Ġat": 2552,
      "ĠGre": 2553,
      "ĠwiÄĻkszoÅĽci": 2554,
      "dach": 2555,
      "Ġfunkcji": 2556,
      "ine": 2557,
      "ĠGdy": 2558,
      "Ġsiebie": 2559,
      "dne": 2560,
      "nice": 2561,
      "raca": 2562,
      "logiczne": 2563,
      "ĠtÄĻ": 2564,
      "âĢŀ": 2565,
      "Ġpolskiego": 2566,
      "dami": 2567,
      "ĠchoÄĩ": 2568,
      "wej": 2569,
      "Ġokres": 2570,
      "ĠBydgo": 2571,
      "Ã³dz": 2572,
      "Ġpoko": 2573,
      "ĠaÅ¼": 2574,
      "Ġata": 2575,
      "ĠskÅĤa": 2576,
      "ĠwyÅĤÄħ": 2577,
      "ld": 2578,
      "Ġobejmu": 2579,
      "ĠkaÅ¼dy": 2580,
      "Ġpojawi": 2581,
      "jskie": 2582,
      "kaz": 2583,
      "dyn": 2584,
      "ciel": 2585,
      "Ġdoprowa": 2586,
      "czki": 2587,
      "Ġspowodowa": 2588,
      "Ġpotrze": 2589,
      "ĠEuropy": 2590,
      "Ġodda": 2591,
      "We": 2592,
      "owcÃ³w": 2593,
      "Ġtworzy": 2594,
      "ĠAka": 2595,
      "ĠrÄĻ": 2596,
      "Ġmecha": 2597,
      "liwoÅĽÄĩ": 2598,
      "rozu": 2599,
      "Ġteorii": 2600,
      "Ġstand": 2601,
      "ĠmieÅĽcie": 2602,
      "Ġostatni": 2603,
      "Ġalbo": 2604,
      "Ġobywa": 2605,
      "Ġinte": 2606,
      "ĠmiaÅĤy": 2607,
      "koÅĽÄĩ": 2608,
      "Ġpolski": 2609,
      "rag": 2610,
      "dziaÅĤu": 2611,
      "Ġosoby": 2612,
      "ĠAleksand": 2613,
      "Ġform": 2614,
      "czyÅĤa": 2615,
      "ĠktÃ³rÄħ": 2616,
      "ĠmiÄĻdzynarod": 2617,
      "ĠsÅĤo": 2618,
      "Ġpozna": 2619,
      "cym": 2620,
      "Re": 2621,
      "ĠPÃ³ÅĤnoc": 2622,
      "Ġwybra": 2623,
      "twarza": 2624,
      "ĠSan": 2625,
      "Ġgen": 2626,
      "Ġdefini": 2627,
      "ĠChi": 2628,
      "ĠJapo": 2629,
      "Ġdnia": 2630,
      "wÄħ": 2631,
      "domo": 2632,
      "ĠJez": 2633,
      "ĠkrÃ³t": 2634,
      "Ġuni": 2635,
      "Ġjapo": 2636,
      "Ġpodwod": 2637,
      "Ġproces": 2638,
      "szenia": 2639,
      "ĠBole": 2640,
      "son": 2641,
      "Ġ22": 2642,
      "Ġlotni": 2643,
      "Ġpierwo": 2644,
      "ĠMaria": 2645,
      "Ġbisku": 2646,
      "legÅĤoÅĽci": 2647,
      "Li": 2648,
      "Ġzaw": 2649,
      "lizowa": 2650,
      "JÄĻzy": 2651,
      "ĠwystÄĻp": 2652,
      "ĠÅĤaci": 2653,
      "Ġszero": 2654,
      "ĠciÄħgu": 2655,
      "gram": 2656,
      "Ġzjawi": 2657,
      "Ġthe": 2658,
      "waÅĤa": 2659,
      "organi": 2660,
      "Ġ1939": 2661,
      "tny": 2662,
      "ĠWÅĤo": 2663,
      "cieli": 2664,
      "Ġbroni": 2665,
      "ĠdostÄĻp": 2666,
      "Ġrok": 2667,
      "Ġ23": 2668,
      "ĠkaÅ¼de": 2669,
      "ĠpÃ³ÅĤ": 2670,
      "Ġstwier": 2671,
      "wego": 2672,
      "broj": 2673,
      "ĠÃ": 2674,
      "ĠSto": 2675,
      "ĠRzeczy": 2676,
      "rzem": 2677,
      "ĠwyÅ¼": 2678,
      "Ġrzecz": 2679,
      "ĠpochodzÄħ": 2680,
      "Ġ,": 2681,
      "Ã³ry": 2682,
      "szka": 2683,
      "dzono": 2684,
      "toni": 2685,
      "Ġtrzech": 2686,
      "Ġniewiel": 2687,
      "Ġoficja": 2688,
      "Ġwynika": 2689,
      "Ġistnieje": 2690,
      "niesie": 2691,
      "dzone": 2692,
      "Ġpozwala": 2693,
      "Ġspa": 2694,
      "Ġreprezen": 2695,
      "ĠjÄĻzyki": 2696,
      "kazu": 2697,
      "Ġmas": 2698,
      "80": 2699,
      "Ġdoku": 2700,
      "czyna": 2701,
      "cjach": 2702,
      "ĠÅ¼ydow": 2703,
      "Ġwykorzysta": 2704,
      "mal": 2705,
      "jskich": 2706,
      "pla": 2707,
      "styczne": 2708,
      "23": 2709,
      "pow": 2710,
      "Ġreali": 2711,
      "ĠUSA": 2712,
      "pospolitej": 2713,
      "Åį": 2714,
      "dziÅĤa": 2715,
      "car": 2716,
      "sh": 2717,
      "Ġumie": 2718,
      "ĠBibli": 2719,
      "Ġtech": 2720,
      "rzysta": 2721,
      "miar": 2722,
      "ĠJednak": 2723,
      "waÅ¼a": 2724,
      "stry": 2725,
      "ÅĤach": 2726,
      "Ġlinii": 2727,
      "Ġkomputer": 2728,
      "ĠHu": 2729,
      "ografi": 2730,
      "ÅĦczy": 2731,
      "ĠponiewaÅ¼": 2732,
      "ĠDy": 2733,
      "onor": 2734,
      "tnych": 2735,
      "noÅĽciÄħ": 2736,
      "ĠHenry": 2737,
      "Ġ26": 2738,
      "ĠEuropie": 2739,
      "zÄĻ": 2740,
      "Ġjednej": 2741,
      "ĠzwiÄĻk": 2742,
      "kwi": 2743,
      "ĠRzeczypospolitej": 2744,
      "tow": 2745,
      "jen": 2746,
      "ĠmoÅ¼li": 2747,
      "Ġdrugi": 2748,
      "Ġkolo": 2749,
      "kowej": 2750,
      "Ġdem": 2751,
      "Ġwymaga": 2752,
      "ĠGÅĤÃ³w": 2753,
      "cznymi": 2754,
      "Ġponow": 2755,
      "Ġprzygo": 2756,
      "ĠLon": 2757,
      "mian": 2758,
      "Ġwojska": 2759,
      "mb": 2760,
      "Ġosob": 2761,
      "czeÅĦ": 2762,
      "ĠKazi": 2763,
      "Ġpolskie": 2764,
      "tkiem": 2765,
      "ĠÅĽci": 2766,
      "jaz": 2767,
      "Ġznaczenie": 2768,
      "ĠwewnÄĻtrz": 2769,
      "Ġkultury": 2770,
      "towy": 2771,
      "czona": 2772,
      "Ġeko": 2773,
      "stÄħpiÅĤ": 2774,
      "Ġwspo": 2775,
      "ĠjednÄħ": 2776,
      "spi": 2777,
      "Ġkontro": 2778,
      "torÃ³w": 2779,
      "Ġfir": 2780,
      "ego": 2781,
      "Ġdom": 2782,
      "Ġ*": 2783,
      "Ġzre": 2784,
      "rzÄĻd": 2785,
      "SR": 2786,
      "ĠrzÄħd": 2787,
      "Ġkrzy": 2788,
      "rzeÅĦ": 2789,
      "ÅĽciach": 2790,
      "Ġit": 2791,
      "togra": 2792,
      "ĠInter": 2793,
      "Ġzbudowa": 2794,
      "minu": 2795,
      "Ġswojej": 2796,
      "SD": 2797,
      "jskiego": 2798,
      "ĠprÄĻ": 2799,
      "niÄĩ": 2800,
      "Ġramach": 2801,
      "cem": 2802,
      "ĠAndrze": 2803,
      "ĠwÅĤo": 2804,
      "Ġzwo": 2805,
      "tycznej": 2806,
      "Ġtechni": 2807,
      "Ġwody": 2808,
      "Ġcharakter": 2809,
      "czono": 2810,
      "sf": 2811,
      "ĠswojÄħ": 2812,
      "gÅĤa": 2813,
      "Ġwybu": 2814,
      "Ġgrupa": 2815,
      "Ġprzedstawia": 2816,
      "Ġenergii": 2817,
      "ĠrozwiÄħza": 2818,
      "ĠEl": 2819,
      "tna": 2820,
      "torem": 2821,
      "Ġznacznie": 2822,
      "Ġmeta": 2823,
      "ĠPio": 2824,
      "ĠnajczÄĻÅĽciej": 2825,
      "Ġmieszka": 2826,
      "25": 2827,
      "cko": 2828,
      "Ġczar": 2829,
      "ĠstaroÅ¼yt": 2830,
      "Ġbia": 2831,
      "193": 2832,
      "Ġmini": 2833,
      "tona": 2834,
      "Ġboga": 2835,
      "Ġklu": 2836,
      "Ġobo": 2837,
      "Ġ28": 2838,
      "Åºnie": 2839,
      "ĠciÄĻ": 2840,
      "ownikÃ³w": 2841,
      "ortu": 2842,
      "rÄĻb": 2843,
      "ryt": 2844,
      "kla": 2845,
      "ĠposzczegÃ³l": 2846,
      "Ġfe": 2847,
      "suniÄĻ": 2848,
      "ĠEu": 2849,
      "ĠzwÅĤaszcza": 2850,
      "waj": 2851,
      "ĠukÅĤad": 2852,
      "Ġj": 2853,
      "iar": 2854,
      "ĠWin": 2855,
      "ÄħdÅº": 2856,
      "rowin": 2857,
      "ĠPola": 2858,
      "Ġhand": 2859,
      "Ġ1945": 2860,
      "ĠPoÅĤudni": 2861,
      "ĠNiemie": 2862,
      "ĠczÄħste": 2863,
      "au": 2864,
      "Ġbrytyj": 2865,
      "Ġwykony": 2866,
      "Ġzmar": 2867,
      "Ġ40": 2868,
      "Ġpochodzi": 2869,
      "Ġosie": 2870,
      "ĠTra": 2871,
      "Ġchi": 2872,
      "ĠÅ¼ycie": 2873,
      "Ġzapew": 2874,
      "cydowa": 2875,
      "Ġpapie": 2876,
      "stoÅĽci": 2877,
      "twem": 2878,
      "owia": 2879,
      "dom": 2880,
      "Ġczego": 2881,
      "):": 2882,
      "Ġzain": 2883,
      "cyjnej": 2884,
      "Ġprodukcji": 2885,
      "lor": 2886,
      "Ġdra": 2887,
      "owana": 2888,
      "Ġ27": 2889,
      "rÃ³cz": 2890,
      "Ġkraj": 2891,
      "Ġprote": 2892,
      "Ġ60": 2893,
      "Ġstan": 2894,
      "Ġhomo": 2895,
      "Ġsamego": 2896,
      "ĠzajÄĻ": 2897,
      "dznaczeni": 2898,
      "sob": 2899,
      "niesi": 2900,
      "stanty": 2901,
      "ĠNor": 2902,
      "Ġfunkcj": 2903,
      "sÅĤugi": 2904,
      "ĠKazimie": 2905,
      "Ġotwar": 2906,
      "Ġodpowiada": 2907,
      "Ġwykorzysty": 2908,
      "ckÄħ": 2909,
      "jskiej": 2910,
      "Ġrodziny": 2911,
      "Ġzakre": 2912,
      "Ġtemat": 2913,
      "ĠWÅĤady": 2914,
      "bez": 2915,
      "tycznego": 2916,
      "ĠwystÄĻpujÄħ": 2917,
      "Ġnauki": 2918,
      "Lu": 2919,
      "sla": 2920,
      "kowe": 2921,
      "Å»": 2922,
      "Ġzm": 2923,
      "Ġwojnie": 2924,
      "Ġteo": 2925,
      "Ġ29": 2926,
      "Ġkryty": 2927,
      "Ġkli": 2928,
      "Ġkoncep": 2929,
      "Ġbadania": 2930,
      "landii": 2931,
      "Ġ/": 2932,
      "Ġple": 2933,
      "wiast": 2934,
      "ÅĤowy": 2935,
      "Ġsuk": 2936,
      "ĠPary": 2937,
      "rzyÅĤ": 2938,
      "Ġeuropej": 2939,
      "ger": 2940,
      "miany": 2941,
      "ĠoÅĽrod": 2942,
      "ĠbezpoÅĽredni": 2943,
      "Ġsyste": 2944,
      "ĠÅ¼oÅĤnierzy": 2945,
      "ĠniezaleÅ¼": 2946,
      "Ġprzeciwko": 2947,
      "dniu": 2948,
      "Ġzaa": 2949,
      "ĠstaÅĤa": 2950,
      "Ġpierwszych": 2951,
      "Ġokoli": 2952,
      "ĠbadaÅĦ": 2953,
      "cznoÅĽÄĩ": 2954,
      "ĠWscho": 2955,
      "ĠHiszpa": 2956,
      "ĠZacho": 2957,
      "trzymy": 2958,
      "giem": 2959,
      "Ġrozwija": 2960,
      "ĠogÅĤo": 2961,
      "ĠPoli": 2962,
      "dziela": 2963,
      "Ġnowe": 2964,
      "ĠznajdujÄħ": 2965,
      "ref": 2966,
      "Ġcel": 2967,
      "Ġruchu": 2968,
      "Ġrodzaju": 2969,
      "ĠUniwersytetu": 2970,
      "ĠÅ¼ad": 2971,
      "ĠjeÅĽli": 2972,
      "Ġzwykle": 2973,
      "Ġmagne": 2974,
      "Ġ188": 2975,
      "Pro": 2976,
      "mentÃ³w": 2977,
      "ĪĴ": 2978,
      "Ġkier": 2979,
      "Ġprzedmio": 2980,
      "ĠPie": 2981,
      "ĠrÃ³Å¼ne": 2982,
      "Ġ1944": 2983,
      "Ġmedy": 2984,
      "ciela": 2985,
      "ĠInd": 2986,
      "jska": 2987,
      "Ġkolei": 2988,
      "ĠFrancji": 2989,
      "ĠbÄħdÅº": 2990,
      "Ġkonf": 2991,
      "ĠĠĠ": 2992,
      "ĠwÄħ": 2993,
      "Ġaktyw": 2994,
      "Ġokresu": 2995,
      "ĠNew": 2996,
      "Ġprzej": 2997,
      "Ġwalki": 2998,
      "lian": 2999,
      "Ġzapro": 3000,
      "ĠSie": 3001,
      "lum": 3002,
      "Ġfrag": 3003,
      "Ġobsza": 3004,
      "publikowa": 3005,
      "Åļ": 3006,
      "ĠzwiÄħzane": 3007,
      "ĠurzÄħ": 3008,
      "ĠKoÅĽcioÅĤa": 3009,
      "pen": 3010,
      "kacji": 3011,
      "ĠstaÅĤ": 3012,
      "Ġuczest": 3013,
      "zer": 3014,
      "Ġdal": 3015,
      "dyna": 3016,
      "wym": 3017,
      "stych": 3018,
      "ĠwÅĤad": 3019,
      "Ġbudow": 3020,
      "pres": 3021,
      "gip": 3022,
      "ĠTowarzy": 3023,
      "Ġzmien": 3024,
      "Ġparla": 3025,
      "ÅĤka": 3026,
      "Ġwsze": 3027,
      "wz": 3028,
      "Ġ187": 3029,
      "ĠpoÅĤu": 3030,
      "Ġruch": 3031,
      "SRR": 3032,
      "Ġdopiero": 3033,
      "poli": 3034,
      "sami": 3035,
      "ĠPolska": 3036,
      "Ġpojawia": 3037,
      "SZ": 3038,
      "ĠrozwÃ³j": 3039,
      "Ġjednostki": 3040,
      "ĠdowÃ³d": 3041,
      "Ġato": 3042,
      "bry": 3043,
      "Ġoku": 3044,
      "tyczny": 3045,
      "ĠczasÃ³w": 3046,
      "Ġpochodzenia": 3047,
      "ĠpoÅĤowie": 3048,
      "owaÅĤa": 3049,
      "Ġutw": 3050,
      "bio": 3051,
      "Ġpartii": 3052,
      "Ġpowia": 3053,
      "blem": 3054,
      "gdy": 3055,
      "ĠlÄħ": 3056,
      "rocÅĤa": 3057,
      "Ġ2006": 3058,
      "ĠgÅĤÄĻ": 3059,
      "Ġ21": 3060,
      "ĠMiÄĻdzy": 3061,
      "ft": 3062,
      "Ġem": 3063,
      "ĠGÃ³r": 3064,
      "Ġprawie": 3065,
      "Ġ80": 3066,
      "kÅĤadzie": 3067,
      "ĠPre": 3068,
      "ĠtÅĤuma": 3069,
      "Ġnaro": 3070,
      "owiec": 3071,
      "at": 3072,
      "ss": 3073,
      "Ġzni": 3074,
      "rysty": 3075,
      "ĠciaÅĤa": 3076,
      "ff": 3077,
      "ĠdÅº": 3078,
      "are": 3079,
      "ĠArmii": 3080,
      "owano": 3081,
      "ĠSpo": 3082,
      "ĠKrak": 3083,
      "Ġhy": 3084,
      "Ġobu": 3085,
      "szty": 3086,
      "tus": 3087,
      "ĠÅļwia": 3088,
      "ĠsiÅĤy": 3089,
      "bor": 3090,
      "pamiÄĻ": 3091,
      "tycznie": 3092,
      "Ġspotka": 3093,
      "Ġkierunku": 3094,
      "ĠciÄĻÅ¼": 3095,
      "let": 3096,
      "zwyczaj": 3097,
      "europej": 3098,
      "ol": 3099,
      "czek": 3100,
      "ĠtysiÄĻcy": 3101,
      "ĠchÅĤo": 3102,
      "ĠPolskiego": 3103,
      "Ġand": 3104,
      "ĠGene": 3105,
      "ĠnazwÄĻ": 3106,
      "gh": 3107,
      "âĢĿ)": 3108,
      "Ġsieci": 3109,
      "ĠâĨ": 3110,
      "Ġprawdopodobnie": 3111,
      ".),": 3112,
      "ĠRady": 3113,
      "Ġtrakcie": 3114,
      "ĠRP": 3115,
      "Ġfina": 3116,
      "Ġszere": 3117,
      "Â²": 3118,
      "Ġ2000": 3119,
      "rom": 3120,
      "zyj": 3121,
      "ĠnajwyÅ¼": 3122,
      "40": 3123,
      "dla": 3124,
      "czym": 3125,
      "ĠZSRR": 3126,
      "ÅĽle": 3127,
      "Ġinstytu": 3128,
      "grody": 3129,
      "ĠCzer": 3130,
      "ĠprÄĻd": 3131,
      "ĠczÅĤonkÃ³w": 3132,
      "lacja": 3133,
      "ĠprÃ³b": 3134,
      "Ġmatematy": 3135,
      "Ġ|": 3136,
      "Ġprakty": 3137,
      "Ġelektry": 3138,
      "ĠHer": 3139,
      "Ġpierwszej": 3140,
      "Ġtro": 3141,
      "Ġjas": 3142,
      "fabe": 3143,
      "Ġcentrum": 3144,
      "Pierw": 3145,
      "Ġpole": 3146,
      "Ġpolega": 3147,
      "noszÄħ": 3148,
      "ĠprzemysÅĤ": 3149,
      "Ġpodej": 3150,
      "Ġpierwszym": 3151,
      "Ġtry": 3152,
      "ĠNo": 3153,
      "ÅĦstw": 3154,
      "Ġprywa": 3155,
      "ĠobjÄĻ": 3156,
      "onar": 3157,
      "ĠroÅĽlin": 3158,
      "Ġnieu": 3159,
      "Ġ2007": 3160,
      "nda": 3161,
      "wÅĤa": 3162,
      "Ġeg": 3163,
      "ĠFor": 3164,
      "mem": 3165,
      "tkowa": 3166,
      "Ġprzyzna": 3167,
      "dzeÅĦ": 3168,
      "Ġpsycho": 3169,
      "czyz": 3170,
      "ÅĽwiad": 3171,
      "Ġkompozy": 3172,
      "Ġpli": 3173,
      "nal": 3174,
      "ĠwyÅĤÄħcznie": 3175,
      "Ġizo": 3176,
      "wano": 3177,
      "czyn": 3178,
      "Ġnajmniej": 3179,
      "teresowa": 3180,
      "Ġpoje": 3181,
      "Ġkomi": 3182,
      "ĠDla": 3183,
      "ĠGra": 3184,
      "ĠokrÄĻtÃ³w": 3185,
      "ĠporÃ³w": 3186,
      "dzony": 3187,
      "ĠAfry": 3188,
      "Ġorganizacji": 3189,
      "ĠpoÅĽwiÄĻ": 3190,
      "ownik": 3191,
      "ĠprzeÅĤo": 3192,
      "Ġkos": 3193,
      "ĠmiaÅĤo": 3194,
      "ĠkrÃ³la": 3195,
      "Ġgenera": 3196,
      "ĠotrzymaÅĤ": 3197,
      "ĠpoglÄħ": 3198,
      "Ġ(âĢŀ": 3199,
      "ĠAda": 3200,
      "ĠÅĽredniowie": 3201,
      "Ġkomunika": 3202,
      "60": 3203,
      "ĠÎ": 3204,
      "Ġkro": 3205,
      "ÅĤoÅĽÄĩ": 3206,
      "ĠNSZ": 3207,
      "nÄħÄĩ": 3208,
      "unda": 3209,
      "ĠsÅĤuÅ¼": 3210,
      "Å¼ona": 3211,
      "wili": 3212,
      "Ġznajdowa": 3213,
      "trum": 3214,
      "ĠkoÅĦca": 3215,
      "ĠâĨĴ": 3216,
      "pÃ³w": 3217,
      "Ġprzewodni": 3218,
      "int": 3219,
      "ĠPolskiej": 3220,
      "ĠKaro": 3221,
      "Ġ70": 3222,
      "Ġtransp": 3223,
      "ks": 3224,
      "Ġopublikowa": 3225,
      "ĠdoszÅĤo": 3226,
      "ĠTu": 3227,
      "ownika": 3228,
      "czno": 3229,
      "ĠBia": 3230,
      "Ġcyk": 3231,
      "kazaÅĤ": 3232,
      "cyjna": 3233,
      "ĠRepubli": 3234,
      "ĠszczegÃ³lnie": 3235,
      "zwa": 3236,
      "Ġswoim": 3237,
      "ĠmÄĻÅ¼": 3238,
      "Ġopi": 3239,
      "com": 3240,
      "ĠsobÄħ": 3241,
      "nowaÅĤ": 3242,
      "biega": 3243,
      "Ġoce": 3244,
      "Ġznalaz": 3245,
      "siÄĻbior": 3246,
      "ĠduÅ¼e": 3247,
      "Ã¤": 3248,
      "strzy": 3249,
      "turze": 3250,
      "towaÅĤ": 3251,
      "gÃ³": 3252,
      "Ġopisa": 3253,
      "Ġwybo": 3254,
      "Ġprzyby": 3255,
      "ĠIV": 3256,
      "moc": 3257,
      "ÅĤÃ³": 3258,
      "kol": 3259,
      "Ġzmiany": 3260,
      "ĠumoÅ¼liwia": 3261,
      "Uro": 3262,
      "zwo": 3263,
      "ĠAng": 3264,
      "ĠPonad": 3265,
      "Ġproto": 3266,
      "mencie": 3267,
      "szoÅĽÄĩ": 3268,
      "ntÃ³w": 3269,
      "Ġorganiza": 3270,
      "ĠMicha": 3271,
      "ĠkrÃ³l": 3272,
      "Ġbudy": 3273,
      "Ġwersji": 3274,
      "ÅĤami": 3275,
      "Ġdrze": 3276,
      "Ġrozu": 3277,
      "jÄħcymi": 3278,
      "Ġprowin": 3279,
      "ĠWal": 3280,
      "west": 3281,
      "ĠWielkiej": 3282,
      "Sta": 3283,
      "Ġran": 3284,
      "sud": 3285,
      "Ġczasem": 3286,
      "Ġswojego": 3287,
      "ĠzwyciÄĻ": 3288,
      "Ġsubstan": 3289,
      "ĠposÅĤu": 3290,
      "wnÄħ": 3291,
      "Ġbe": 3292,
      "towe": 3293,
      "ĠChry": 3294,
      "Ġformy": 3295,
      "ĠiloÅĽci": 3296,
      "kow": 3297,
      "cio": 3298,
      "Ġastro": 3299,
      "krotnie": 3300,
      "ĠPart": 3301,
      "ĠciÄħg": 3302,
      "--": 3303,
      "it": 3304,
      "Ġsko": 3305,
      "tyki": 3306,
      "bert": 3307,
      "ÅĤsud": 3308,
      "Ġsen": 3309,
      "tyczna": 3310,
      "ĠKana": 3311,
      "ĠAugu": 3312,
      "dii": 3313,
      "Ġpierwiast": 3314,
      "Ġterytorium": 3315,
      "dniego": 3316,
      "ĠNiemcy": 3317,
      "ĠwÄĻgla": 3318,
      "Ġobserwa": 3319,
      "Ġznale": 3320,
      "ĠByÅĤ": 3321,
      "NA": 3322,
      "ĠjednoczeÅĽnie": 3323,
      "Cz": 3324,
      "gre": 3325,
      "Ġprzezna": 3326,
      "ĠAkade": 3327,
      "pote": 3328,
      "Ġzdecydowa": 3329,
      "tuje": 3330,
      "Å¼eli": 3331,
      "Ġmone": 3332,
      "Ġpowy": 3333,
      "ĠprzeksztaÅĤ": 3334,
      "ĠIz": 3335,
      "Ġgrani": 3336,
      "Ġponownie": 3337,
      "Ġzd": 3338,
      "ĠpowoÅĤa": 3339,
      "Ġgwiazd": 3340,
      "Ġki": 3341,
      "owaÅĤy": 3342,
      "ĠnajwaÅ¼niej": 3343,
      "Ġmusi": 3344,
      "ÃŃ": 3345,
      "Ġchoro": 3346,
      "WedÅĤug": 3347,
      "koÅĤa": 3348,
      "ĠokreÅĽlo": 3349,
      "Ġepo": 3350,
      "ĠliczbÄĻ": 3351,
      "ĠXVIII": 3352,
      "owiÄħza": 3353,
      "Ġmiejscu": 3354,
      "Ġ2010": 3355,
      "Ð°": 3356,
      "198": 3357,
      "ĠkrÃ³le": 3358,
      "zÃ³w": 3359,
      "ÅĦskÄħ": 3360,
      "ĠTur": 3361,
      "ĠwiÄħza": 3362,
      "mawia": 3363,
      "ĠKrakÃ³w": 3364,
      "Ġniepod": 3365,
      "porzÄħd": 3366,
      "Ġorbi": 3367,
      "twy": 3368,
      "Ġodw": 3369,
      "ÅĦcu": 3370,
      "ĠNauk": 3371,
      "ĠuÅ¼ytk": 3372,
      "ĠdÅĤugoÅĽci": 3373,
      "Ð¾": 3374,
      "ĠrÃ³wno": 3375,
      "ralne": 3376,
      "Ġliczne": 3377,
      "byt": 3378,
      "Ġszla": 3379,
      "ĠmÃ³wi": 3380,
      "skry": 3381,
      "rzÄĻdu": 3382,
      "Ġkonfli": 3383,
      "Ja": 3384,
      "nom": 3385,
      "Ġ000": 3386,
      "dostÄĻp": 3387,
      "ĠspÃ³ÅĤ": 3388,
      "owanych": 3389,
      "wicza": 3390,
      "Ġhu": 3391,
      "Ġreligii": 3392,
      "ĠKali": 3393,
      "ĠWydaw": 3394,
      "et": 3395,
      "mon": 3396,
      "sona": 3397,
      "Ġformie": 3398,
      "ĠPowsta": 3399,
      "chow": 3400,
      "ĠwokÃ³ÅĤ": 3401,
      "ÅĦstwie": 3402,
      "ĠOrder": 3403,
      "Ġrazem": 3404,
      "grup": 3405,
      "Ã³sÅĤ": 3406,
      "cyfi": 3407,
      "Ġprzesz": 3408,
      "wiek": 3409,
      "Ġpierwszego": 3410,
      "Ġdw": 3411,
      "ĠmaÅĤ": 3412,
      "jusz": 3413,
      "ĠStanisÅĤaw": 3414,
      "rona": 3415,
      "ĠKor": 3416,
      "nale": 3417,
      "trzymu": 3418,
      "dzeniu": 3419,
      "ĠXVI": 3420,
      "Ġ2004": 3421,
      "Ġrozsze": 3422,
      "197": 3423,
      "Ġzawsze": 3424,
      "Ã³z": 3425,
      "para": 3426,
      "Ġpodobnie": 3427,
      "Ġewolu": 3428,
      "ĠkomÃ³r": 3429,
      "Ġskrzy": 3430,
      "Ã³gÅĤ": 3431,
      "dle": 3432,
      "ĠStar": 3433,
      "Ġmiesza": 3434,
      "towania": 3435,
      "Ġgrafi": 3436,
      "ĠcÃ³r": 3437,
      "Ġhiszpa": 3438,
      "ĠPonadto": 3439,
      "24": 3440,
      "ĠPrzed": 3441,
      "Ġziemi": 3442,
      "ĠPiÅĤsud": 3443,
      "Ġsprawie": 3444,
      "ĠPru": 3445,
      "Ġpromieni": 3446,
      "towane": 3447,
      "Ġzapa": 3448,
      "Ġwypo": 3449,
      "Ġarmii": 3450,
      "Ġ2005": 3451,
      "Ġvon": 3452,
      "Ġwybrze": 3453,
      "Ba": 3454,
      "Ġsce": 3455,
      "Ġan": 3456,
      "Ġbibliote": 3457,
      "jmowa": 3458,
      "Ġdwo": 3459,
      "metry": 3460,
      "Ġdziel": 3461,
      "Ġzmienia": 3462,
      "Ġopisu": 3463,
      "kazywa": 3464,
      "rÃ³ciÅĤ": 3465,
      "ĠmoÅ¼liwoÅĽci": 3466,
      "Ġsztuki": 3467,
      "kolwiek": 3468,
      "owali": 3469,
      "ĠzarzÄħ": 3470,
      "serw": 3471,
      "Ġprowadzi": 3472,
      "ĠSÄħ": 3473,
      "Odznaczeni": 3474,
      "ĠÃ³w": 3475,
      "roz": 3476,
      "ĠdokÅĤad": 3477,
      "siej": 3478,
      "Ġradzie": 3479,
      "ĠwielkoÅĽci": 3480,
      "Sz": 3481,
      "br": 3482,
      "kowych": 3483,
      "Ġzwa": 3484,
      "ĠwyjÄħ": 3485,
      "ĠSch": 3486,
      "gan": 3487,
      "kowane": 3488,
      "ĠBrytanii": 3489,
      "towych": 3490,
      "ĠÂ": 3491,
      "Ġwczes": 3492,
      "nicÄĻ": 3493,
      "Ġcesarza": 3494,
      "Ġogro": 3495,
      "Ġobli": 3496,
      "ĠpowstaÅĤ": 3497,
      "Ġkultur": 3498,
      "Ge": 3499,
      "nes": 3500,
      "ĠRÃ³w": 3501,
      "czyli": 3502,
      "Ġproblem": 3503,
      "ĠdziÅĽ": 3504,
      "Ġcu": 3505,
      "ĠwÅĤÄħ": 3506,
      "stria": 3507,
      "ÅĤac": 3508,
      "Ġodrzu": 3509,
      "ĠskÅĤadni": 3510,
      "Sy": 3511,
      "Ġkapi": 3512,
      "Ġnowych": 3513,
      "Ġpowin": 3514,
      "Ġ2002": 3515,
      "ĠpaÅĦstwo": 3516,
      "Ġinformacji": 3517,
      "krÃ³t": 3518,
      "oÅĤ": 3519,
      "Ġtowarzy": 3520,
      "erma": 3521,
      "ĠStanÃ³w": 3522,
      "stÄħpie": 3523,
      "starcza": 3524,
      "nicja": 3525,
      "tak": 3526,
      "Å¼yÄĩ": 3527,
      "cyjnym": 3528,
      "lie": 3529,
      "trza": 3530,
      "stnia": 3531,
      "Ġdek": 3532,
      "wÄĻ": 3533,
      "niami": 3534,
      "Ġsyna": 3535,
      "ralnego": 3536,
      "ĠwartoÅĽÄĩ": 3537,
      "dÅĤuÅ¼": 3538,
      "zÄħ": 3539,
      "ĠPer": 3540,
      "Ġpolskim": 3541,
      "Ġzgodnie": 3542,
      "uje": 3543,
      "Ġrza": 3544,
      "ĠMon": 3545,
      "Ġmiast": 3546,
      "czÄħcy": 3547,
      "195": 3548,
      "Ġinterpre": 3549,
      "Ġoba": 3550,
      "Ġkana": 3551,
      "towany": 3552,
      "ntro": 3553,
      "ĠSÅĤoÅĦca": 3554,
      "dowy": 3555,
      "Ġpotwier": 3556,
      "torzy": 3557,
      "skiem": 3558,
      "owoÅĽÄĩ": 3559,
      "stawi": 3560,
      "lla": 3561,
      "Ġ183": 3562,
      "tnej": 3563,
      "Ġwyd": 3564,
      "ĠSer": 3565,
      "ĠEd": 3566,
      "Ġmiejsca": 3567,
      "ĠwysokoÅĽci": 3568,
      "niÄĻcia": 3569,
      "dnoÅĽci": 3570,
      "ly": 3571,
      "sca": 3572,
      "Ġuli": 3573,
      "szek": 3574,
      "Ġnajlep": 3575,
      "ĠczÄħst": 3576,
      "mp": 3577,
      "Ġbrak": 3578,
      "woÅĽci": 3579,
      "Ġjedna": 3580,
      "Ġjednostek": 3581,
      "niÃ³sÅĤ": 3582,
      "Ġban": 3583,
      "ĠukÅĤadu": 3584,
      "Ġwido": 3585,
      "Å»y": 3586,
      "wnÄħtrz": 3587,
      "bel": 3588,
      "ĠQ": 3589,
      "Ġzu": 3590,
      "Ġzbli": 3591,
      "Ġproble": 3592,
      "ĠniektÃ³re": 3593,
      "ÅĽciu": 3594,
      "ĠcaÅĤej": 3595,
      "ĠdziaÅĤaÅĦ": 3596,
      "fikacji": 3597,
      "ĠPan": 3598,
      "Ġrodzin": 3599,
      "ĠKonstanty": 3600,
      "ĠzaleÅ¼noÅĽci": 3601,
      "ĠreÅ¼y": 3602,
      "ĠpotÄĻ": 3603,
      "doeuropej": 3604,
      "ĠGali": 3605,
      "ĠmiesiÄħ": 3606,
      "logicznych": 3607,
      "Ġopowiada": 3608,
      "landz": 3609,
      "sÅĤy": 3610,
      "ret": 3611,
      "ĠBru": 3612,
      "Ġmode": 3613,
      "ĠNastÄĻp": 3614,
      "Ġ2001": 3615,
      "groma": 3616,
      "Ġprawdzi": 3617,
      "Ġpy": 3618,
      "rego": 3619,
      "ciele": 3620,
      "ĠpowstaÅĤa": 3621,
      "ĠpamiÄĻci": 3622,
      "Ludzie": 3623,
      "Zmar": 3624,
      "izm": 3625,
      "dal": 3626,
      "mieniu": 3627,
      "Ġmocy": 3628,
      "os": 3629,
      "lono": 3630,
      "Ġepi": 3631,
      "derem": 3632,
      "Mo": 3633,
      "Ġzbroj": 3634,
      "Ġnag": 3635,
      "Ġ31": 3636,
      "ĠGeor": 3637,
      "gno": 3638,
      "jaw": 3639,
      "rÃ³ci": 3640,
      "Ġkrajach": 3641,
      "ĠsiÅĤ": 3642,
      "ĠCentrum": 3643,
      "Te": 3644,
      "gli": 3645,
      "ejm": 3646,
      "que": 3647,
      "bezpie": 3648,
      "27": 3649,
      "mienie": 3650,
      "Ġcech": 3651,
      "Ġdzien": 3652,
      "Ġ90": 3653,
      "Ġdiale": 3654,
      "dna": 3655,
      "ÅĦcÃ³w": 3656,
      "Ġcoraz": 3657,
      "Ġalfabe": 3658,
      "Ġsprzeda": 3659,
      "kowy": 3660,
      "pl": 3661,
      "uka": 3662,
      "Ġpobli": 3663,
      "Ġzazwyczaj": 3664,
      "Ġrobo": 3665,
      "ĠEn": 3666,
      "miu": 3667,
      "ĠCha": 3668,
      "ĠBoga": 3669,
      "ĠCzÄĻsto": 3670,
      "ĠzwiÄħzkÃ³w": 3671,
      "Ġstopniu": 3672,
      "Å¼eniu": 3673,
      "dnim": 3674,
      "ĠpierwszÄħ": 3675,
      "skona": 3676,
      "ĠÅĽwiÄħ": 3677,
      "Å¼onych": 3678,
      "czka": 3679,
      "Ġopu": 3680,
      "Ġtemu": 3681,
      "ĠCar": 3682,
      "Ġkonstytu": 3683,
      "Ġzbior": 3684,
      "ĠrzÄħdu": 3685,
      "nowie": 3686,
      "lim": 3687,
      "kuje": 3688,
      "ĠOl": 3689,
      "owiem": 3690,
      "ĠMiÄĻdzynarod": 3691,
      "Ra": 3692,
      "Ġzmniej": 3693,
      "mana": 3694,
      "dol": 3695,
      "don": 3696,
      "ĠJor": 3697,
      "ĠprzedsiÄĻbior": 3698,
      "ĠszkoÅĤy": 3699,
      "Ġkontynu": 3700,
      "lizm": 3701,
      "ĠSp": 3702,
      "Ġkome": 3703,
      "Ġmasy": 3704,
      "stego": 3705,
      "ĠmoÅ¼liwoÅĽÄĩ": 3706,
      "ĠInstytu": 3707,
      "Ġpomocy": 3708,
      "Ġzalicza": 3709,
      "Ġkorzysta": 3710,
      "lon": 3711,
      "ĠSzwe": 3712,
      "ower": 3713,
      "ĠBel": 3714,
      "Ġstref": 3715,
      "ĠdziaÅĤalnoÅĽci": 3716,
      "Kon": 3717,
      "brze": 3718,
      "Ġ2009": 3719,
      "ĠDi": 3720,
      "ĠrozpoczÄħÅĤ": 3721,
      "mowy": 3722,
      "ĠWrocÅĤa": 3723,
      "Ġteor": 3724,
      "ĠwÅĤaÅĽnie": 3725,
      "ĠJÃ³zef": 3726,
      "28": 3727,
      "Ðµ": 3728,
      "ĠdoÅĽwiad": 3729,
      "cyjnÄħ": 3730,
      "Ġpoch": 3731,
      "ted": 3732,
      "dania": 3733,
      "padku": 3734,
      "Ġatmo": 3735,
      "goryt": 3736,
      "niejszych": 3737,
      "soby": 3738,
      "Ġ2008": 3739,
      "ĠtwÃ³rczo": 3740,
      "Ġprzemy": 3741,
      "ĠKi": 3742,
      "czyÅĤy": 3743,
      "ĠFranci": 3744,
      "ĠswÃ³j": 3745,
      "feren": 3746,
      "Ġstronie": 3747,
      "Ġzainteresowa": 3748,
      "ctwa": 3749,
      "Ġzy": 3750,
      "Ġzmieni": 3751,
      "Ġimi": 3752,
      "gina": 3753,
      "Ġprzysz": 3754,
      "ĠOsta": 3755,
      "Ġ2011": 3756,
      "ĠzbiÃ³r": 3757,
      "rad": 3758,
      "ĠmÃ³gÅĤ": 3759,
      "ĠdzieÅĤa": 3760,
      "Ġreakcji": 3761,
      "rzone": 3762,
      "miny": 3763,
      "Ġpodpisa": 3764,
      "Ġinstru": 3765,
      "stycznych": 3766,
      "miana": 3767,
      "Ġ[]": 3768,
      "peÅĤnia": 3769,
      "Ġpojedyn": 3770,
      "Ġzorgani": 3771,
      "Ġoto": 3772,
      "Ġochro": 3773,
      "Ġtre": 3774,
      "Ġszczy": 3775,
      "ĠjÄĻzykiem": 3776,
      "ĠksiÄħÅ¼ÄĻ": 3777,
      "29": 3778,
      "wienia": 3779,
      "ĠDem": 3780,
      "Ġwiek": 3781,
      "wencji": 3782,
      "ĠNiemiec": 3783,
      "De": 3784,
      "ĠuwagÄĻ": 3785,
      "Ġuch": 3786,
      "Ġwyja": 3787,
      "nÄĻÅĤa": 3788,
      "ralnej": 3789,
      "kowi": 3790,
      "godnie": 3791,
      "Mia": 3792,
      "ÅĤowi": 3793,
      "rodek": 3794,
      "liza": 3795,
      "dera": 3796,
      "bywa": 3797,
      "lecia": 3798,
      "ĠMan": 3799,
      "deÅĤ": 3800,
      "Ġcesar": 3801,
      "Ġczasach": 3802,
      "ĠpowstaÅĤy": 3803,
      "Ġprogramu": 3804,
      "ĠAkademii": 3805,
      "lno": 3806,
      "ĠUnii": 3807,
      "Ġpomoc": 3808,
      "ĠLin": 3809,
      "ĠFil": 3810,
      "196": 3811,
      "szczenia": 3812,
      "ĠTade": 3813,
      "ĠWielko": 3814,
      "Ġwszel": 3815,
      "krzy": 3816,
      "seksual": 3817,
      "ĠÅ»ydÃ³w": 3818,
      "ĠKomite": 3819,
      "jskim": 3820,
      "Åºni": 3821,
      "Ġnajstar": 3822,
      "ĠLeonar": 3823,
      "nast": 3824,
      "Ġofia": 3825,
      "owaniu": 3826,
      "znaw": 3827,
      "ĠrÃ³wna": 3828,
      "ĠdziaÅĤalnoÅĽÄĩ": 3829,
      "ĠfunkcjÄĻ": 3830,
      "Ġfilozofii": 3831,
      "Ġzakresie": 3832,
      "Urodzeni": 3833,
      "ĠwÄĻ": 3834,
      "ĠCzar": 3835,
      "PR": 3836,
      "ĠpeÅĤni": 3837,
      "Ġhipote": 3838,
      "ĠelementÃ³w": 3839,
      "Ġwyborach": 3840,
      "Le": 3841,
      "Ġwnio": 3842,
      "nera": 3843,
      "mimo": 3844,
      "Ġam": 3845,
      "Ġcztery": 3846,
      "Ġtaki": 3847,
      "Ġmikro": 3848,
      "Ġ2014": 3849,
      "Ġkontyne": 3850,
      "Zmarli": 3851,
      "Ġpotem": 3852,
      "aru": 3853,
      "Ġkatego": 3854,
      "Ġbezpie": 3855,
      "Ġliteratury": 3856,
      "Ġodbywa": 3857,
      "plo": 3858,
      "Ġpopar": 3859,
      "Ġzau": 3860,
      "Ġzagro": 3861,
      "Ġodci": 3862,
      "emu": 3863,
      "ĠpodjÄĻ": 3864,
      "Ġrela": 3865,
      "niejsze": 3866,
      "Ġfilozofi": 3867,
      "Ġwio": 3868,
      "str": 3869,
      "Ġkur": 3870,
      "woli": 3871,
      "szedÅĤ": 3872,
      "wange": 3873,
      "Ġobywate": 3874,
      "ura": 3875,
      "czeniem": 3876,
      "ĠpowieÅĽci": 3877,
      "Ġ2012": 3878,
      "Ġsukce": 3879,
      "ĠCzerwo": 3880,
      "zjÄĻ": 3881,
      "skÄĻ": 3882,
      "miÄħ": 3883,
      "kcje": 3884,
      "âĪĴ": 3885,
      "Ġher": 3886,
      "ciÄħga": 3887,
      "ktÃ³re": 3888,
      "ĠXVII": 3889,
      "tektu": 3890,
      "ĠHar": 3891,
      "26": 3892,
      "dzona": 3893,
      "Ġbowiem": 3894,
      "grafi": 3895,
      "ĠOrderem": 3896,
      "noty": 3897,
      "Ġflo": 3898,
      "Ġrej": 3899,
      "Ġdlatego": 3900,
      ".).": 3901,
      "Ar": 3902,
      "lta": 3903,
      "lizacji": 3904,
      "ĠSzcze": 3905,
      "Ġartyku": 3906,
      "ĠWielkopol": 3907,
      "gÅĤy": 3908,
      "wagi": 3909,
      "Å¼em": 3910,
      "iÄĻkszoÅĽÄĩ": 3911,
      "tla": 3912,
      "tnego": 3913,
      "Ġtor": 3914,
      "dyda": 3915,
      "zach": 3916,
      "Ġchro": 3917,
      "ĠKraj": 3918,
      "Ġmin": 3919,
      "Ġet": 3920,
      "ĠEgip": 3921,
      "Ġ184": 3922,
      "ĠRzesz": 3923,
      "ĠwywoÅĤa": 3924,
      "ĠwÅĤadzÄĻ": 3925,
      "krÃ³tce": 3926,
      "matu": 3927,
      "nuje": 3928,
      "ĠVi": 3929,
      "oli": 3930,
      "ĠznakÃ³w": 3931,
      "ĠgÅĤÃ³wnych": 3932,
      "ĠpoczÄħtkowo": 3933,
      "Ġsytuacji": 3934,
      "tnia": 3935,
      "Ġistnia": 3936,
      "Ġprzyja": 3937,
      "ĠPodczas": 3938,
      "ĠksiÄĻcia": 3939,
      "Ġszybko": 3940,
      "Å¼na": 3941,
      "tacja": 3942,
      "ĠRzymu": 3943,
      "ĠobowiÄħz": 3944,
      "ĠObecnie": 3945,
      "ĠdzieÅĦ": 3946,
      "Ġblo": 3947,
      "prawy": 3948,
      "hu": 3949,
      "Ġiden": 3950,
      "ĠKultu": 3951,
      "ktry": 3952,
      "ralny": 3953,
      "Ġkobiet": 3954,
      "gnie": 3955,
      "Ġuz": 3956,
      "dzeniem": 3957,
      "dobie": 3958,
      "Ġindy": 3959,
      "ĠSamo": 3960,
      "ĠwyrÃ³Å¼nia": 3961,
      "Ġude": 3962,
      "Ġpowstanie": 3963,
      "ĠposzczegÃ³lnych": 3964,
      "lowe": 3965,
      "ĠStro": 3966,
      "perium": 3967,
      "Ġgwiazdy": 3968,
      "ĠmyÅĽli": 3969,
      "Ġstopni": 3970,
      "ĠGdaÅĦ": 3971,
      "Ġlogi": 3972,
      "Ġzagrani": 3973,
      "matyczne": 3974,
      "ĠAK": 3975,
      "Ġprzestrzeni": 3976,
      "ĠciÅĽnie": 3977,
      "Å¼sa": 3978,
      "ĠMary": 3979,
      "rusza": 3980,
      "Ġnigdy": 3981,
      "%,": 3982,
      "OS": 3983,
      "liny": 3984,
      "szymi": 3985,
      "Ġkonku": 3986,
      "Ġ180": 3987,
      "Ġpolska": 3988,
      "ĠRosji": 3989,
      "Ġmetody": 3990,
      "Ġsymboli": 3991,
      "Ġitp": 3992,
      "Ġkr": 3993,
      "ĠniÄħ": 3994,
      "dowania": 3995,
      "Ġsocja": 3996,
      "ĠwyraÅ¼a": 3997,
      "Ġniebie": 3998,
      "Ġstosunku": 3999,
      "Ġobszarze": 4000,
      "Ġsan": 4001,
      "Ġdi": 4002,
      "ÅĽwiÄĻ": 4003,
      "rzÄħt": 4004,
      "stej": 4005,
      "dows": 4006,
      "ĠÅģa": 4007,
      "JÄĻzyki": 4008,
      "gres": 4009,
      "noni": 4010,
      "szczenie": 4011,
      "Ġstron": 4012,
      "ĠOrgani": 4013,
      "szuki": 4014,
      "ĠtytuÅĤ": 4015,
      "snÄħ": 4016,
      "Ġbrze": 4017,
      "Ġeta": 4018,
      "choty": 4019,
      "Ġstara": 4020,
      "Ġdzisiej": 4021,
      "ntropo": 4022,
      "Ġspi": 4023,
      "Ġutra": 4024,
      "ĠZy": 4025,
      "Ġpodda": 4026,
      "wÃ³d": 4027,
      "ĠAndrzej": 4028,
      "La": 4029,
      "lip": 4030,
      "owaÅĤo": 4031,
      "dziÅĤo": 4032,
      "Ġoka": 4033,
      "Ġkwest": 4034,
      "Ġpierwsza": 4035,
      "Ġwiadomo": 4036,
      "Ġprezydenta": 4037,
      "nin": 4038,
      "rucho": 4039,
      "ĠOp": 4040,
      "Ġwej": 4041,
      "ct": 4042,
      "ĠSza": 4043,
      "mami": 4044,
      "duje": 4045,
      "Ġ185": 4046,
      "ĠMini": 4047,
      "ĠnaleÅ¼a": 4048,
      "bÃ³j": 4049,
      "tnÄħ": 4050,
      "Ġniemal": 4051,
      "Ġmacie": 4052,
      "wedz": 4053,
      "zujÄħ": 4054,
      "ĠcaÅĤy": 4055,
      "Ġtrakt": 4056,
      "Ġkolejnych": 4057,
      "Ġostatecznie": 4058,
      "ĠdowÃ³dz": 4059,
      "Mi": 4060,
      "dowo": 4061,
      "liÄĩ": 4062,
      "ĠDru": 4063,
      "formu": 4064,
      "ktual": 4065,
      "ĠzwierzÄħt": 4066,
      "Ġ2015": 4067,
      "ĠokrÄĻtu": 4068,
      "Ġelementy": 4069,
      "vo": 4070,
      "ĠpodziaÅĤ": 4071,
      "ciej": 4072,
      "Ġmono": 4073,
      "ĠKrakowie": 4074,
      "kniÄĻ": 4075,
      "ĠsamogÅĤo": 4076,
      "ĠpostaÄĩ": 4077,
      "Ġfilozof": 4078,
      "Ġnadal": 4079,
      "wskiej": 4080,
      "linie": 4081,
      "rzego": 4082,
      "ciaÅ¼": 4083,
      "Ġstoli": 4084,
      "porzÄħdkowa": 4085,
      "bin": 4086,
      "Ġ1999": 4087,
      "ĠuÅ¼ywane": 4088,
      "ĠgÅĤÄĻbo": 4089,
      "Ġarab": 4090,
      "Ġmimo": 4091,
      "tychczas": 4092,
      "ĠnazwÄħ": 4093,
      "ĠBydgoszczy": 4094,
      "kres": 4095,
      "taj": 4096,
      "wienie": 4097,
      "ĠkoÅĦcu": 4098,
      "om": 4099,
      "Ġzabi": 4100,
      "wiÅĤ": 4101,
      "Ġrewolu": 4102,
      "Ġgeografi": 4103,
      "fr": 4104,
      "sbur": 4105,
      "skar": 4106,
      "ĠStu": 4107,
      "Ġniepo": 4108,
      "ĠÅĽre": 4109,
      "ĠbezpoÅĽrednio": 4110,
      "ĠÃ³wczes": 4111,
      "bÃ³r": 4112,
      "Ġkul": 4113,
      "ĠupamiÄĻ": 4114,
      "ĠCon": 4115,
      "Ġmoc": 4116,
      "Ġznane": 4117,
      "ĠmieÄĩ": 4118,
      "ĠÅĽwiad": 4119,
      "Ġinicja": 4120,
      "terze": 4121,
      "Ġode": 4122,
      "Ġprofe": 4123,
      "Ġ2003": 4124,
      "zowane": 4125,
      "Ġniemieckich": 4126,
      "Ġczele": 4127,
      "Ġprace": 4128,
      "Ġkata": 4129,
      "ĠwÅĤadze": 4130,
      "Ġnazwi": 4131,
      "ĠPark": 4132,
      "Me": 4133,
      "owaÅ¼": 4134,
      "Ġkonta": 4135,
      "Ġopiera": 4136,
      "ciec": 4137,
      "czycy": 4138,
      "Ġmito": 4139,
      "Ġ1940": 4140,
      "Ġstuden": 4141,
      "ĠBibliote": 4142,
      "ĠporÃ³wna": 4143,
      "tnym": 4144,
      "Ġpta": 4145,
      "waniu": 4146,
      "Ġkonsu": 4147,
      "ĠcaÅĤkowicie": 4148,
      "ktora": 4149,
      "chan": 4150,
      "tycznym": 4151,
      "towanie": 4152,
      "lkoho": 4153,
      "Ġtradycji": 4154,
      "ĠukoÅĦ": 4155,
      "Ġrazy": 4156,
      "Ġparty": 4157,
      "Ġdie": 4158,
      "Ġobok": 4159,
      "Ġliter": 4160,
      "cjami": 4161,
      "towano": 4162,
      "Ġdodatk": 4163,
      "pierw": 4164,
      "gal": 4165,
      "ĠFre": 4166,
      "ĠÅĽmierÄĩ": 4167,
      "schÃ³d": 4168,
      "strowa": 4169,
      "tero": 4170,
      "Ġnowego": 4171,
      "mes": 4172,
      "ĠwspÃ³ÅĤpra": 4173,
      "wzglÄĻ": 4174,
      "die": 4175,
      "Ġpokry": 4176,
      "ĠAzji": 4177,
      "Ġstandard": 4178,
      "ĠIm": 4179,
      "anta": 4180,
      "czÄħtkowo": 4181,
      "Ġsamej": 4182,
      "Ġcesarz": 4183,
      "ĠudaÅĤo": 4184,
      "iny": 4185,
      "rzony": 4186,
      "Ġmis": 4187,
      "Ġroli": 4188,
      "Ġcelem": 4189,
      "Ġdane": 4190,
      "Ġlek": 4191,
      "ĠÅĽwiatÅĤa": 4192,
      "Ġzasady": 4193,
      "Ġseksual": 4194,
      "Ġpisma": 4195,
      "%.": 4196,
      "ÅĤty": 4197,
      "Ġkre": 4198,
      "ĠwysÅĤa": 4199,
      "kierowa": 4200,
      "ĠrzeczywistoÅĽci": 4201,
      "tre": 4202,
      "ĠodrÄĻb": 4203,
      "ĠOs": 4204,
      "ezo": 4205,
      "Ġstopnia": 4206,
      "Ġosobi": 4207,
      "...": 4208,
      "Ġzajmuje": 4209,
      "wajcar": 4210,
      "Ġwyposa": 4211,
      "leo": 4212,
      "dziÅĤy": 4213,
      "nka": 4214,
      "pt": 4215,
      "Ġzmu": 4216,
      "ĠHit": 4217,
      "Ġsynte": 4218,
      "90": 4219,
      "nizmu": 4220,
      "Ġdomu": 4221,
      "ĠzespÃ³ÅĤ": 4222,
      "ralnych": 4223,
      "chnia": 4224,
      "tes": 4225,
      "Ġjaki": 4226,
      "Ġ2018": 4227,
      "Ġare": 4228,
      "ĠWojcie": 4229,
      "Ġprojektu": 4230,
      "mowaÅĤ": 4231,
      "Ð¸": 4232,
      "chowa": 4233,
      "Ġpozycji": 4234,
      "ĠmoÅ¼liwe": 4235,
      "Ga": 4236,
      "Ġsur": 4237,
      "waÅĤo": 4238,
      "Ġwarsza": 4239,
      "Ã³ÅĤnocy": 4240,
      "strzega": 4241,
      "ĠmaÅĤÅ¼e": 4242,
      "wska": 4243,
      "chowy": 4244,
      "ĠdÄħ": 4245,
      "ĠÅļrod": 4246,
      "Ġklasz": 4247,
      "Ġdobrze": 4248,
      "Ġwro": 4249,
      "ĠnastÄħpi": 4250,
      "Ġutrzyma": 4251,
      "Ġprzekona": 4252,
      "Ġgry": 4253,
      "ĠczoÅĤ": 4254,
      "Ġfar": 4255,
      "gach": 4256,
      "ĠreÅ¼": 4257,
      "Ġprak": 4258,
      "ĠsystemÃ³w": 4259,
      "Ġniemieckie": 4260,
      "Ġwykorzystu": 4261,
      "Da": 4262,
      "mÄĻ": 4263,
      "Ġwytwarza": 4264,
      "ĠRi": 4265,
      "ĠGro": 4266,
      "Ġrzeki": 4267,
      "Ġstosowane": 4268,
      "konstru": 4269,
      "Pi": 4270,
      "ĠBrytyj": 4271,
      "Ġnimi": 4272,
      "ĠpracÄĻ": 4273,
      "Ġtrakta": 4274,
      "64": 4275,
      "Bo": 4276,
      "Dz": 4277,
      "ccy": 4278,
      "dowe": 4279,
      "giÄĻ": 4280,
      "Ġgu": 4281,
      "sfery": 4282,
      "ĠWÅĤadysÅĤaw": 4283,
      "70": 4284,
      "lle": 4285,
      "czer": 4286,
      "ĠzakÅĤada": 4287,
      "Ġprzewi": 4288,
      "ĠCza": 4289,
      "ĠduÅ¼ej": 4290,
      "Ġbudowy": 4291,
      "Ġprojekt": 4292,
      "ĠJohn": 4293,
      "grywa": 4294,
      "kor": 4295,
      "Ġpia": 4296,
      "cznik": 4297,
      "ĠâĢĺ": 4298,
      "ĠJÄĻzy": 4299,
      "Ġpowro": 4300,
      "cyjnie": 4301,
      "ĠAnto": 4302,
      "Ġoni": 4303,
      "ĠMÅĤo": 4304,
      "Ġargu": 4305,
      "Ġekonomi": 4306,
      "ĠHiszpanii": 4307,
      "Ġzim": 4308,
      "ĠtrÃ³j": 4309,
      "wanych": 4310,
      "koÅĤo": 4311,
      "cone": 4312,
      "Ġpozba": 4313,
      "Ġkolejne": 4314,
      "tywne": 4315,
      "chÃ³w": 4316,
      "Ġwyco": 4317,
      "Ġ1918": 4318,
      "ĠspeÅĤ": 4319,
      "Ġmaszyn": 4320,
      "ĠZwiÄħzku": 4321,
      "Ġopozy": 4322,
      "prawia": 4323,
      "Ġfoto": 4324,
      "Ġtechno": 4325,
      "ĠLondy": 4326,
      "Ch": 4327,
      "ana": 4328,
      "ela": 4329,
      "zmie": 4330,
      "Ġono": 4331,
      "Ġtle": 4332,
      "Ġjakie": 4333,
      "âĢĿ).": 4334,
      "ĠprowadzÄħ": 4335,
      "ĠsÅĤuÅ¼Äħ": 4336,
      "Ġdziedzinie": 4337,
      "ĠkoÅĽciÃ³ÅĤ": 4338,
      "Ġwspom": 4339,
      "lli": 4340,
      "zem": 4341,
      "rzeniu": 4342,
      "ley": 4343,
      "ĠbiaÅĤ": 4344,
      "ĠZosta": 4345,
      "ĠstaÅĤy": 4346,
      "Ġhar": 4347,
      "Ġdysku": 4348,
      "ĠgÅĤÃ³wnym": 4349,
      "ĠWojsk": 4350,
      "ĠWindows": 4351,
      "Ġpio": 4352,
      "Ġzabu": 4353,
      "Ġzapisu": 4354,
      "Ġuzu": 4355,
      "ĠkoÅĽcie": 4356,
      "tycznÄħ": 4357,
      "Ġboha": 4358,
      "Ġgranicy": 4359,
      "Ġodpowiedzia": 4360,
      "ĠgatunkÃ³w": 4361,
      "Ġpola": 4362,
      "Ġumiesz": 4363,
      "ĠNA": 4364,
      "Ġstu": 4365,
      "Ġrefor": 4366,
      "ĠkrajÃ³w": 4367,
      "ĠSztu": 4368,
      "Ġpowszechnie": 4369,
      "Ġtelewi": 4370,
      "ĠnapisaÅĤ": 4371,
      "ĠkaÅ¼dego": 4372,
      "gni": 4373,
      "ÅĤma": 4374,
      "ĠpÃ³ÅĤnocy": 4375,
      "nesa": 4376,
      "Ġpotra": 4377,
      "ĠAd": 4378,
      "ĠznaczÄħ": 4379,
      "Ġpremie": 4380,
      "ĠmÄĻÅ¼czyz": 4381,
      "dowych": 4382,
      "hy": 4383,
      "ĠÅĤu": 4384,
      "Ġpt": 4385,
      "rob": 4386,
      "ĠMor": 4387,
      "mieÅĦ": 4388,
      "Ġuczestni": 4389,
      "ĠChrystu": 4390,
      "Ð½": 4391,
      "Ġmist": 4392,
      "Ġ()": 4393,
      "Ġgrawi": 4394,
      "dzonych": 4395,
      "SL": 4396,
      "owcy": 4397,
      "ĠPia": 4398,
      "Ġzatru": 4399,
      "Ġalkoho": 4400,
      "ĠJej": 4401,
      "Ġsamolo": 4402,
      "Ġniemiecki": 4403,
      "ĠuÅ¼ywany": 4404,
      "Ġcharakterysty": 4405,
      "hel": 4406,
      "owskiej": 4407,
      "ĠzostaÄĩ": 4408,
      "istory": 4409,
      "Ġstruktury": 4410,
      "Ġaktor": 4411,
      "ĠHan": 4412,
      "Ġszwedz": 4413,
      "ĠMikoÅĤa": 4414,
      "meryka": 4415,
      "ĠistniejÄħ": 4416,
      "jonie": 4417,
      "ĠLubli": 4418,
      "ĠEuropejskiej": 4419,
      "31": 4420,
      "Al": 4421,
      "zuÅĤma": 4422,
      "ĠrozwiniÄĻ": 4423,
      "ĠJÃ³zefa": 4424,
      "kcjÄĻ": 4425,
      "ĠpÅĤ": 4426,
      "ĠSzy": 4427,
      "tual": 4428,
      "ĠFo": 4429,
      "190": 4430,
      "Ġbudowa": 4431,
      "Ġmuzyki": 4432,
      "Ġregiona": 4433,
      "Ġogrom": 4434,
      "Ġkor": 4435,
      "ÅĤama": 4436,
      "ĠstaÅĤo": 4437,
      "ĠjÄĻzykach": 4438,
      "ĠJezusa": 4439,
      "pÄĻ": 4440,
      "ĠzaczÄħÅĤ": 4441,
      "ĠSÅĤu": 4442,
      "Ġznany": 4443,
      "ĠWarszawy": 4444,
      "Ġniemieckiej": 4445,
      "Ġ1989": 4446,
      "Ġsena": 4447,
      "jmuje": 4448,
      "ĠStanisÅĤawa": 4449,
      "ĠWydawnictwo": 4450,
      "nione": 4451,
      "czykÃ³w": 4452,
      "Ġcen": 4453,
      "ĠokrÄĻt": 4454,
      "ĠobiektÃ³w": 4455,
      "Ġtrans": 4456,
      "legÅĤoÅĽÄĩ": 4457,
      "ĠOkrÄĻ": 4458,
      "Polscy": 4459,
      "86": 4460,
      "kta": 4461,
      "Ġzaby": 4462,
      "Ġcztere": 4463,
      "mentar": 4464,
      "Ġleka": 4465,
      "ĠpoczÄħtek": 4466,
      "ĠpÃ³ÅĤnocnej": 4467,
      "ĠÅĽrodowiska": 4468,
      "gry": 4469,
      "iÃ³w": 4470,
      "Ġtygo": 4471,
      "cony": 4472,
      "ĠKolej": 4473,
      "Å¼Äħda": 4474,
      "Ġ2016": 4475,
      "Ġwzrost": 4476,
      "Ġplanety": 4477,
      "Ġobejmuje": 4478,
      "mm": 4479,
      "tzw": 4480,
      "Ġrejonie": 4481,
      "Ġnur": 4482,
      "Ġ2019": 4483,
      "Ġwprowadza": 4484,
      "Ġstosuje": 4485,
      "Ġkandyda": 4486,
      "Ġokupa": 4487,
      "Ġszereg": 4488,
      "ĠpobliÅ¼u": 4489,
      "Ġskom": 4490,
      "Ġmm": 4491,
      "Ġzapisa": 4492,
      "Å¼eÅĦ": 4493,
      "Ġetni": 4494,
      "stym": 4495,
      "Ġsport": 4496,
      "rich": 4497,
      "Ġalgoryt": 4498,
      "ĠczÄĻÅĽciÄħ": 4499,
      "ĠpoÅĽredni": 4500,
      "ĠKsiÄĻÅ¼y": 4501,
      "Ġrzad": 4502,
      "wio": 4503,
      "syn": 4504,
      "dzili": 4505,
      "Ġnowy": 4506,
      "Å¼er": 4507,
      "owaniem": 4508,
      "ĠSka": 4509,
      "ĠLw": 4510,
      "Ġpolitycznych": 4511,
      "ĠspoÅĤeczeÅĦstwa": 4512,
      "ĠBolesÅĤawa": 4513,
      "dry": 4514,
      "Ġdotychczas": 4515,
      "ĠCi": 4516,
      "ĠsprzÄĻ": 4517,
      "trÃ³w": 4518,
      "ĠrzeÅº": 4519,
      "Ġrodzaj": 4520,
      "zajem": 4521,
      "ĠGÃ³": 4522,
      "ĠgÅĤosÃ³w": 4523,
      "Ġtj": 4524,
      "ĠodrÃ³Å¼": 4525,
      "Ġdanego": 4526,
      "ĠwspÃ³ÅĤprac": 4527,
      "kazuje": 4528,
      "Ġdotar": 4529,
      "ĠStra": 4530,
      "ĠIs": 4531,
      "Ġ35": 4532,
      "nikami": 4533,
      "ĠTak": 4534,
      "tnoÅĽci": 4535,
      "stki": 4536,
      "ĠWis": 4537,
      "Å¼ynie": 4538,
      "czania": 4539,
      "Ġreje": 4540,
      "prawa": 4541,
      "ciÄħg": 4542,
      "Uwagi": 4543,
      "wszy": 4544,
      "Ġx": 4545,
      "niÅ¼ej": 4546,
      "niec": 4547,
      "mino": 4548,
      "Ġucie": 4549,
      "mierza": 4550,
      "ĠcaÅĤym": 4551,
      "ÅĤonkowie": 4552,
      "ĠJaponii": 4553,
      "35": 4554,
      "kowego": 4555,
      "Ġdolar": 4556,
      "Ġkosz": 4557,
      "Ġspotyka": 4558,
      "ÅĤek": 4559,
      "Ġdrew": 4560,
      "Ġtar": 4561,
      "Ġpopraw": 4562,
      "katoli": 4563,
      "dniÄħ": 4564,
      "pieÅĦ": 4565,
      "ĠPiotr": 4566,
      "brzy": 4567,
      "ĠzasiÄĻ": 4568,
      "kiewicz": 4569,
      "ĠstÄĻ": 4570,
      "des": 4571,
      "ĠChar": 4572,
      "Ġwojna": 4573,
      "ĠJako": 4574,
      "ĠpierÅĽcie": 4575,
      "ĠÅļwiÄĻtego": 4576,
      "tional": 4577,
      "kowo": 4578,
      "sor": 4579,
      "Ġzbyt": 4580,
      "rzono": 4581,
      "Ġton": 4582,
      "skimi": 4583,
      "Ġfla": 4584,
      "Ġ1990": 4585,
      "Ġ150": 4586,
      "ĠokrÄĻty": 4587,
      "Ġpopulacji": 4588,
      "Ġhomoseksual": 4589,
      "ĠIzra": 4590,
      "ĠkÄħ": 4591,
      "ĠwojewÃ³dztwa": 4592,
      "ad": 4593,
      "ssi": 4594,
      "ven": 4595,
      "ÑĢ": 4596,
      "ĠbÃ³": 4597,
      "Ġobra": 4598,
      "Ġpasa": 4599,
      "Ġzostali": 4600,
      "ĠAmeryki": 4601,
      "Ġokaza": 4602,
      "ĠSÅĤowa": 4603,
      "ĠodlegÅĤoÅĽci": 4604,
      "win": 4605,
      "ĠBan": 4606,
      "ĠNob": 4607,
      "ĠIch": 4608,
      "Ġinten": 4609,
      "Ġkampa": 4610,
      "ĠJerzy": 4611,
      "nionych": 4612,
      "ĠNastÄĻpnie": 4613,
      "Ġwsi": 4614,
      "stwem": 4615,
      "Ġdoty": 4616,
      "orÄħ": 4617,
      "lonych": 4618,
      "dyka": 4619,
      "czyÅĤo": 4620,
      "ĠTen": 4621,
      "ille": 4622,
      "ĠwzdÅĤuÅ¼": 4623,
      "orys": 4624,
      "nowany": 4625,
      "Ġy": 4626,
      "Ġantropo": 4627,
      "ĠwyksztaÅĤ": 4628,
      "rzyÄĩ": 4629,
      "ĠKla": 4630,
      "pii": 4631,
      "guje": 4632,
      "Ġ2013": 4633,
      "Ġ1997": 4634,
      "95": 4635,
      "Pra": 4636,
      "jekt": 4637,
      "lesty": 4638,
      "Ġulega": 4639,
      "Ġkol": 4640,
      "bit": 4641,
      "niosÅĤa": 4642,
      "cheo": 4643,
      "Ġczerwo": 4644,
      "ĠRzym": 4645,
      "Ġpowoduje": 4646,
      "ĠCyce": 4647,
      "ĠCesar": 4648,
      "ĠmiejscowoÅĽci": 4649,
      "Ġregular": 4650,
      "Ġfunkcjon": 4651,
      "Ġdosta": 4652,
      "ĠBro": 4653,
      "rÃ³deÅĤ": 4654,
      "ĠwpÅĤywem": 4655,
      "ĠmyÅĽ": 4656,
      "ĠnastÄĻpujÄħce": 4657,
      "RL": 4658,
      "Sa": 4659,
      "ele": 4660,
      "ĠpowiÄħza": 4661,
      "Ġmno": 4662,
      "ĠBie": 4663,
      "eksy": 4664,
      "nÄĻÅĤo": 4665,
      "ĠcaÅĤego": 4666,
      "lenda": 4667,
      "chem": 4668,
      "Ġniedo": 4669,
      "Ġodwo": 4670,
      "Ġbitwie": 4671,
      "Ġciep": 4672,
      "ĠÅĽwiÄħty": 4673,
      "Ġskierowa": 4674,
      "gaÅ¼": 4675,
      "Ġdywi": 4676,
      "ĠÅºrÃ³deÅĤ": 4677,
      "id": 4678,
      "tÄħd": 4679,
      "jecha": 4680,
      "Ġzamiast": 4681,
      "kin": 4682,
      "Ġpodkre": 4683,
      "anu": 4684,
      "Ġdzieli": 4685,
      "ĠduÅ¼Äħ": 4686,
      "ĠimiÄĻ": 4687,
      "ĠsÅĤone": 4688,
      "ĠprÄĻdkoÅĽci": 4689,
      "kowski": 4690,
      "ĠWysp": 4691,
      "ĠmilionÃ³w": 4692,
      "ĠBolesÅĤaw": 4693,
      "++": 4694,
      "niowe": 4695,
      "Ġsre": 4696,
      "piera": 4697,
      "ĠFesti": 4698,
      "ĠWÄĻg": 4699,
      "ĠprzejÄĻ": 4700,
      "ham": 4701,
      "ĠPK": 4702,
      "Ġrozpuszcza": 4703,
      "Roz": 4704,
      "33": 4705,
      "mas": 4706,
      "ĠOce": 4707,
      "ĠTi": 4708,
      "dziÄħ": 4709,
      "broje": 4710,
      "ĠksiÄĻÅ¼y": 4711,
      "ĠreÅ¼yser": 4712,
      "ĠChrystusa": 4713,
      "hr": 4714,
      "ssa": 4715,
      "Ġulicy": 4716,
      "cyk": 4717,
      "matycznych": 4718,
      "Ġnieo": 4719,
      "Ġpodlega": 4720,
      "Ġkonsek": 4721,
      "ĠPolskie": 4722,
      "ĠPaÅĦstw": 4723,
      "ward": 4724,
      "Ġsamodzie": 4725,
      "Ġwiary": 4726,
      "ĠmÅĤodzie": 4727,
      "Ġarchitektu": 4728,
      "Ġzwolen": 4729,
      "ĠtysiÄħ": 4730,
      "ĠMimo": 4731,
      "ĠzwierzÄĻ": 4732,
      "ctwo": 4733,
      "iach": 4734,
      "ĠobrÄĻ": 4735,
      "ĠIstnie": 4736,
      "Ġistnienia": 4737,
      "ĠnajwiÄĻkszych": 4738,
      "ĠOrderu": 4739,
      "ktem": 4740,
      "rozo": 4741,
      "posto": 4742,
      "Ġwiedzy": 4743,
      "Ġkoncer": 4744,
      "stein": 4745,
      "ĠTea": 4746,
      "Ġskutek": 4747,
      "ĠLudwi": 4748,
      "Ġpotrzeb": 4749,
      "Ġuniwersyte": 4750,
      "ĠParyÅ¼u": 4751,
      "dor": 4752,
      "Ġswego": 4753,
      "Ġpoto": 4754,
      "Ġnar": 4755,
      "Ġ1998": 4756,
      "Ġblisko": 4757,
      "klu": 4758,
      "Ġmary": 4759,
      "Ġdoko": 4760,
      "Ġhonor": 4761,
      "Ġwybor": 4762,
      "fer": 4763,
      "ĠpowaÅ¼": 4764,
      "ĠkrÄĻ": 4765,
      "ĠÅĽwiet": 4766,
      "niusz": 4767,
      "Ġwspar": 4768,
      "Ġwersja": 4769,
      "Ġojca": 4770,
      "à¤": 4771,
      "Ġisla": 4772,
      "dan": 4773,
      "ĠrÃ³wnowa": 4774,
      "Ġistnienie": 4775,
      "ĠPrzykÅĤad": 4776,
      "Ġinternet": 4777,
      "Ġzmian": 4778,
      "ĠKazimierz": 4779,
      "wskim": 4780,
      "niz": 4781,
      "lami": 4782,
      "rysto": 4783,
      "ĠBez": 4784,
      "Ġznaczeniu": 4785,
      "ĠStanach": 4786,
      "Ġ1943": 4787,
      "Ġuwagi": 4788,
      "Ġfilmu": 4789,
      "Ġekspery": 4790,
      "ĠDziÄĻki": 4791,
      "45": 4792,
      "zosta": 4793,
      "Ġsio": 4794,
      "ĠMy": 4795,
      "Ġhrab": 4796,
      "leria": 4797,
      "Ġkosmi": 4798,
      "szony": 4799,
      "art": 4800,
      "Ġcechy": 4801,
      "Ġwspiera": 4802,
      "dowi": 4803,
      "wskie": 4804,
      "Ġporozu": 4805,
      "ĠuÅĤa": 4806,
      "Ġwyna": 4807,
      "ĠmaÅĤo": 4808,
      "syÅĤa": 4809,
      "terna": 4810,
      "ĠFrancu": 4811,
      "Ġtereny": 4812,
      "ĠzaÅĤoÅ¼y": 4813,
      "Ġpoziomie": 4814,
      "ĠpowyÅ¼ej": 4815,
      "wach": 4816,
      "ĠsiÄĻga": 4817,
      "Ġdanej": 4818,
      "ĠmuzuÅĤma": 4819,
      "scypli": 4820,
      "ĠsÅĤowo": 4821,
      "ĠÅĤÄħczÄħ": 4822,
      "Ġwyspy": 4823,
      "99": 4824,
      "towej": 4825,
      "Ġrzu": 4826,
      "Ġpary": 4827,
      "Ġoczy": 4828,
      "ĠSpe": 4829,
      "ĠÅĽlÄħ": 4830,
      "pus": 4831,
      "Ġ1991": 4832,
      "ĠokreÅĽlenie": 4833,
      "ĠWielkiego": 4834,
      "ĠjÄħdr": 4835,
      "ĠÅģo": 4836,
      "ĠdotyczÄħce": 4837,
      "fan": 4838,
      "pr": 4839,
      "ĠsÅĤÃ³w": 4840,
      "Ġkrak": 4841,
      "ĠdoÅĽÄĩ": 4842,
      "Å¼eniem": 4843,
      "dnik": 4844,
      "ĠJedno": 4845,
      "ĠRadzie": 4846,
      "Ġ177": 4847,
      "Ġniemieckiego": 4848,
      "ĠpozostaÅĤych": 4849,
      "Ġczterech": 4850,
      "ĠobrÄĻbie": 4851,
      "65": 4852,
      "chia": 4853,
      "Ġporusza": 4854,
      "Ġjezio": 4855,
      "ĠgÃ³": 4856,
      "turÄĻ": 4857,
      "ĠZna": 4858,
      "34": 4859,
      "fu": 4860,
      "nig": 4861,
      "ĠbÅĤÄĻ": 4862,
      "ĠKe": 4863,
      "Ġkaden": 4864,
      "Ġorga": 4865,
      "Ġfunkcje": 4866,
      "Ġhistor": 4867,
      "ĠszczegÃ³lnoÅĽci": 4868,
      "wangeli": 4869,
      "van": 4870,
      "leko": 4871,
      "ĠbÅĤo": 4872,
      "ĠurzÄĻ": 4873,
      "ĠKie": 4874,
      "ĠMer": 4875,
      "Ġprzeciwie": 4876,
      "Ġobrony": 4877,
      "ĠduÅ¼ych": 4878,
      "ĠzarzÄħdza": 4879,
      "Ġsiar": 4880,
      "letni": 4881,
      "szyÅĤ": 4882,
      "ĠprzyÅĤÄħ": 4883,
      "ĠGi": 4884,
      "bus": 4885,
      "ĠMiasta": 4886,
      "68": 4887,
      "Ġ)": 4888,
      "ĠpostÄĻp": 4889,
      "lend": 4890,
      "Ġzao": 4891,
      "Ġsygna": 4892,
      "gene": 4893,
      "dnienia": 4894,
      "Ġprezen": 4895,
      "Ġ1992": 4896,
      "groda": 4897,
      "kracza": 4898,
      "Ġtekstu": 4899,
      "Ġpowiatu": 4900,
      "blÄħ": 4901,
      "mow": 4902,
      "ĠpoÅĤowy": 4903,
      "Ġprzypo": 4904,
      "dziesiÄħ": 4905,
      "Ġnum": 4906,
      "ĠspoÅ¼y": 4907,
      "ĠgÅĤÃ³wne": 4908,
      "pÅĤyw": 4909,
      "ĠPrzez": 4910,
      "Ġgroma": 4911,
      "powszech": 4912,
      "By": 4913,
      "Dzie": 4914,
      "nce": 4915,
      "Ġatom": 4916,
      "Ġkoncent": 4917,
      "kowany": 4918,
      "ĠÅ¼yciu": 4919,
      "Ġ2017": 4920,
      "zowany": 4921,
      "Ġzbio": 4922,
      "Ġfal": 4923,
      "Ġznaczenia": 4924,
      "ĠÅĤaÅĦcu": 4925,
      "gÅĤÄĻ": 4926,
      "pty": 4927,
      "strÃ³w": 4928,
      "stawy": 4929,
      "Ġprzewo": 4930,
      "Ġkali": 4931,
      "Ġ1995": 4932,
      "berta": 4933,
      "ĠpÃ³ÅĤnocno": 4934,
      "Ġzgi": 4935,
      "kiedy": 4936,
      "ĠZÅĤo": 4937,
      "mus": 4938,
      "ĠspoÅĽrÃ³d": 4939,
      "ĠrÃ³Å¼ni": 4940,
      "ĠzwiÄħzek": 4941,
      "Ġzbioru": 4942,
      "ĠczÅĤonkiem": 4943,
      "Ġdrugim": 4944,
      "fy": 4945,
      "ts": 4946,
      "nina": 4947,
      "Ġpokona": 4948,
      "Ġ1000": 4949,
      "Ġwybi": 4950,
      "Ġnowej": 4951,
      "bieg": 4952,
      "ĠJeÅĽli": 4953,
      "ÅĽciami": 4954,
      "ĠTym": 4955,
      "Ġwarunkach": 4956,
      "Ġpunktu": 4957,
      "ĠTowarzystwo": 4958,
      "iusz": 4959,
      "ĠMal": 4960,
      "Ġdynast": 4961,
      "Ġpewne": 4962,
      "Bu": 4963,
      "stawia": 4964,
      "ĠPier": 4965,
      "gami": 4966,
      "teria": 4967,
      "mera": 4968,
      "Ġ1996": 4969,
      "niom": 4970,
      "lerii": 4971,
      "ĠrzÄħdÃ³w": 4972,
      "Ġpancer": 4973,
      "Ġtemperatury": 4974,
      "ĠMiasto": 4975,
      "Ġdoskona": 4976,
      "ĠAna": 4977,
      "rÃ³b": 4978,
      "bina": 4979,
      "ransp": 4980,
      "Ġ1941": 4981,
      "Ġstandar": 4982,
      "ĠdÅºwiÄĻ": 4983,
      "Ġwycofa": 4984,
      "nne": 4985,
      "Ġory": 4986,
      "ĠmiÄĻ": 4987,
      "ciorys": 4988,
      "tywy": 4989,
      "ĠobsÅĤu": 4990,
      "Ġreda": 4991,
      "Ġczaso": 4992,
      "Ġ1980": 4993,
      "ksyma": 4994,
      "ĠzamkniÄĻ": 4995,
      "ĠpÅĤci": 4996,
      "zowaÅĤ": 4997,
      "rasta": 4998,
      "skÃ³w": 4999,
      "Ġupraw": 5000,
      "Ġniezna": 5001,
      "ĠIgna": 5002,
      "pular": 5003,
      "ĠdzieÅĤ": 5004,
      "Ġstrona": 5005,
      "Ġturysty": 5006,
      "ĠAnglii": 5007,
      "ĠNobla": 5008,
      "ĠpÄĻ": 5009,
      "Ã³Å¼": 5010,
      "ĠskoÅĦ": 5011,
      "Ġur": 5012,
      "bami": 5013,
      "Ġ2020": 5014,
      "Ġary": 5015,
      "versi": 5016,
      "zje": 5017,
      "Ġzako": 5018,
      "Ġdefi": 5019,
      "Ġradi": 5020,
      "Ġcywi": 5021,
      "ĠzwiÄħzanych": 5022,
      "Ġteore": 5023,
      "es": 5024,
      "fra": 5025,
      "port": 5026,
      "szto": 5027,
      "reta": 5028,
      "lakty": 5029,
      "Ġdominu": 5030,
      "Ġmieli": 5031,
      "ĠdziesiÄĻ": 5032,
      "ĠArchi": 5033,
      "Ġfakt": 5034,
      "ĠWielki": 5035,
      "Ġobywatel": 5036,
      "ĠDywi": 5037,
      "Ġzatem": 5038,
      "indu": 5039,
      "ĠwewnÄħtrz": 5040,
      "Ġ45": 5041,
      "Ġnomina": 5042,
      "fikacja": 5043,
      "Ġpanowania": 5044,
      "Ġpodwodnych": 5045,
      "plek": 5046,
      "tysty": 5047,
      "ĠWiÄĻkszoÅĽÄĩ": 5048,
      "wojen": 5049,
      "pita": 5050,
      "spie": 5051,
      "Ġkontr": 5052,
      "ĠJak": 5053,
      "Ġ1942": 5054,
      "ĠwiÄĻkszÄħ": 5055,
      "Ġkryp": 5056,
      "LD": 5057,
      "ĠWspÃ³ÅĤ": 5058,
      "Ġopro": 5059,
      "rowia": 5060,
      "Ġodwie": 5061,
      "Ġtabli": 5062,
      "bii": 5063,
      "ĠdziaÅĤanie": 5064,
      "ĠMarek": 5065,
      "ciÄħÅ¼": 5066,
      "Ġnorma": 5067,
      "ĠKatowicach": 5068,
      "Ġzamieszka": 5069,
      "niego": 5070,
      "Ġpotom": 5071,
      "ĠzastÄħpi": 5072,
      "berg": 5073,
      "ĠpoÅĤudniowo": 5074,
      "ĠPolakÃ³w": 5075,
      "The": 5076,
      "cro": 5077,
      "ĠprÄħ": 5078,
      "lus": 5079,
      "Ġ1920": 5080,
      "ĠZbi": 5081,
      "Ġzwro": 5082,
      "ĠSystem": 5083,
      "Ġportu": 5084,
      "Ġuroczy": 5085,
      "Wo": 5086,
      "fie": 5087,
      "Äģ": 5088,
      "ĠwchodzÄħ": 5089,
      "ĠnarzÄĻ": 5090,
      "Ġwybudowa": 5091,
      "Ġwybiera": 5092,
      "ĠXIV": 5093,
      "Ġostatnich": 5094,
      "Ġklub": 5095,
      "Ġprzekaza": 5096,
      "ĠIr": 5097,
      "ĠdÅĤugoÅĽÄĩ": 5098,
      "nkowo": 5099,
      "ĠpiÄĻÄĩ": 5100,
      "ĠÅĤo": 5101,
      "niÅ¼": 5102,
      "Ġ1919": 5103,
      "ĠCie": 5104,
      "doz": 5105,
      "ĠEin": 5106,
      "ĠFin": 5107,
      "ĠXIII": 5108,
      "Ġtworzenia": 5109,
      "Ġfunkcjonu": 5110,
      "Ġzapropo": 5111,
      "Ġsubstancji": 5112,
      "Å»yciorys": 5113,
      "32": 5114,
      "bÃ³w": 5115,
      "dge": 5116,
      "ux": 5117,
      "ĠNowy": 5118,
      "Ġpropa": 5119,
      "myÅĽ": 5120,
      "ill": 5121,
      "Ġzebra": 5122,
      "Ġnosi": 5123,
      "Ġostatnie": 5124,
      "rotnie": 5125,
      "dynami": 5126,
      "kowania": 5127,
      "ĠwÅĤaÅĽciwoÅĽci": 5128,
      "ĠWillia": 5129,
      "ĠKrÃ³lestwa": 5130,
      "ĠpojÄĻcia": 5131,
      "ĠtwÃ³rczoÅĽci": 5132,
      "mai": 5133,
      "Ġodbi": 5134,
      "ĠpodwÃ³j": 5135,
      "ralnym": 5136,
      "Ġboj": 5137,
      "ĠRzeszy": 5138,
      "gmu": 5139,
      "Ġodzy": 5140,
      "lis": 5141,
      "Ġpoez": 5142,
      "tana": 5143,
      "ĠON": 5144,
      "ĠTho": 5145,
      "ĠFer": 5146,
      "nden": 5147,
      "Ġ2021": 5148,
      "Ġsamocho": 5149,
      "ĠAdam": 5150,
      "dnych": 5151,
      "zowie": 5152,
      "nau": 5153,
      "chÄĻ": 5154,
      "ĠkrÄħ": 5155,
      "ling": 5156,
      "ĠporzÄħd": 5157,
      "ĠAnt": 5158,
      "ĠFry": 5159,
      "grafia": 5160,
      "rÃ³Å¼nic": 5161,
      "nÄĻÅĤy": 5162,
      "ĠVI": 5163,
      "Ġpodstawowych": 5164,
      "ĠSzkoÅĤa": 5165,
      "dÅĤa": 5166,
      "ĠâĢ¢": 5167,
      "ÅĦce": 5168,
      "Ġrezu": 5169,
      "Ġgranic": 5170,
      "Ġelement": 5171,
      "ĠKonstytu": 5172,
      "ĠsÅĤowia": 5173,
      "Ġbuddy": 5174,
      "krai": 5175,
      "Ġkobiety": 5176,
      "ĠKatowice": 5177,
      "ĠzwiÄĻksza": 5178,
      "jny": 5179,
      "wajÄħ": 5180,
      "Ġodczy": 5181,
      "zan": 5182,
      "ĠOgÃ³l": 5183,
      "Ġkonkre": 5184,
      "Ġgaz": 5185,
      "Ġseria": 5186,
      "ĠsiedzibÄħ": 5187,
      "Ġzapewnia": 5188,
      "Ġprowincji": 5189,
      "ĠGeorge": 5190,
      "ĠTadeusz": 5191,
      "szone": 5192,
      "Ġbru": 5193,
      "Ġzaczyna": 5194,
      "Ġrocz": 5195,
      "wic": 5196,
      "Ġteoria": 5197,
      "Ġedy": 5198,
      "dziny": 5199,
      "Ġrozbi": 5200,
      "piej": 5201,
      "Ġpolsko": 5202,
      "Ġnauczy": 5203,
      "Ġrezulta": 5204,
      "niony": 5205,
      "Ġpocz": 5206,
      "jÄħÄĩ": 5207,
      "Ġlisty": 5208,
      "ĠÅĽpie": 5209,
      "ÅºÄĩ": 5210,
      "ĠEr": 5211,
      "dziale": 5212,
      "ĠPawÅĤa": 5213,
      "Ġdrodze": 5214,
      "Ġskali": 5215,
      "ĠKrzyÅ¼": 5216,
      "85": 5217,
      "WÅĤa": 5218,
      "lowych": 5219,
      "val": 5220,
      "ÅĤki": 5221,
      "ĠSS": 5222,
      "Ġkodu": 5223,
      "Ġeuro": 5224,
      "âĢĿ),": 5225,
      "wiad": 5226,
      "illa": 5227,
      "ĠJerozo": 5228,
      "ralna": 5229,
      "Ġnowoczes": 5230,
      "Ġzdefini": 5231,
      "Ġrol": 5232,
      "Ġczwar": 5233,
      "Ġedu": 5234,
      "Ġhydro": 5235,
      "ica": 5236,
      "siada": 5237,
      "Ġpowi": 5238,
      "Ġol": 5239,
      "ktro": 5240,
      "Ġpozwoli": 5241,
      "Ġdyspo": 5242,
      "ĠwiÄĻksze": 5243,
      "ĠzwiÄħzki": 5244,
      "Ġcharakterze": 5245,
      "Ġmatematycz": 5246,
      "ĠTar": 5247,
      "Ġindoeuropej": 5248,
      "ĠwydaÅĤ": 5249,
      "Ġcmenta": 5250,
      "ĠAlf": 5251,
      "ĠAustra": 5252,
      "ĠÅ¼Ã³ÅĤ": 5253,
      "Ġtekst": 5254,
      "Ġpolityki": 5255,
      "ĠQu": 5256,
      "wscho": 5257,
      "nis": 5258,
      "nor": 5259,
      "Ġniewy": 5260,
      "czonej": 5261,
      "kowaÅĤ": 5262,
      "Ġmus": 5263,
      "ĠsÅĤuÅ¼by": 5264,
      "dwie": 5265,
      "tta": 5266,
      "Ġwzajem": 5267,
      "liÅĤ": 5268,
      "czonego": 5269,
      "towaÄĩ": 5270,
      "Ġstanowisko": 5271,
      "Ġterytoria": 5272,
      "Ġwybuch": 5273,
      "CzÅĤonkowie": 5274,
      "ĠopuÅĽci": 5275,
      "Ze": 5276,
      "nieniu": 5277,
      "Ġoskar": 5278,
      "ĠBiel": 5279,
      "munika": 5280,
      "ĠcaÅĤoÅĽci": 5281,
      "Ġ1993": 5282,
      "ĠWielka": 5283,
      "glÄħda": 5284,
      "ĠCent": 5285,
      "tlanty": 5286,
      "Ta": 5287,
      "Ġuleg": 5288,
      "Ġwyro": 5289,
      "Ġfunda": 5290,
      "Ġprocesu": 5291,
      "tencja": 5292,
      "Ġponadto": 5293,
      "ĠÅºrÃ³dÅĤa": 5294,
      "ĠZwiÄħzek": 5295,
      "trzymuje": 5296,
      "sjÄĻ": 5297,
      "ĠmogÅĤy": 5298,
      "angaÅ¼": 5299,
      "Ġrozpa": 5300,
      "ĠFlo": 5301,
      "ĠNagrody": 5302,
      "ĠÅĤadu": 5303,
      "ĠpoÅĤudniowej": 5304,
      "ĠmÃ³wiÄħ": 5305,
      "Ġkrwi": 5306,
      "AN": 5307,
      "dery": 5308,
      "ĠusuniÄĻ": 5309,
      "ĠSejmu": 5310,
      "Ġstabi": 5311,
      "ĠChe": 5312,
      "ĠpoÅĤÄħczenia": 5313,
      "Ġfinans": 5314,
      "grze": 5315,
      "har": 5316,
      "czba": 5317,
      "Ġdniu": 5318,
      "Ġwypowie": 5319,
      "wicy": 5320,
      "doby": 5321,
      "ĠOfi": 5322,
      "ĠNiemcze": 5323,
      "ĠuzyskaÅĤ": 5324,
      "Ġaresz": 5325,
      "Ġintensyw": 5326,
      "Ġkoali": 5327,
      "cielem": 5328,
      "ĠpodrÃ³Å¼": 5329,
      "Ġpowietrza": 5330,
      "ĠĠĠĠĠĠĠĠĠĠĠĠĠĠĠĠ": 5331,
      "ĠspÃ³ÅĤgÅĤo": 5332,
      "ĠFilm": 5333,
      "ĠNiemczech": 5334,
      "%),": 5335,
      "Ġsformu": 5336,
      "Ġzamor": 5337,
      "widu": 5338,
      "Ġkano": 5339,
      "szystkie": 5340,
      "ĠMosk": 5341,
      "Ġ1994": 5342,
      "ĠczÄĻÅĽciowo": 5343,
      "metrÃ³w": 5344,
      "JÄĻzyk": 5345,
      "48": 5346,
      "wczy": 5347,
      "owska": 5348,
      "Ġkwar": 5349,
      "leÅĦ": 5350,
      "red": 5351,
      "Ġgrze": 5352,
      "Ġzachodniej": 5353,
      "Ġneu": 5354,
      "ĠtworzÄħc": 5355,
      "Mu": 5356,
      "dÅĤo": 5357,
      "mbo": 5358,
      "ãĤ": 5359,
      "owni": 5360,
      "tei": 5361,
      "lope": 5362,
      "Ġrepubli": 5363,
      "Ġinnym": 5364,
      "ĠdziaÅĤ": 5365,
      "ĠszkÃ³ÅĤ": 5366,
      "ĠmiesiÄĻcy": 5367,
      "Ġarcheo": 5368,
      "logiÄĻ": 5369,
      "Ġzasad": 5370,
      "ĠPoznaÅĦ": 5371,
      "Au": 5372,
      "dwi": 5373,
      "Ġ'": 5374,
      "Ġakcji": 5375,
      "Ġutrzymy": 5376,
      "tania": 5377,
      "ĠAla": 5378,
      "Ġprzyw": 5379,
      "Ġmalar": 5380,
      "Ġradio": 5381,
      "skutek": 5382,
      "Ġnega": 5383,
      "ĠPÃ³ÅĤnocnej": 5384,
      "gla": 5385,
      "nim": 5386,
      "lera": 5387,
      "rodÄĻ": 5388,
      "ĠRosja": 5389,
      "ĠzwiÄħzani": 5390,
      "dny": 5391,
      "lowej": 5392,
      "Ġzawod": 5393,
      "Ġprzebiega": 5394,
      "ĠGal": 5395,
      "Ġpatro": 5396,
      "towarzy": 5397,
      "Ġkomplek": 5398,
      "Ġrynku": 5399,
      "ĠjÄħdra": 5400,
      "Ġosadni": 5401,
      "ĠplikÃ³w": 5402,
      "ĠsÅĤy": 5403,
      "Ġdr": 5404,
      "zacjÄĻ": 5405,
      "ise": 5406,
      "Ġpostanowi": 5407,
      "Ġdrogi": 5408,
      "Ġanar": 5409,
      "ĠPubli": 5410,
      "37": 5411,
      "Ġwyj": 5412,
      "kul": 5413,
      "ĠDar": 5414,
      "ĠKaÅ¼": 5415,
      "ĠrÃ³Å¼no": 5416,
      "ĠCom": 5417,
      "ĠosiÄħga": 5418,
      "ĠPoznaniu": 5419,
      "ĠBiblioteka": 5420,
      "ĠspeÅĤnia": 5421,
      "Ġprzypomina": 5422,
      "SS": 5423,
      "tte": 5424,
      "the": 5425,
      "wki": 5426,
      "Ġ:": 5427,
      "Ġpunk": 5428,
      "ĠPO": 5429,
      "ĠSÅĤow": 5430,
      "Ġduch": 5431,
      "ĠwÅĤasnoÅĽci": 5432,
      "Ġkryzy": 5433,
      "Ġpunkt": 5434,
      "ĠkaÅ¼dym": 5435,
      "ĠHenryk": 5436,
      "ĠKultury": 5437,
      "Fi": 5438,
      "jne": 5439,
      "owce": 5440,
      "ĠzrÃ³Å¼nic": 5441,
      "Å¼d": 5442,
      "Ġdoj": 5443,
      "mand": 5444,
      "Ġ1981": 5445,
      "ĠNajwiÄĻk": 5446,
      "ĠmÅĤody": 5447,
      "ĠUniwersytet": 5448,
      "Ġsymbol": 5449,
      "43": 5450,
      "Ġbro": 5451,
      "Ġnieza": 5452,
      "czeÅĦstwo": 5453,
      "Ġmala": 5454,
      "ĠUr": 5455,
      "ĠMarii": 5456,
      "Ġszyf": 5457,
      "ĠKrzyszto": 5458,
      "ĠkoÅĽcioÅĤa": 5459,
      "Ġataku": 5460,
      "ĠElblÄħ": 5461,
      "ĠKazimierza": 5462,
      "ĠpasaÅ¼er": 5463,
      "Ã¨": 5464,
      "naÅĽcie": 5465,
      "ĠNatomiast": 5466,
      "dium": 5467,
      "ĠnapiÄĻ": 5468,
      "Ġfirmy": 5469,
      "Or": 5470,
      "gÃ³r": 5471,
      "jnych": 5472,
      "ury": 5473,
      "lizmu": 5474,
      "rzec": 5475,
      "ĠBal": 5476,
      "Ġtea": 5477,
      "dziem": 5478,
      "bora": 5479,
      "Ġdalej": 5480,
      "skoÅĦ": 5481,
      "ĠNiemcÃ³w": 5482,
      "Ġoperacji": 5483,
      "Ġstudia": 5484,
      "ĠÅļwiÄĻto": 5485,
      "Ġklucz": 5486,
      "Hz": 5487,
      "Mie": 5488,
      "Ob": 5489,
      "tto": 5490,
      "rzona": 5491,
      "Ġswej": 5492,
      "Ġtr": 5493,
      "Ġpogo": 5494,
      "Ġnapo": 5495,
      "Ġzaga": 5496,
      "pole": 5497,
      "ÅĽciÄħ": 5498,
      "ĠPom": 5499,
      "Ġmanda": 5500,
      "Ġche": 5501,
      "Ġ300": 5502,
      "ĠPara": 5503,
      "Ġobiekt": 5504,
      "ĠNarodowego": 5505,
      "Ġgospodarki": 5506,
      "ĠdolarÃ³w": 5507,
      "Äħb": 5508,
      "ĠklÄĻ": 5509,
      "ciÄĩ": 5510,
      "ĠNacze": 5511,
      "Ġmiastem": 5512,
      "ranu": 5513,
      "Ġniszczy": 5514,
      "ĠuÅ¼yciu": 5515,
      "ĠBogu": 5516,
      "landia": 5517,
      "Ñģ": 5518,
      "owskie": 5519,
      "wami": 5520,
      "Ġtyle": 5521,
      "towanych": 5522,
      "Ġliczbie": 5523,
      "ĠspoÅĤecznych": 5524,
      "Ġodpowiednio": 5525,
      "Ġstosunkowo": 5526,
      "ĠRzymie": 5527,
      "ĠrozpoczÄĻÅĤa": 5528,
      "jazd": 5529,
      "Mar": 5530,
      "Ġnacze": 5531,
      "Ġdoktry": 5532,
      "ĠLan": 5533,
      "styka": 5534,
      "berna": 5535,
      "ĠPraw": 5536,
      "Ġzyska": 5537,
      "ĠDemokra": 5538,
      "ĠZygmu": 5539,
      "Ġorygina": 5540,
      "shi": 5541,
      "tin": 5542,
      "ienta": 5543,
      "Ġwchodzi": 5544,
      "ÅĽmie": 5545,
      "Ġnaci": 5546,
      "Ġurucho": 5547,
      "cona": 5548,
      "sora": 5549,
      "dziaÅĤa": 5550,
      "ĠPolskich": 5551,
      "towana": 5552,
      "ĠPau": 5553,
      "ĠVer": 5554,
      "Ġstylu": 5555,
      "Ġobrazu": 5556,
      "ĠmÄĻÅ¼czyzn": 5557,
      "udo": 5558,
      "ÑĤ": 5559,
      "stka": 5560,
      "sten": 5561,
      "nien": 5562,
      "Ġkopa": 5563,
      "ĠArysto": 5564,
      "ĠDro": 5565,
      "ĠleÅ¼Äħ": 5566,
      "niÄĻcie": 5567,
      "mann": 5568,
      "ĠKoÅĽcio": 5569,
      "ĠUniversi": 5570,
      "67": 5571,
      "Ġjo": 5572,
      "lio": 5573,
      "Ġzato": 5574,
      "ĠzaangaÅ¼": 5575,
      "Ġaka": 5576,
      "Ġprzeby": 5577,
      "ĠleÅ¼y": 5578,
      "logiczny": 5579,
      "ĠoprÃ³cz": 5580,
      "ĠRada": 5581,
      "ĠludnoÅĽÄĩ": 5582,
      "ĠzaczÄĻÅĤy": 5583,
      "ĠzmarÅĤ": 5584,
      "Ġmedycy": 5585,
      "ĠniepodlegÅĤoÅĽci": 5586,
      "iÅĤ": 5587,
      "ĠgÄĻsto": 5588,
      "ĠPomo": 5589,
      "gracji": 5590,
      "ther": 5591,
      "Ġlipcu": 5592,
      "Ġdrugiego": 5593,
      "ĠWilhel": 5594,
      "towego": 5595,
      "Ġdochodzi": 5596,
      "kimi": 5597,
      "Ġste": 5598,
      "Ġlicznych": 5599,
      "Ġredu": 5600,
      "Ġstatu": 5601,
      "Ġnu": 5602,
      "Ġnuk": 5603,
      "Ġ500": 5604,
      "tnikÃ³w": 5605,
      "ĠToma": 5606,
      "Ġpoziom": 5607,
      "Ġpsychi": 5608,
      "Ġprogramowania": 5609,
      "Ġpoety": 5610,
      "Ġkonstrukcji": 5611,
      "ĠutworÃ³w": 5612,
      "ĠwÄĻz": 5613,
      "ĠprzeciwieÅĦstwie": 5614,
      "sÄħ": 5615,
      "minowa": 5616,
      "ĠAle": 5617,
      "Ġmodel": 5618,
      "terÃ³w": 5619,
      "unt": 5620,
      "prawie": 5621,
      "torium": 5622,
      "Ġswobo": 5623,
      "siÄħÅ¼": 5624,
      "Ġbitwy": 5625,
      "Ġformu": 5626,
      "fera": 5627,
      "Ġziemia": 5628,
      "ĠczÅĤowiek": 5629,
      "Ġ||": 5630,
      "Miasta": 5631,
      "ctwem": 5632,
      "lnia": 5633,
      "wor": 5634,
      "Ġpotencja": 5635,
      "ÅĦsko": 5636,
      "ĠgÃ³ry": 5637,
      "Ġkolor": 5638,
      "ĠBud": 5639,
      "Ġpali": 5640,
      "ĠEle": 5641,
      "ĠwziÄĻ": 5642,
      "Ġwzor": 5643,
      "Ġ1938": 5644,
      "Ġsierp": 5645,
      "ĠciaÅĤo": 5646,
      "Ġkomputera": 5647,
      "ĠwspÃ³ÅĤczesnych": 5648,
      "ĠzdjÄĻ": 5649,
      "rzÃ³w": 5650,
      "noÅĽ": 5651,
      "Ġzagra": 5652,
      "magne": 5653,
      "ĠTry": 5654,
      "spÃ³l": 5655,
      "Ġ32": 5656,
      "ell": 5657,
      "zmÃ³w": 5658,
      "ĠsieÄĩ": 5659,
      "ĠspoÅĤecznoÅĽci": 5660,
      "Ġkomunisty": 5661,
      "Ġmacierzy": 5662,
      "Ġklasztor": 5663,
      "39": 5664,
      "ĠpÅĤo": 5665,
      "ĠpÃ³Åº": 5666,
      "ĠBÃ³g": 5667,
      "fizy": 5668,
      "Ġzorganizowa": 5669,
      "ĠwschÃ³d": 5670,
      "Ġzer": 5671,
      "Ġdniach": 5672,
      "Ġodgrywa": 5673,
      "ĠAm": 5674,
      "ĠCor": 5675,
      "Ġmaju": 5676,
      "Ġ2022": 5677,
      "uri": 5678,
      "PodziaÅĤ": 5679,
      "skop": 5680,
      "genty": 5681,
      "Ġprezydent": 5682,
      "ĠwspÃ³ÅĤpracy": 5683,
      "Ġoprogram": 5684,
      "89": 5685,
      "Ġ>": 5686,
      "ĠSejm": 5687,
      "ĠKan": 5688,
      "zacho": 5689,
      "ĠEx": 5690,
      "kÅĤadÃ³w": 5691,
      "Ġwesz": 5692,
      "Ġbitwa": 5693,
      "Ġ1982": 5694,
      "Ġoznaczenie": 5695,
      "Ġzasadni": 5696,
      "Ġtermo": 5697,
      "Ġczerwcu": 5698,
      "ĠgrupÄĻ": 5699,
      "Ġobszaru": 5700,
      "ĠkrÃ³tko": 5701,
      "ĠbudowÄĻ": 5702,
      "Ġodzyska": 5703,
      "niczne": 5704,
      "lesa": 5705,
      "Ġdobra": 5706,
      "Ġwykry": 5707,
      "ĠSLD": 5708,
      "Ġstrate": 5709,
      "ĠwywodzÄħ": 5710,
      "Ġsprzeci": 5711,
      "Ġzastosowanie": 5712,
      "Ġbiskup": 5713,
      "ĠprzemysÅĤu": 5714,
      "55": 5715,
      "TO": 5716,
      "Ty": 5717,
      "ĠPor": 5718,
      "ĠdoÅĤÄħ": 5719,
      "zyli": 5720,
      "owem": 5721,
      "mieniem": 5722,
      "Ġtakiej": 5723,
      "sis": 5724,
      "biÅĤ": 5725,
      "Ġsposob": 5726,
      "trwa": 5727,
      "Ġzwyczaj": 5728,
      "ĠnajwiÄĻkszym": 5729,
      "ĠprÃ³by": 5730,
      "morfi": 5731,
      "ĠÅļlÄħska": 5732,
      "niesienia": 5733,
      "].": 5734,
      "jna": 5735,
      "ptu": 5736,
      "Ġder": 5737,
      "szki": 5738,
      "Ġukaza": 5739,
      "Ġobserw": 5740,
      "pat": 5741,
      "Ġinnego": 5742,
      "Ġpas": 5743,
      "Ġznanych": 5744,
      "Ġkalenda": 5745,
      "Ġdyplo": 5746,
      "Ġopowie": 5747,
      "ĠdÅĤugi": 5748,
      "Ġartysty": 5749,
      "ĠnajwaÅ¼niejszych": 5750,
      "glo": 5751,
      "gÃ³ÅĤ": 5752,
      "giel": 5753,
      "rin": 5754,
      "ĠwciÄħÅ¼": 5755,
      "Ġzanie": 5756,
      "miona": 5757,
      "Ġoddzie": 5758,
      "bach": 5759,
      "mentacji": 5760,
      "Ġ1956": 5761,
      "Ġobiekty": 5762,
      "Ġnaturalnych": 5763,
      "Ġprotestan": 5764,
      "Ġkoncepcji": 5765,
      "Ġindywidu": 5766,
      "Ġalian": 5767,
      "Ġuczni": 5768,
      "Ġrezer": 5769,
      "produ": 5770,
      "ried": 5771,
      "ĠpoÅĤudnie": 5772,
      "75": 5773,
      "ĠPRL": 5774,
      "ĠGor": 5775,
      "ĠliczÄħ": 5776,
      "set": 5777,
      "Ġterenach": 5778,
      "ĠKrzyÅ¼a": 5779,
      "Ġtemperatura": 5780,
      "ĠPoÅĤudniowej": 5781,
      "ĠLeonardo": 5782,
      "wne": 5783,
      "Ġpru": 5784,
      "cymi": 5785,
      "Ġnieco": 5786,
      "weÅĤ": 5787,
      "nikach": 5788,
      "Ġgrudniu": 5789,
      "tho": 5790,
      "ĠbudÅ¼e": 5791,
      "Ġparlamentar": 5792,
      "Ġchoroby": 5793,
      "Ġatmosfery": 5794,
      "niczy": 5795,
      "ĠurzÄĻd": 5796,
      "ĠRich": 5797,
      "znacza": 5798,
      "Ġchrz": 5799,
      "czonym": 5800,
      "Ġdyscypli": 5801,
      "Ġ1948": 5802,
      "imna": 5803,
      "Ġ1921": 5804,
      "merykaÅĦski": 5805,
      "Wie": 5806,
      "tnik": 5807,
      "Ġzdr": 5808,
      "Ġson": 5809,
      "ĠzastÄĻp": 5810,
      "ĠusÅĤu": 5811,
      "ĠWÅĽrÃ³d": 5812,
      "rÃ³g": 5813,
      "ĠwolnoÅĽci": 5814,
      "Ġwidzenia": 5815,
      "ĠDoda": 5816,
      "Ġelektroni": 5817,
      "ĠSena": 5818,
      "ĠUniwersytecie": 5819,
      "Inne": 5820,
      "ĠprzeÅĤomie": 5821,
      "38": 5822,
      "dnÄħ": 5823,
      "rodzenia": 5824,
      "lity": 5825,
      "Ġnadz": 5826,
      "Ġzajmowa": 5827,
      "ĠPoczÄħtkowo": 5828,
      "Ġdzia": 5829,
      "ĠHistoria": 5830,
      "Ġchcia": 5831,
      "czÄħtkowa": 5832,
      "Ġdaje": 5833,
      "Ġcywili": 5834,
      "ĠRzecz": 5835,
      "ĠpojÄĻcie": 5836,
      "ĠWÅĤadysÅĤawa": 5837,
      "ĠTowarzystwa": 5838,
      "uda": 5839,
      "ĠponiÅ¼ej": 5840,
      "Ġzapisy": 5841,
      "ĠnieskoÅĦ": 5842,
      "Ġodmien": 5843,
      "Ġmaksyma": 5844,
      "Ġobron": 5845,
      "ĠdzieÅĤo": 5846,
      "Ġstolicy": 5847,
      "raktery": 5848,
      "ĠPaÅĦstwa": 5849,
      "Ġwir": 5850,
      "Ġnazwie": 5851,
      "Ġ1946": 5852,
      "ĠPodstaw": 5853,
      "ĠwprowadziÅĤ": 5854,
      "ĠAntoni": 5855,
      "Ġnaukowych": 5856,
      "ĠRepubliki": 5857,
      "PS": 5858,
      "lowy": 5859,
      "sche": 5860,
      "Ġowo": 5861,
      "Ġzwal": 5862,
      "Ġopisy": 5863,
      "owaÅĦ": 5864,
      "Ġasy": 5865,
      "Ġapli": 5866,
      "Ġunie": 5867,
      "ĠStowarzy": 5868,
      "Ġkod": 5869,
      "Ġludzie": 5870,
      "ĠformÄĻ": 5871,
      "Ġdrzew": 5872,
      "Ð¾Ð": 5873,
      "ĠzupeÅĤ": 5874,
      "fem": 5875,
      "kowym": 5876,
      "Ġukry": 5877,
      "ĠSze": 5878,
      "Ġmorza": 5879,
      "pela": 5880,
      "logicznej": 5881,
      "ĠmiÅĤoÅĽci": 5882,
      "ĠpowieÅĽÄĩ": 5883,
      "Ġalge": 5884,
      "ĠogÃ³lno": 5885,
      "ĠzaleÅ¼y": 5886,
      "Ġdefinicji": 5887,
      "Ġsystemie": 5888,
      "Ġtorpe": 5889,
      "Ġdynastii": 5890,
      "cin": 5891,
      "ĠPort": 5892,
      "Ġugrup": 5893,
      "ĠGnie": 5894,
      "ĠOÅĽ": 5895,
      "bieÅ¼": 5896,
      "kowanie": 5897,
      "rÃ³Å¼nia": 5898,
      "Ġlegen": 5899,
      "Ġpowstaje": 5900,
      "logÃ³w": 5901,
      "ĠHenryka": 5902,
      "Go": 5903,
      "RP": 5904,
      "lski": 5905,
      "Ġposzuki": 5906,
      "cim": 5907,
      "lasy": 5908,
      "ĠTrze": 5909,
      "ĠinÅ¼ynie": 5910,
      "dziaÅĤy": 5911,
      "Ġlep": 5912,
      "ĠPalesty": 5913,
      "wersa": 5914,
      "ĠwÅĤasnych": 5915,
      "Ġpowierzch": 5916,
      "Ġfrancuski": 5917,
      "66": 5918,
      "bÄĻd": 5919,
      "Ġodzna": 5920,
      "leni": 5921,
      "ĠujÄĻ": 5922,
      "dap": 5923,
      "ĠMen": 5924,
      "Ġodnosi": 5925,
      "ĠDio": 5926,
      "Ġpodmio": 5927,
      "Ġrozmia": 5928,
      "Ġdystry": 5929,
      "manna": 5930,
      "Ġ1970": 5931,
      "ĠkoÅĦcÃ³w": 5932,
      "Ġpodstawowe": 5933,
      "Ġoficer": 5934,
      "Ġautorstwa": 5935,
      "Ġzjawiska": 5936,
      "ĠNorwe": 5937,
      "obra": 5938,
      "cyzm": 5939,
      "Ġlista": 5940,
      "Ġwice": 5941,
      "Ġ1947": 5942,
      "Ġpolityczne": 5943,
      "ĠwiÄĻkszych": 5944,
      "ĠskrÃ³": 5945,
      "Ġjuda": 5946,
      "rzuca": 5947,
      "Ġfilmie": 5948,
      "Ġbraku": 5949,
      "ĠNarodowy": 5950,
      "ĠRumu": 5951,
      "ransport": 5952,
      "Ce": 5953,
      "WspÃ³ÅĤ": 5954,
      "pier": 5955,
      "ĠwkrÃ³tce": 5956,
      "Ġtka": 5957,
      "ĠBur": 5958,
      "ĠobjÄħÅĤ": 5959,
      "Ġlitery": 5960,
      "Ġ1975": 5961,
      "Ġadres": 5962,
      "ĠÅĤÄħcznie": 5963,
      "ĠwÅĤadcy": 5964,
      "jona": 5965,
      "Ġwil": 5966,
      "Ġzamach": 5967,
      "ĠstÄħd": 5968,
      "gio": 5969,
      "Ġpracu": 5970,
      "ĠcaÅĤÄħ": 5971,
      "ĠArmia": 5972,
      "ĠSam": 5973,
      "Ġzachowania": 5974,
      "ĠnajwiÄĻksze": 5975,
      "Ġtermin": 5976,
      "ĠOlszty": 5977,
      "05": 5978,
      "42": 5979,
      "ĠpiÄĻk": 5980,
      "Ġzawo": 5981,
      "ĠukÅĤadzie": 5982,
      "tanie": 5983,
      "Ġgminy": 5984,
      "Å¼ek": 5985,
      "nus": 5986,
      "ĠokreÅĽli": 5987,
      "Ġwydaw": 5988,
      "Ġalbu": 5989,
      "Ġfak": 5990,
      "ĠÅĤatwo": 5991,
      "ĠMuzy": 5992,
      "Ġskute": 5993,
      "Ġneut": 5994,
      "ĠAleksander": 5995,
      "ĠkaÅ¼dej": 5996,
      "Ġoficjalnie": 5997,
      "kwa": 5998,
      "Ġile": 5999,
      "Ġbur": 6000,
      "typ": 6001,
      "Ġuczy": 6002,
      "jÄħco": 6003,
      "wol": 6004,
      "sarze": 6005,
      "Ġlini": 6006,
      "ĠÅĽla": 6007,
      "ĠwojnÄĻ": 6008,
      "ĠJaro": 6009,
      "prawdopo": 6010,
      "Ġfunkcjona": 6011,
      "ĠCzÄĻ": 6012,
      "Ġobszary": 6013,
      "Ġbiskupa": 6014,
      "Ġkilo": 6015,
      "ĠrÃ³Å¼norod": 6016,
      "98": 6017,
      "Ne": 6018,
      "lnymi": 6019,
      "mÄħ": 6020,
      "owca": 6021,
      "Ġzi": 6022,
      "lit": 6023,
      "Ġgle": 6024,
      "ĠsÄħsie": 6025,
      "ĠKom": 6026,
      "Ġdzielni": 6027,
      "Ġsprowa": 6028,
      "Ġnocy": 6029,
      "sÅĤowia": 6030,
      "Ġojciec": 6031,
      "ĠAmeryka": 6032,
      "ĠnapÄĻd": 6033,
      "Ġzaj": 6034,
      "Ġwykaza": 6035,
      "Ġinny": 6036,
      "ĠkapÅĤa": 6037,
      "sol": 6038,
      "ĠpowstaÅĤo": 6039,
      "jscy": 6040,
      "Ġpowietrz": 6041,
      "ĠstronÄĻ": 6042,
      "ĠParla": 6043,
      "Ġparafia": 6044,
      "Ġprzyrodni": 6045,
      "Ġdzielnicy": 6046,
      "69": 6047,
      "zju": 6048,
      "Ġzgroma": 6049,
      "tyzm": 6050,
      "ĠWz": 6051,
      "ĠSI": 6052,
      "ĠOj": 6053,
      "Ġwydarzenia": 6054,
      "ĠwiÄĻzie": 6055,
      "Ġtutaj": 6056,
      "Ġserii": 6057,
      "glÄħd": 6058,
      "Ġprzedstawicieli": 6059,
      "wansowa": 6060,
      "Ġprzyrody": 6061,
      "Ġidenty": 6062,
      "ciÅĤa": 6063,
      "nomii": 6064,
      "ĠbrÄħ": 6065,
      "ĠPSL": 6066,
      "Ġucz": 6067,
      "ĠkoÅĤo": 6068,
      "czeb": 6069,
      "ĠNowa": 6070,
      "Ġkontek": 6071,
      "Ġsakra": 6072,
      "ĠBoÅ¼e": 6073,
      "ĠbogÃ³w": 6074,
      "Ġ1968": 6075,
      "ĠwÅĤasne": 6076,
      "Ġadre": 6077,
      "ĠkoÅĽcio": 6078,
      "Ġwybuchu": 6079,
      "Ġszlache": 6080,
      "liwi": 6081,
      "rzeniem": 6082,
      "ÅĦscy": 6083,
      "ĠSh": 6084,
      "tos": 6085,
      "zyg": 6086,
      "ciera": 6087,
      "rium": 6088,
      "ĠSzwajcar": 6089,
      "ĠpoczÄħtk": 6090,
      "ĠPartia": 6091,
      "skryp": 6092,
      "97": 6093,
      "ĠpodziaÅĤu": 6094,
      "gosÅĤa": 6095,
      "tacza": 6096,
      "Ġmomencie": 6097,
      "seudo": 6098,
      "ktura": 6099,
      "ĠokreÅĽlenia": 6100,
      "ĠGrecji": 6101,
      "ĠpojawiÅĤy": 6102,
      "Ġpraktyce": 6103,
      "92": 6104,
      "TP": 6105,
      "ĠuwzglÄĻ": 6106,
      "ĠAb": 6107,
      "Ġobja": 6108,
      "Ġ1936": 6109,
      "Ġhistoria": 6110,
      "ĠchociaÅ¼": 6111,
      "ĠPartii": 6112,
      "ĠpodkreÅĽla": 6113,
      "CD": 6114,
      "ib": 6115,
      "ĠrzÄĻdu": 6116,
      "strak": 6117,
      "arda": 6118,
      "Ġzaraz": 6119,
      "cal": 6120,
      "ĠnowÄħ": 6121,
      "ĠMorza": 6122,
      "ĠwiÄĻkszej": 6123,
      "ĠWarszawskiego": 6124,
      "Ġrozpoczyna": 6125,
      "Ġport": 6126,
      "ĠczÄħsteczek": 6127,
      "44": 6128,
      "SC": 6129,
      "dnym": 6130,
      "gdzie": 6131,
      "nastu": 6132,
      "niÅĤa": 6133,
      "Ġzba": 6134,
      "Ġzwany": 6135,
      "cjusz": 6136,
      "Ġfer": 6137,
      "ĠprzywÃ³d": 6138,
      "ĠTh": 6139,
      "ĠHal": 6140,
      "ĠZam": 6141,
      "Ġrozpozna": 6142,
      "ĠuwaÅ¼aÅĤ": 6143,
      "ĠpoÅĤudniu": 6144,
      "ĠLondynie": 6145,
      "36": 6146,
      "chii": 6147,
      "raÅ¼": 6148,
      "Ġdostarcza": 6149,
      "Ġchor": 6150,
      "mianie": 6151,
      "ĠXII": 6152,
      "Ġkompi": 6153,
      "Ġdynami": 6154,
      "Ġjednozna": 6155,
      "ĠgÅĤÃ³wnego": 6156,
      "Ġjednostka": 6157,
      "Ġskupi": 6158,
      "ĠNarodowej": 6159,
      "Ġhebra": 6160,
      "ĠodbyÅĤ": 6161,
      "ĠksiÄħÅ¼ki": 6162,
      "ĠAfryki": 6163,
      "ÅĽwiet": 6164,
      "listÃ³w": 6165,
      "Ġimienia": 6166,
      "Ġpost": 6167,
      "Ġazo": 6168,
      "padek": 6169,
      "Ġraczej": 6170,
      "ĠMedy": 6171,
      "Ġprzypadkach": 6172,
      "ĠJuli": 6173,
      "Ġzdania": 6174,
      "Ġpiechoty": 6175,
      "ĠStary": 6176,
      "ĠnawiÄħ": 6177,
      "stanie": 6178,
      "lak": 6179,
      "tet": 6180,
      "Ġkole": 6181,
      "ĠMis": 6182,
      "ĠBor": 6183,
      "ĠJowi": 6184,
      "Ġrelacji": 6185,
      "Ġtakiego": 6186,
      "Ġpatr": 6187,
      "cono": 6188,
      "Ġstanowiska": 6189,
      "ĠĠĠĠĠĠĠ": 6190,
      "Ġskra": 6191,
      "Ġpozostaje": 6192,
      "ĠNarodÃ³w": 6193,
      "ĠpisaÅĤ": 6194,
      "ĠpoÅĤoÅ¼one": 6195,
      "ĠÅºrÃ³dÅĤem": 6196,
      "Ġwarunki": 6197,
      "ĠwojewÃ³dztwie": 6198,
      "Ġwynalaz": 6199,
      "iusza": 6200,
      "ien": 6201,
      "Ġpry": 6202,
      "naczej": 6203,
      "ligen": 6204,
      "jewÃ³dz": 6205,
      "ming": 6206,
      "ĠSek": 6207,
      "Ġkorzy": 6208,
      "Ġodno": 6209,
      "wica": 6210,
      "zanty": 6211,
      "ĠIP": 6212,
      "Ġnajwy": 6213,
      "Ġorienta": 6214,
      "Ġlot": 6215,
      "Ġtermi": 6216,
      "ĠpapieÅ¼a": 6217,
      "owanej": 6218,
      "ĠwystÄħpie": 6219,
      "Ġfron": 6220,
      "ĠobsÅĤugi": 6221,
      "ĠtoÅ¼sa": 6222,
      "dowanie": 6223,
      "ĠNiektÃ³re": 6224,
      "Ġ1934": 6225,
      "ĠWiki": 6226,
      "ĠMieszka": 6227,
      "Ġurodzeni": 6228,
      "Ġprzeprowadza": 6229,
      "ĠkrzyÅ¼": 6230,
      "Ġpromieniowania": 6231,
      "46": 6232,
      "Fran": 6233,
      "Soli": 6234,
      "lary": 6235,
      "ps": 6236,
      "nizacji": 6237,
      "nistÃ³w": 6238,
      "Ġswych": 6239,
      "cedo": 6240,
      "danie": 6241,
      "kur": 6242,
      "matÃ³w": 6243,
      "ĠKro": 6244,
      "Ġkore": 6245,
      "ĠCzy": 6246,
      "ĠPodobnie": 6247,
      "Ġindu": 6248,
      "ĠNagroda": 6249,
      "ĠJerzego": 6250,
      "187": 6251,
      "ĠLitera": 6252,
      "ĠczÄĻstot": 6253,
      "Ġzwyk": 6254,
      "ĠwrzeÅĽ": 6255,
      "Ġzdaniem": 6256,
      "ĠogÃ³": 6257,
      "ĠJohan": 6258,
      "88": 6259,
      "zn": 6260,
      "Ġtow": 6261,
      "Ġpomia": 6262,
      "Ġwymieni": 6263,
      "Ġprzetr": 6264,
      "techni": 6265,
      "tologia": 6266,
      "lonia": 6267,
      "Ġwodzie": 6268,
      "Ġmarsza": 6269,
      "Ġtury": 6270,
      "ĠposiadajÄħ": 6271,
      "ĠBeski": 6272,
      "ĠÅĽciÅĽle": 6273,
      "Ġgranicach": 6274,
      "ĠtreÅĽci": 6275,
      "as": 6276,
      "Å¼ar": 6277,
      "Ġdocho": 6278,
      "Ġprzekro": 6279,
      "wiÄĩ": 6280,
      "czem": 6281,
      "Ġfone": 6282,
      "Ġrozkaz": 6283,
      "Ġkonserwa": 6284,
      "Ġmarcu": 6285,
      "Ġproducen": 6286,
      "Ġdrob": 6287,
      "ĠZjednoczone": 6288,
      "Ġsilnie": 6289,
      "synte": 6290,
      "cle": 6291,
      "ĠÄ": 6292,
      "Ġpoci": 6293,
      "ĠNar": 6294,
      "ĠEmi": 6295,
      "Ġ2023": 6296,
      "ĠplacÃ³w": 6297,
      "Ġsystemy": 6298,
      "Ġwysoko": 6299,
      "Ġmetod": 6300,
      "Ġdemokra": 6301,
      "spira": 6302,
      "Ġepoki": 6303,
      "Solidar": 6304,
      "con": 6305,
      "idy": 6306,
      "ĠPortu": 6307,
      "Ġzawie": 6308,
      "Ġaspe": 6309,
      "ĠgwaÅĤ": 6310,
      "dok": 6311,
      "Ġjaz": 6312,
      "Ġznak": 6313,
      "pienia": 6314,
      "Ġbogi": 6315,
      "szoÅĽci": 6316,
      "Ġspecyfi": 6317,
      "Ġstosowany": 6318,
      "ĠpracowaÅĤ": 6319,
      "Ġszac": 6320,
      "Ġmilitar": 6321,
      "ĠzaczÄĻÅĤa": 6322,
      "ĠzespoÅĤu": 6323,
      "ĠKarola": 6324,
      "Ġpotrafi": 6325,
      "ĠzÅĤ": 6326,
      "Ġzwane": 6327,
      "Å¼ono": 6328,
      "Ġpory": 6329,
      "Ġapara": 6330,
      "ĠprzyjÄħÅĤ": 6331,
      "moÅĽci": 6332,
      "ĠpozostaÅĤe": 6333,
      "ĠÅĽrodkÃ³w": 6334,
      "ĠpiÄĻciu": 6335,
      "Ġitd": 6336,
      "braz": 6337,
      "Ġps": 6338,
      "Ġwskutek": 6339,
      "leniu": 6340,
      "cina": 6341,
      "Ġprzekazywa": 6342,
      "Ġczu": 6343,
      "ĠmogÅĤa": 6344,
      "ulka": 6345,
      "Å¼onym": 6346,
      "Ġprocesie": 6347,
      "Ġwalk": 6348,
      "Ġfizyki": 6349,
      "ĠksztaÅĤt": 6350,
      "ĠWojciech": 6351,
      "ĠwrzeÅĽniu": 6352,
      "%)": 6353,
      "boru": 6354,
      "grzy": 6355,
      "waniem": 6356,
      "lanie": 6357,
      "Ġlitur": 6358,
      "Ġkal": 6359,
      "ĠspÄĻ": 6360,
      "ĠcaÅĤe": 6361,
      "Ġwarstw": 6362,
      "Ġsocjo": 6363,
      "ĠzachÃ³d": 6364,
      "Ġidei": 6365,
      "ĠAleksandra": 6366,
      "tografi": 6367,
      "Ġtransport": 6368,
      "Ġewolucji": 6369,
      "limpi": 6370,
      "Ġuchwa": 6371,
      "ĠbezpieczeÅĦstwa": 6372,
      "Ġprzekracza": 6373,
      "towaÅĤa": 6374,
      "ĠduÅ¼o": 6375,
      "Ġfunkcja": 6376,
      "Ġ1935": 6377,
      "ĠpaÅºdzierniku": 6378,
      "Ġpokoj": 6379,
      "kazujÄħ": 6380,
      "presji": 6381,
      "ĠGdaÅĦsku": 6382,
      "Istnie": 6383,
      "drze": 6384,
      "nkiem": 6385,
      "zny": 6386,
      "dzÄĻ": 6387,
      "ĠbÅĤ": 6388,
      "ĠMeksy": 6389,
      "loka": 6390,
      "Ġmonar": 6391,
      "demi": 6392,
      "ĠrozwaÅ¼a": 6393,
      "ĠgorÄħ": 6394,
      "Ġgodzin": 6395,
      "Ġaustria": 6396,
      "Nazwa": 6397,
      "Ġciem": 6398,
      "Ġodpowiedni": 6399,
      "Ġinformacje": 6400,
      "ĠbÄĻdÄħcy": 6401,
      "ĠtypÃ³w": 6402,
      "Ġanalizy": 6403,
      "ĠPiÅĤsudskiego": 6404,
      "ĠSzwecji": 6405,
      "ĠZostaÅĤ": 6406,
      "ĠUniversity": 6407,
      "ker": 6408,
      "Ġzob": 6409,
      "Ġzrozu": 6410,
      "ĠPZ": 6411,
      "ĠamerykaÅĦski": 6412,
      "ĠAf": 6413,
      "kien": 6414,
      "ĠGwi": 6415,
      "Ġznaki": 6416,
      "Ġkara": 6417,
      "spra": 6418,
      "nictwie": 6419,
      "tkÄĻ": 6420,
      "prost": 6421,
      "Ġdialek": 6422,
      "ĠBerg": 6423,
      "ĠGdyni": 6424,
      "ĠurzÄħdzenia": 6425,
      "ĠPrezyden": 6426,
      "Ġkategorii": 6427,
      "Ġkadencji": 6428,
      "96": 6429,
      "IX": 6430,
      "jskÄħ": 6431,
      "wcÃ³w": 6432,
      "Å¡": 6433,
      "ĠosÅĤa": 6434,
      "ĠWor": 6435,
      "Ġroman": 6436,
      "Ġtakim": 6437,
      "owicz": 6438,
      "ĠgÅĤÃ³wnÄħ": 6439,
      "Ġcyfr": 6440,
      "ĠFrank": 6441,
      "ĠDavi": 6442,
      "Ġmaterii": 6443,
      "Ġidea": 6444,
      "Ġpodobne": 6445,
      "ĠInstytut": 6446,
      "GÅĤÃ³w": 6447,
      "Zna": 6448,
      "zmy": 6449,
      "Ġroma": 6450,
      "pach": 6451,
      "ĠpodjÄħÅĤ": 6452,
      "Ġhindu": 6453,
      "ĠÅ¼ela": 6454,
      "ĠjakÄħ": 6455,
      "ĠZato": 6456,
      "ĠPasca": 6457,
      "sep": 6458,
      "ĠRado": 6459,
      "Ġ1933": 6460,
      "polski": 6461,
      "Ġcier": 6462,
      "Ġ1922": 6463,
      "Ġliteraturze": 6464,
      "Ġstyczniu": 6465,
      "Ġregionu": 6466,
      "Ġizoto": 6467,
      "63": 6468,
      "kowÄħ": 6469,
      "owskim": 6470,
      "lizacja": 6471,
      "Ġuszko": 6472,
      "ĠudostÄĻp": 6473,
      "Ġgerma": 6474,
      "ĠMist": 6475,
      "ĠAs": 6476,
      "ĠNowym": 6477,
      "Ġmasa": 6478,
      "muni": 6479,
      "ĠÅĽcia": 6480,
      "gua": 6481,
      "Pola": 6482,
      "Ġskar": 6483,
      "ĠspoÅĤeczne": 6484,
      "ĠzwiÄħzany": 6485,
      "Ġeksplo": 6486,
      "ÅĦczycy": 6487,
      "ĠczÄħsteczki": 6488,
      "84": 6489,
      "ction": 6490,
      "eli": 6491,
      "gÅĤÃ³w": 6492,
      "izmu": 6493,
      "ÅĤgar": 6494,
      "szono": 6495,
      "ĠAp": 6496,
      "Ġinni": 6497,
      "Ġnajpierw": 6498,
      "Ġbak": 6499,
      "ĠVII": 6500,
      "Ġ1937": 6501,
      "jobraz": 6502,
      "ĠzapoczÄħtkowa": 6503,
      "ght": 6504,
      "ntu": 6505,
      "onie": 6506,
      "nawia": 6507,
      "lania": 6508,
      "ensy": 6509,
      "Ġeu": 6510,
      "Ġrozbudowa": 6511,
      "terii": 6512,
      "Ġkontra": 6513,
      "ĠBaÅĤty": 6514,
      "Ġ1960": 6515,
      "Ġogranicza": 6516,
      "ĠduÅ¼ym": 6517,
      "ĠAugusta": 6518,
      "Ġdwor": 6519,
      "ĠwyjÄħtkiem": 6520,
      "rist": 6521,
      "Î±": 6522,
      "daniem": 6523,
      "Ġnieprze": 6524,
      "ĠGar": 6525,
      "dur": 6526,
      "ĠZo": 6527,
      "sycho": 6528,
      "ĠRegi": 6529,
      "Å¼onego": 6530,
      "ĠAust": 6531,
      "Ġnazywane": 6532,
      "Ġpotrzeby": 6533,
      "Ġzdrowia": 6534,
      "Ġstopniowo": 6535,
      "ou": 6536,
      "piÄĻ": 6537,
      "zÄħd": 6538,
      "Ġner": 6539,
      "nicznych": 6540,
      "ĠKur": 6541,
      "Ġkolum": 6542,
      "ĠMin": 6543,
      "ĠpodrÃ³": 6544,
      "monia": 6545,
      "Ġbazie": 6546,
      "ĠgÅĤÃ³wnej": 6547,
      "Ġgazu": 6548,
      "ĠczÅĤonkowie": 6549,
      "ĠoddziaÅĤÃ³w": 6550,
      "ĠprawosÅĤaw": 6551,
      "metrii": 6552,
      "ĠDziaÅĤa": 6553,
      "ĠPiÅĤsudski": 6554,
      "Wa": 6555,
      "ida": 6556,
      "mowania": 6557,
      "powiada": 6558,
      "strza": 6559,
      "nicze": 6560,
      "Ġpostrzega": 6561,
      "Ġmon": 6562,
      "Ġbry": 6563,
      "Ġgwa": 6564,
      "wii": 6565,
      "ĠmajÄħce": 6566,
      "ĠDow": 6567,
      "dzina": 6568,
      "Ġstawia": 6569,
      "styczny": 6570,
      "Ġgalakty": 6571,
      "Ġ1950": 6572,
      "ĠkaÅ¼da": 6573,
      "Ġelementem": 6574,
      "Ġpoziomu": 6575,
      "100": 6576,
      "way": 6577,
      "Ġzamie": 6578,
      "Ġsprzy": 6579,
      "stÄĻpuje": 6580,
      "Ġ1930": 6581,
      "ĠpÃ³Åºniejszych": 6582,
      "ĠdÅĤugie": 6583,
      "ĠwÅĤasnej": 6584,
      "Ġzwraca": 6585,
      "ĠwynosiÅĤa": 6586,
      "Ġutwory": 6587,
      "ĠznaleÅºÄĩ": 6588,
      "Ġochrony": 6589,
      "ĠMikoÅĤaja": 6590,
      "Ġneutro": 6591,
      "wskich": 6592,
      "Ġkrze": 6593,
      "szczÄĻ": 6594,
      "ĠnastÄħpiÅĤ": 6595,
      "ÅĤania": 6596,
      "zara": 6597,
      "ĠHonor": 6598,
      "Ġwydanie": 6599,
      "Ġaler": 6600,
      "Ġpojaz": 6601,
      "Ġstraj": 6602,
      "Ġchemicznych": 6603,
      "ĠatomÃ³w": 6604,
      "Ġnarodu": 6605,
      "ĠteoriÄĻ": 6606,
      "owniki": 6607,
      "char": 6608,
      "Ġudziela": 6609,
      "tum": 6610,
      "Ġprof": 6611,
      "Ġpacje": 6612,
      "Ġrower": 6613,
      "ĠmieÅĽci": 6614,
      "Ġmianem": 6615,
      "Ġ1949": 6616,
      "ĠwydarzeÅĦ": 6617,
      "ĠterenÃ³w": 6618,
      "ĠprogramÃ³w": 6619,
      "ĠNajwyÅ¼": 6620,
      "ĠWojska": 6621,
      "ĠamerykaÅĦskich": 6622,
      "Ġzadaniem": 6623,
      "ĠcelÃ³w": 6624,
      "Ġscena": 6625,
      "ĠKomitetu": 6626,
      "MS": 6627,
      "nkach": 6628,
      "tÅĤu": 6629,
      "Åģ": 6630,
      "owskich": 6631,
      "netu": 6632,
      "Ġiz": 6633,
      "stawa": 6634,
      "lacjÄĻ": 6635,
      "Ġdopuszcza": 6636,
      "ĠjeÅ¼eli": 6637,
      "Ġnieprzy": 6638,
      "ĠNowej": 6639,
      "ĠPoniewaÅ¼": 6640,
      "dego": 6641,
      "Ġrozdzie": 6642,
      "und": 6643,
      "Ġdrukar": 6644,
      "Ġcon": 6645,
      "Ġkulturze": 6646,
      "ĠszeÅĽÄĩ": 6647,
      "Ġodpowiedzi": 6648,
      "Ġlistopa": 6649,
      "Ġdwudzie": 6650,
      "ĠPiotra": 6651,
      "ĠdÅºwiÄĻk": 6652,
      "Ġokazji": 6653,
      "ĠZbignie": 6654,
      "Polacy": 6655,
      "tujÄħ": 6656,
      "Ġczemu": 6657,
      "ĠCez": 6658,
      "formowa": 6659,
      "obserw": 6660,
      "ĠzaczÄĻto": 6661,
      "ĠbezpoÅĽre": 6662,
      "Ġodwro": 6663,
      "ĠprzeszÅĤoÅĽci": 6664,
      "Ġgrawita": 6665,
      "Ġsierpniu": 6666,
      "Ġzb": 6667,
      "Ġczci": 6668,
      "Ġster": 6669,
      "dzien": 6670,
      "dzieÄĩ": 6671,
      "ĠNale": 6672,
      "Ġzostaje": 6673,
      "ĠpowrÃ³ciÅĤ": 6674,
      "ĠMag": 6675,
      "Ġsoli": 6676,
      "Ġ1983": 6677,
      "Ġteren": 6678,
      "Ġneo": 6679,
      "Ġmniejsze": 6680,
      "Ġinstytucji": 6681,
      "ĠwybrzeÅ¼a": 6682,
      "Pow": 6683,
      "niÅĤy": 6684,
      "ĠPÃ³Åºniej": 6685,
      "Ġwymienia": 6686,
      "szyscy": 6687,
      "Ġsami": 6688,
      "Ġsiedem": 6689,
      "brony": 6690,
      "Ġpodaje": 6691,
      "ĠPeter": 6692,
      "ĠptakÃ³w": 6693,
      "Ġtelewizyj": 6694,
      "ĠFrydery": 6695,
      "Ġindywidual": 6696,
      "towym": 6697,
      "wek": 6698,
      "lery": 6699,
      "Ġupadku": 6700,
      "ĠwyÅ¼ej": 6701,
      "Ġprzeniesi": 6702,
      "kular": 6703,
      "Ġtera": 6704,
      "Ġfu": 6705,
      "Ġprzyjmuje": 6706,
      "ĠIX": 6707,
      "ĠEnig": 6708,
      "Ġzestaw": 6709,
      "ĠDom": 6710,
      "ĠliczbÄħ": 6711,
      "ĠMicro": 6712,
      "ĠÅĽwiatÅĤo": 6713,
      "Ġ1976": 6714,
      "Ġnazywany": 6715,
      "Ġnazwami": 6716,
      "Ġreligijnych": 6717,
      "najmniej": 6718,
      "Ġnumer": 6719,
      "\",": 6720,
      "Transport": 6721,
      "tniej": 6722,
      "Ġkwia": 6723,
      "Ġuczu": 6724,
      "Ġwynik": 6725,
      "Ġprzybli": 6726,
      "Ġjakim": 6727,
      "Ġstaje": 6728,
      "Ġpakie": 6729,
      "isia": 6730,
      "logicznego": 6731,
      "Ġplan": 6732,
      "Ġ75": 6733,
      "Ġpewnych": 6734,
      "Ġwschodzie": 6735,
      "Ġwodoru": 6736,
      "speran": 6737,
      "ĠStefa": 6738,
      "Ġtechnik": 6739,
      "Ġtechniki": 6740,
      "Ġhuma": 6741,
      "Ġlistopadzie": 6742,
      "94": 6743,
      "Ġkto": 6744,
      "ĠPhi": 6745,
      "ĠuzaleÅ¼": 6746,
      "Ġprzechowy": 6747,
      "ĠSk": 6748,
      "ĠAtlanty": 6749,
      "ĠTer": 6750,
      "grafii": 6751,
      "kowana": 6752,
      "bera": 6753,
      "tic": 6754,
      "Ġsojusz": 6755,
      "ĠdrugÄħ": 6756,
      "Ġautory": 6757,
      "Ġwprowadzenie": 6758,
      "ĠniezbÄĻd": 6759,
      "ĠÂ«": 6760,
      "Ġdialekty": 6761,
      "ĠOprÃ³cz": 6762,
      "93": 6763,
      "mowanie": 6764,
      "urea": 6765,
      "Ġzro": 6766,
      "rzod": 6767,
      "Ġwymie": 6768,
      "ĠAte": 6769,
      "Ġprzypada": 6770,
      "Ġwielokrotnie": 6771,
      "Ġwzrostu": 6772,
      "ĠprÄĻdkoÅĽÄĩ": 6773,
      "Pre": 6774,
      "vy": 6775,
      "owu": 6776,
      "Ġzle": 6777,
      "Ġuto": 6778,
      "Ġgli": 6779,
      "Ġniekiedy": 6780,
      "ÅĤymi": 6781,
      "ĠBen": 6782,
      "ĠwieÅĽ": 6783,
      "piec": 6784,
      "Ġarcy": 6785,
      "Ġbarw": 6786,
      "Ġ1979": 6787,
      "ĠAmeryce": 6788,
      "ĠWilliam": 6789,
      "ĠsformuÅĤ": 6790,
      "Wiel": 6791,
      "Ġks": 6792,
      "Ġpokre": 6793,
      "gon": 6794,
      "nos": 6795,
      "Ġglo": 6796,
      "szeniu": 6797,
      "ĠstanÃ³w": 6798,
      "ĠFried": 6799,
      "Ġznana": 6800,
      "Ġkapli": 6801,
      "ung": 6802,
      "Ġsied": 6803,
      "ĠfaÅĤ": 6804,
      "sÅĤowa": 6805,
      "Ġ1969": 6806,
      "ĠbÄĻdÄħce": 6807,
      "Ġtemperaturze": 6808,
      "Ġwskaza": 6809,
      "pospolita": 6810,
      "Przed": 6811,
      "Ġwybrany": 6812,
      "ĠprzewodniczÄħ": 6813,
      "ĠONZ": 6814,
      "ĠJerozoli": 6815,
      "Ġtur": 6816,
      "line": 6817,
      "Ġnagra": 6818,
      "jami": 6819,
      "Ġusu": 6820,
      "Ġwytwo": 6821,
      "ĠKiel": 6822,
      "wione": 6823,
      "Ġobni": 6824,
      "Ġliczeb": 6825,
      "Ġsyla": 6826,
      "ralnÄħ": 6827,
      "Ġsuper": 6828,
      "ĠTeo": 6829,
      "Ġzachodzie": 6830,
      "Ġwprowadzono": 6831,
      "Ġliteratura": 6832,
      "ĠÅĽrednio": 6833,
      "Ġdecyzji": 6834,
      "Ġeuropejskich": 6835,
      "solwen": 6836,
      "tkÄħ": 6837,
      "Ġpostu": 6838,
      "ĠDie": 6839,
      "Ġinnej": 6840,
      "Ġstatus": 6841,
      "unku": 6842,
      "ĠgaÅĤÄĻ": 6843,
      "Ġrysu": 6844,
      "Ġ1988": 6845,
      "Ġkwadra": 6846,
      "ĠwielkoÅĽÄĩ": 6847,
      "Ġmechanizm": 6848,
      "ÅĦczykÃ³w": 6849,
      "ĠÅĽcis": 6850,
      "Ġwspomina": 6851,
      "ĠniezaleÅ¼nie": 6852,
      "ĠogÅĤosiÅĤ": 6853,
      "DziaÅĤa": 6854,
      "41": 6855,
      "81": 6856,
      "Co": 6857,
      "MP": 6858,
      "dnej": 6859,
      "stre": 6860,
      "owanego": 6861,
      "Ġgi": 6862,
      "Ġtematy": 6863,
      "gazy": 6864,
      "ĠKara": 6865,
      "Ġdruga": 6866,
      "ĠzaÅĤoÅ¼enia": 6867,
      "ĠiloÅĽÄĩ": 6868,
      "Ġzjawisko": 6869,
      "Ġãģ": 6870,
      "niny": 6871,
      "nemu": 6872,
      "Ġtwar": 6873,
      "Ġnasi": 6874,
      "Ġustro": 6875,
      "Ġwymia": 6876,
      "Ġgmi": 6877,
      "Ġkomen": 6878,
      "logu": 6879,
      "ĠBli": 6880,
      "Ġlist": 6881,
      "Ġprosto": 6882,
      "Ġlega": 6883,
      "demia": 6884,
      "Ġorganizacja": 6885,
      "ĠSocja": 6886,
      "ĠPiS": 6887,
      "Ġnatury": 6888,
      "Ġwielkich": 6889,
      "ĠpozycjÄĻ": 6890,
      "ĠÅ¼ona": 6891,
      "Ġpolitycznej": 6892,
      "Ġetno": 6893,
      "lda": 6894,
      "ston": 6895,
      "Ġprzesta": 6896,
      "Ġgmina": 6897,
      "zasa": 6898,
      "ĠDÅĤu": 6899,
      "Ġmodu": 6900,
      "Ġkated": 6901,
      "Ġchwili": 6902,
      "ĠktÃ³rymi": 6903,
      "rÄĻcz": 6904,
      "Ġwzo": 6905,
      "Ġwid": 6906,
      "Ġ1974": 6907,
      "ĠobecnoÅĽci": 6908,
      "Ġustanowi": 6909,
      "ĠnajwiÄĻkszÄħ": 6910,
      "ĠdokÅĤadnie": 6911,
      "ET": 6912,
      "zjo": 6913,
      "|-": 6914,
      "Ġosi": 6915,
      "Ġunika": 6916,
      "tarza": 6917,
      "dej": 6918,
      "bili": 6919,
      "Ġ37": 6920,
      "ĠwzÃ³r": 6921,
      "ella": 6922,
      "ĠuÅ¼ycia": 6923,
      "ĠMickie": 6924,
      "Ġfabry": 6925,
      "odrÄĻb": 6926,
      "Ġ1957": 6927,
      "Ġostate": 6928,
      "Ġdodatkowo": 6929,
      "ĠobszarÃ³w": 6930,
      "Ġniezwy": 6931,
      "ĠBydgoszcz": 6932,
      "ĠurzÄħdzeÅĦ": 6933,
      "Ġrzadko": 6934,
      "tnoÅĽÄĩ": 6935,
      "ĠwÅĤÃ³": 6936,
      "ceum": 6937,
      "Ġwydzie": 6938,
      "ĠprzestÄĻp": 6939,
      "popular": 6940,
      "wien": 6941,
      "ĠDÄħb": 6942,
      "fil": 6943,
      "niejszym": 6944,
      "ĠmetrÃ³w": 6945,
      "jsc": 6946,
      "Ġwizy": 6947,
      "ĠpiÄħ": 6948,
      "ĠrÃ³Å¼niÄħ": 6949,
      "ĠsÅĤuÅ¼y": 6950,
      "ĠmetodÄħ": 6951,
      "ĠzajmujÄħ": 6952,
      "Ġzaledwie": 6953,
      "Ġdwuk": 6954,
      "Ġproblemy": 6955,
      "Ġ&": 6956,
      "Ġpseudo": 6957,
      "koznaw": 6958,
      "Ġgar": 6959,
      "ĠArab": 6960,
      "ĠGÃ³ry": 6961,
      "Ġsama": 6962,
      "ĠuÅ¼ytku": 6963,
      "Ġalterna": 6964,
      "ĠInne": 6965,
      "ĠuÅ¼ywana": 6966,
      "Ġ1984": 6967,
      "Ġsamych": 6968,
      "ĠSÅĤone": 6969,
      "Ġokolicach": 6970,
      "Ġkampanii": 6971,
      "lopedia": 6972,
      "Ġdystrybu": 6973,
      "krÄĻ": 6974,
      "tri": 6975,
      "Ã³rek": 6976,
      "liczne": 6977,
      "wodaw": 6978,
      "Ġodmiany": 6979,
      "sal": 6980,
      "ĠDNA": 6981,
      "Ġbywa": 6982,
      "ĠObywa": 6983,
      "kÄħd": 6984,
      "ĠjednakÅ¼e": 6985,
      "ĠWyÅ¼": 6986,
      "rÃ³dmie": 6987,
      "ĠVIII": 6988,
      "czesne": 6989,
      "Ġjedynym": 6990,
      "ĠzakoÅĦczeniu": 6991,
      "Ġocea": 6992,
      "ĠznalazÅĤ": 6993,
      "ĠporÃ³wnaniu": 6994,
      "Ġpremiera": 6995,
      "ĠCesarstwa": 6996,
      "ĠmusiaÅĤ": 6997,
      "jnego": 6998,
      "zon": 6999,
      "Ġnagrody": 7000,
      "arium": 7001,
      "owanym": 7002,
      "nopo": 7003,
      "Ġuprze": 7004,
      "ĠprzeÅ¼y": 7005,
      "ĠDia": 7006,
      "ĠHistory": 7007,
      "westy": 7008,
      "Ġ36": 7009,
      "ĠJadwi": 7010,
      "Ġgaze": 7011,
      "Ġustawy": 7012,
      "ĠHitle": 7013,
      "Ġhistoryczne": 7014,
      "Ġdwutle": 7015,
      "Ġgatunki": 7016,
      "ĠGrudziÄħ": 7017,
      "ĠchÅĤop": 7018,
      "Ġmonety": 7019,
      "ĠpowyÅ¼": 7020,
      "Ġdwoma": 7021,
      "ĠczÄħstek": 7022,
      "ĠImperium": 7023,
      "Ġzamordowa": 7024,
      "ĠuczniÃ³w": 7025,
      "09": 7026,
      "47": 7027,
      "cm": 7028,
      "kcjÄħ": 7029,
      "chco": 7030,
      "Ġzbo": 7031,
      "Ġoch": 7032,
      "Ġpokar": 7033,
      "Ġmen": 7034,
      "ciw": 7035,
      "pota": 7036,
      "ĠMona": 7037,
      "inga": 7038,
      "niejszy": 7039,
      "ĠjakoÅĽci": 7040,
      "zujÄħce": 7041,
      "ĠMaÅĤo": 7042,
      "ĠInforma": 7043,
      "ĠspoÅĤecznej": 7044,
      "Ġuznaje": 7045,
      "ĠdecyzjÄĻ": 7046,
      "Ġobozu": 7047,
      "Ġmatematyki": 7048,
      "ĠstolicÄħ": 7049,
      "Ġpiosen": 7050,
      "ĠgwaÅĤtow": 7051,
      "SO": 7052,
      "czonÄħ": 7053,
      "Å¼nej": 7054,
      "Ġinaczej": 7055,
      "kacja": 7056,
      "ĠDP": 7057,
      "mona": 7058,
      "Ġstacji": 7059,
      "Ġrozum": 7060,
      "ĠNau": 7061,
      "ĠRobert": 7062,
      "ĠpowstaÅĦ": 7063,
      "ĠÅ»e": 7064,
      "Ġbieg": 7065,
      "Ġdrewnia": 7066,
      "ĠArystote": 7067,
      "ĠCzÄĻÅĽÄĩ": 7068,
      "isiaj": 7069,
      "82": 7070,
      "Ha": 7071,
      "ben": 7072,
      "era": 7073,
      "zar": 7074,
      "Ġben": 7075,
      "ĠPÃ³ÅĤ": 7076,
      "tymi": 7077,
      "Ġfun": 7078,
      "Ġstrze": 7079,
      "Ġmody": 7080,
      "ĠstaÅĤe": 7081,
      "nÄĻli": 7082,
      "Ġoper": 7083,
      "ĠTele": 7084,
      "Ġkultura": 7085,
      "Ġ1951": 7086,
      "Ġnaukowe": 7087,
      "ĠBrazy": 7088,
      "ĠAndrzeja": 7089,
      "ĠWrocÅĤaw": 7090,
      "Ġwspomnia": 7091,
      "87": 7092,
      "sjo": 7093,
      "stwy": 7094,
      "Ġocze": 7095,
      "nei": 7096,
      "kacje": 7097,
      "tywi": 7098,
      "Ġust": 7099,
      "rzyÅĤa": 7100,
      "ĠrosnÄħ": 7101,
      "Ġmagi": 7102,
      "ÅĤuje": 7103,
      "ĠmogÅĤo": 7104,
      "Ġwolno": 7105,
      "kowanych": 7106,
      "ĠMax": 7107,
      "Ġfigu": 7108,
      "ĠrÃ³Å¼nice": 7109,
      "ĠdruÅ¼y": 7110,
      "ĠWojewÃ³dz": 7111,
      "ĠprowadziÅĤ": 7112,
      "Ġ1926": 7113,
      "ĠJuÅ¼": 7114,
      "Ġrodzaje": 7115,
      "ĠPrawo": 7116,
      "Ġgatunku": 7117,
      "ĠwarunkÃ³w": 7118,
      "ĠLudowej": 7119,
      "Ġzamieszki": 7120,
      "Ġuniwersa": 7121,
      "Ġpierwotnie": 7122,
      "ĠstwierdziÅĤ": 7123,
      "Ġkosmo": 7124,
      "ĠKarol": 7125,
      "Ġuzbroje": 7126,
      "Ġpraktycznie": 7127,
      "jechaÅĤ": 7128,
      "Ġdokony": 7129,
      "ĠOgÃ³lno": 7130,
      "57": 7131,
      "ide": 7132,
      "Ġwulka": 7133,
      "niona": 7134,
      "Å¼ne": 7135,
      "Ġzaprze": 7136,
      "Ġzaobserw": 7137,
      "mara": 7138,
      "ĠBiaÅĤ": 7139,
      "ĠPozosta": 7140,
      "mentem": 7141,
      "bliÅ¼": 7142,
      "Ġdel": 7143,
      "ulti": 7144,
      "chami": 7145,
      "ĠPaweÅĤ": 7146,
      "ĠÅ¼yw": 7147,
      "Ġwydania": 7148,
      "PrzykÅĤad": 7149,
      "Ġzachodzi": 7150,
      "ĠczeÅĽÄĩ": 7151,
      "ĠnastÄĻpuje": 7152,
      "Ġwojennych": 7153,
      "Ġprawdopodobie": 7154,
      "Ġosiem": 7155,
      "ĠoÅĽrodkiem": 7156,
      "ĠStron": 7157,
      "ĠFestiwal": 7158,
      "Ġpoezji": 7159,
      "ĠusÅĤug": 7160,
      "ĠPZPR": 7161,
      "54": 7162,
      "glu": 7163,
      "sÄĻ": 7164,
      "Ġsia": 7165,
      "Ġwyklu": 7166,
      "ĠKry": 7167,
      "wiu": 7168,
      "ĠCla": 7169,
      "pina": 7170,
      "Ġety": 7171,
      "cus": 7172,
      "ĠRoman": 7173,
      "Ġwszystko": 7174,
      "ĠgÅĤÃ³wny": 7175,
      "ĠByÅĤa": 7176,
      "Ġprogrami": 7177,
      "Ġ1967": 7178,
      "Ġkwas": 7179,
      "ĠPierwszy": 7180,
      "Ġzreali": 7181,
      "ĠwÄħt": 7182,
      "Ġobserwacji": 7183,
      "Ġofiar": 7184,
      "Ġdotyczy": 7185,
      "obecnie": 7186,
      "sje": 7187,
      "Ġ{": 7188,
      "naleÅ¼": 7189,
      "ciÃ³ÅĤ": 7190,
      "cel": 7191,
      "lot": 7192,
      "Ġrozmai": 7193,
      "ĠKosza": 7194,
      "Ġ47": 7195,
      "ĠmiÄĻdzywojen": 7196,
      "Ġplanet": 7197,
      "ĠuznaÅĤ": 7198,
      "ĠWito": 7199,
      "ĠszczegÃ³ÅĤ": 7200,
      "Ġoparte": 7201,
      "Ġprzyczyn": 7202,
      "Ġangielski": 7203,
      "ĠKsiÄĻÅ¼yca": 7204,
      "ĠpowierzchniÄĻ": 7205,
      "Lau": 7206,
      "bru": 7207,
      "Ġopis": 7208,
      "ĠnawiÄħza": 7209,
      "cjon": 7210,
      "Ġ1914": 7211,
      "Ġprzyspie": 7212,
      "ĠczÄĻÅĽciej": 7213,
      "Ġmetali": 7214,
      "logiczna": 7215,
      "nowano": 7216,
      "Ġ1962": 7217,
      "Ġmld": 7218,
      "Ġnaturalne": 7219,
      "ĠprzyczynÄħ": 7220,
      "Ġhandlu": 7221,
      "ĠDlatego": 7222,
      "ĠGdaÅĦsk": 7223,
      "prawdopodob": 7224,
      "gl": 7225,
      "gr": 7226,
      "chno": 7227,
      "ĠRzÄħd": 7228,
      "ĠPoza": 7229,
      "ĠOpera": 7230,
      "ĠTro": 7231,
      "ĠToru": 7232,
      "Ġlinia": 7233,
      "Ġpropozy": 7234,
      "Ġnic": 7235,
      "Ġznajo": 7236,
      "Ġimperium": 7237,
      "Ġpochodzenie": 7238,
      "Å¼onej": 7239,
      "Ġkolejny": 7240,
      "ĠColle": 7241,
      "Ġgwiazdoz": 7242,
      "ĠpodstawÄħ": 7243,
      "Ġhero": 7244,
      "Ġwschodniej": 7245,
      "ĠciaÅĤ": 7246,
      "Ġstudi": 7247,
      "Ġideo": 7248,
      "ĠprzykÅĤadem": 7249,
      "ĠKomisji": 7250,
      "Ġzaata": 7251,
      "ĠMichaÅĤ": 7252,
      "ĠuÅ¼ytkownikÃ³w": 7253,
      "onych": 7254,
      "ÅĤowe": 7255,
      "ÅĽmy": 7256,
      "ĠwyodrÄĻb": 7257,
      "czyk": 7258,
      "szyÅĤa": 7259,
      "desa": 7260,
      "deracji": 7261,
      "bytu": 7262,
      "ĠNapole": 7263,
      "Ġgranica": 7264,
      "przestrze": 7265,
      "ĠMoÅ¼na": 7266,
      "Ġ1986": 7267,
      "Ġpanu": 7268,
      "Ġrzymskiego": 7269,
      "Ġdobre": 7270,
      "ziono": 7271,
      "ĠPlatona": 7272,
      "1945": 7273,
      "Ġbudynek": 7274,
      "83": 7275,
      "Gra": 7276,
      "He": 7277,
      "War": 7278,
      "lsze": 7279,
      "ownicy": 7280,
      "Ġorze": 7281,
      "Ġpolu": 7282,
      "Ġuprawia": 7283,
      "Ġwyru": 7284,
      "Ġstowarzy": 7285,
      "Ġmatki": 7286,
      "ĠmaÅĤych": 7287,
      "Ġchroni": 7288,
      "ĠmuszÄħ": 7289,
      "Ġnoc": 7290,
      "Ġniemieckim": 7291,
      "Ġ1987": 7292,
      "ĠfilmÃ³w": 7293,
      "ĠKrzyÅ¼em": 7294,
      "ĠsÅĤabo": 7295,
      "Ġszeroko": 7296,
      "ĠAfryce": 7297,
      "Ġstrefy": 7298,
      "Ġkontynenta": 7299,
      "ĠHitchco": 7300,
      "Ġczasopis": 7301,
      "chÃ³d": 7302,
      "nieÅĦ": 7303,
      "ÅĽÅĦ": 7304,
      "Ġir": 7305,
      "rzest": 7306,
      "kan": 7307,
      "ĠPÅĤo": 7308,
      "Ġzakres": 7309,
      "Ġrocznie": 7310,
      "ĠAposto": 7311,
      "Ġobcho": 7312,
      "ĠpodporzÄħdkowa": 7313,
      "ĠMatki": 7314,
      "Ġautora": 7315,
      "ferze": 7316,
      "Ġwalu": 7317,
      "ĠrzÄħdy": 7318,
      "ĠzdobyÅĤ": 7319,
      "rzonych": 7320,
      "ĠâĪĴ": 7321,
      "phy": 7322,
      "ĠÅ¼adnych": 7323,
      "Ġfragmenty": 7324,
      "ĠJednoczeÅĽnie": 7325,
      "mowie": 7326,
      "Ġprzod": 7327,
      "rony": 7328,
      "Ġklie": 7329,
      "ĠPy": 7330,
      "Ġzatrzyma": 7331,
      "ĠSal": 7332,
      "macie": 7333,
      "Ġniena": 7334,
      "ĠBla": 7335,
      "ĠBroni": 7336,
      "Ġobej": 7337,
      "ĠliÅĽcie": 7338,
      "Ġresz": 7339,
      "biu": 7340,
      "stoÅĽÄĩ": 7341,
      "ĠwiÄĻksza": 7342,
      "Ġtrafi": 7343,
      "Ġwojskowych": 7344,
      "ĠstworzyÅĤ": 7345,
      "Ġzamieszku": 7346,
      "Ġwykorzystywane": 7347,
      "Ġmodelu": 7348,
      "ĠSÅĤup": 7349,
      "Dy": 7350,
      "tfor": 7351,
      "Ġpr": 7352,
      "stia": 7353,
      "ĠurzÄħd": 7354,
      "ĠwystÄħpi": 7355,
      "Ġwymawia": 7356,
      "Ġprzetwarza": 7357,
      "ĠmaÅĤe": 7358,
      "ĠHel": 7359,
      "Ġlutym": 7360,
      "Ġmiedzi": 7361,
      "boga": 7362,
      "ĠStan": 7363,
      "twor": 7364,
      "Ġ1954": 7365,
      "Ġserwi": 7366,
      "Ġzasadzie": 7367,
      "ĠmateriaÅĤÃ³w": 7368,
      "ĠwiadomoÅĽci": 7369,
      "ĠWikipe": 7370,
      "Ab": 7371,
      "tha": 7372,
      "ĠdrÃ³g": 7373,
      "mion": 7374,
      "Ġumiar": 7375,
      "Ġprzechodzi": 7376,
      "Ġkola": 7377,
      "lonej": 7378,
      "Ġ1917": 7379,
      "Ġszta": 7380,
      "ĠNad": 7381,
      "Ġzostanie": 7382,
      "rand": 7383,
      "ĠPolskÄĻ": 7384,
      "logiÄħ": 7385,
      "sowania": 7386,
      "ĠBogar": 7387,
      "ÅĦskimi": 7388,
      "ĠskrÃ³t": 7389,
      "tywny": 7390,
      "mentami": 7391,
      "Ġnauka": 7392,
      "ĠnowoÅ¼yt": 7393,
      "ĠÅºrÃ³dÅĤo": 7394,
      "ĠreguÅĤy": 7395,
      "ĠsiedzibÄĻ": 7396,
      "ĠumiejÄĻ": 7397,
      "Ġzrezyg": 7398,
      "Ġzaprojekt": 7399,
      "ĠAdama": 7400,
      "sowych": 7401,
      "Ġwszech": 7402,
      "Ġdar": 7403,
      "mira": 7404,
      "Ġaktual": 7405,
      "rur": 7406,
      "czanie": 7407,
      "Ġwodo": 7408,
      "graf": 7409,
      "skokatoli": 7410,
      "Ġ400": 7411,
      "riusz": 7412,
      "ĠArgenty": 7413,
      "Ġkwant": 7414,
      "Ġwielkie": 7415,
      "Ġelementar": 7416,
      "ĠpÅĤyt": 7417,
      "Ġsymbolem": 7418,
      "Ġchemiczny": 7419,
      "Ġreligijne": 7420,
      "ĠGrupa": 7421,
      "Ġmaszyny": 7422,
      "Ġfinan": 7423,
      "Ġsensie": 7424,
      "tia": 7425,
      "tis": 7426,
      "Ġwek": 7427,
      "Ġtzn": 7428,
      "Ġbrz": 7429,
      "Ġdoros": 7430,
      "widÅĤ": 7431,
      "cieÅ¼": 7432,
      "Ġfanta": 7433,
      "giÄħ": 7434,
      "mego": 7435,
      "prowadza": 7436,
      "ĠStany": 7437,
      "ĠRadio": 7438,
      "ĠsÅĤow": 7439,
      "rencji": 7440,
      "Ġwywodzi": 7441,
      "ĠwspÃ³lnoty": 7442,
      "Ġwyspie": 7443,
      "ĠWielkopolski": 7444,
      "ĠMinister": 7445,
      "Ġanarchi": 7446,
      "gÅĤÃ³wnie": 7447,
      "Cha": 7448,
      "pry": 7449,
      "¹rÃ³d": 7450,
      "ÑĮ": 7451,
      "niza": 7452,
      "Ġzbiera": 7453,
      "Ġ120": 7454,
      "Ġwystarcza": 7455,
      "ĠSar": 7456,
      "lonii": 7457,
      "ĠCO": 7458,
      "ĠPomimo": 7459,
      "Ġmagazy": 7460,
      "Ġtaka": 7461,
      "ĠtakÄħ": 7462,
      "toria": 7463,
      "zob": 7464,
      "zmem": 7465,
      "uss": 7466,
      "ĠAuto": 7467,
      "ĠwyraÅº": 7468,
      "Ġwykonaw": 7469,
      "Ġpismo": 7470,
      "Polska": 7471,
      "ĠKanady": 7472,
      "ĠKomitet": 7473,
      "lender": 7474,
      "Cza": 7475,
      "use": 7476,
      "ÅĤku": 7477,
      "Ġzare": 7478,
      "Ġskaza": 7479,
      "Ġnacjona": 7480,
      "lane": 7481,
      "ĠPolona": 7482,
      "ĠZwy": 7483,
      "ĠZgodnie": 7484,
      "Ġtypy": 7485,
      "Ġlinie": 7486,
      "biÃ³r": 7487,
      "ĠNazwa": 7488,
      "Ġdanym": 7489,
      "wiÄĻcej": 7490,
      "ĠprocesÃ³w": 7491,
      "waÅ¼nie": 7492,
      "Ġmorskich": 7493,
      "ĠRyb": 7494,
      "ÅĤowÄĻ": 7495,
      "ĠnapÄĻ": 7496,
      "Ġkonstytucji": 7497,
      "Ġrewolucji": 7498,
      "Ġmitologii": 7499,
      "ezopota": 7500,
      "Ġmarynar": 7501,
      "ĠRzeczpospolita": 7502,
      "Laurea": 7503,
      "WN": 7504,
      "ale": 7505,
      "pin": 7506,
      "sse": 7507,
      "vis": 7508,
      "yo": 7509,
      "zj": 7510,
      "ÅĤowo": 7511,
      "stus": 7512,
      "ÅĤyska": 7513,
      "skiemu": 7514,
      "ĠAdol": 7515,
      "zai": 7516,
      "piÄħ": 7517,
      "Ġwzbu": 7518,
      "kowaÄĩ": 7519,
      "chach": 7520,
      "Ġpiwa": 7521,
      "ĠLeo": 7522,
      "Ġbadaw": 7523,
      "Ġprodukcja": 7524,
      "Ġrodzina": 7525,
      "Ġuczelni": 7526,
      "ĠgrupÄħ": 7527,
      "ĠwskaÅº": 7528,
      "ĠzawartoÅĽci": 7529,
      "Ġinteligen": 7530,
      "Ġkomunikacji": 7531,
      "ĠkomÃ³rki": 7532,
      "ĠproblemÃ³w": 7533,
      "Dem": 7534,
      "ER": 7535,
      "ndyna": 7536,
      "nen": 7537,
      "ĠmÃ³z": 7538,
      "ĠudziaÅĤu": 7539,
      "Ġprzer": 7540,
      "pisÃ³w": 7541,
      "Ġstali": 7542,
      "solu": 7543,
      "czÄħtki": 7544,
      "ĠÅĽwiadomo": 7545,
      "matyka": 7546,
      "ĠodkryÅĤ": 7547,
      "ĠoddziaÅĤywania": 7548,
      "ĠosiÄħgniÄĻ": 7549,
      "Podstaw": 7550,
      "XV": 7551,
      "ĠwÄĻd": 7552,
      "Ġotrzymy": 7553,
      "lion": 7554,
      "nota": 7555,
      "Ġakt": 7556,
      "Ġunik": 7557,
      "Ġwywia": 7558,
      "Ġwyniki": 7559,
      "ĠNowo": 7560,
      "Ġprzywi": 7561,
      "ĠFla": 7562,
      "mych": 7563,
      "ĠchÄĻ": 7564,
      "budowy": 7565,
      "ĠstopieÅĦ": 7566,
      "Ġcodzien": 7567,
      "tywnie": 7568,
      "Ġobiegu": 7569,
      "Ġbrata": 7570,
      "ĠnajwiÄĻkszy": 7571,
      "ĠwspÃ³lnie": 7572,
      "ĠwÄĻgier": 7573,
      "Ġplaneto": 7574,
      "Ġzakresu": 7575,
      "ĠprzejÅĽci": 7576,
      "ĠpierwiastkÃ³w": 7577,
      "Ġpowinien": 7578,
      "ĠAustrii": 7579,
      "prawdopodobniej": 7580,
      "49": 7581,
      "59": 7582,
      "62": 7583,
      "For": 7584,
      "ML": 7585,
      "blo": 7586,
      "Å¼onÄħ": 7587,
      "Ġmio": 7588,
      "leniem": 7589,
      "bisku": 7590,
      "czoÅĽÄĩ": 7591,
      "ĠChor": 7592,
      "ĠrÃ³Å¼nic": 7593,
      "dobne": 7594,
      "Ġ1932": 7595,
      "ĠXXI": 7596,
      "Ġenergia": 7597,
      "ĠBiblii": 7598,
      "1939": 7599,
      "Ġodrzuca": 7600,
      "Ġzmniejsza": 7601,
      "Ġopozycji": 7602,
      "ĠOficja": 7603,
      "ĠKrzysztof": 7604,
      "Cho": 7605,
      "zowania": 7606,
      "Î¿": 7607,
      "Ġwin": 7608,
      "Ġwkro": 7609,
      "jestrowa": 7610,
      "ĠWszystkie": 7611,
      "teli": 7612,
      "ĠoddziaÅĤ": 7613,
      "Ġodniesie": 7614,
      "Ġmani": 7615,
      "Ġrenesa": 7616,
      "ĠrozciÄħga": 7617,
      "Ġrozpowszech": 7618,
      "Ġdelega": 7619,
      "ĠRosyj": 7620,
      "ĠJames": 7621,
      "Ġwaha": 7622,
      "ĠdÅĤuÅ¼": 7623,
      "ĠAnna": 7624,
      "Ġpewnym": 7625,
      "Ġpisarz": 7626,
      "Ġkwietniu": 7627,
      "ĠudziaÅĤem": 7628,
      "merica": 7629,
      "Ġumieszcza": 7630,
      "ĠgeneraÅĤa": 7631,
      "Ġprotoko": 7632,
      "ĠposÅĤugi": 7633,
      "Ġobywateli": 7634,
      "ĠdowÃ³dztwem": 7635,
      "wÃ³w": 7636,
      "Ġpiel": 7637,
      "Ġwer": 7638,
      "Ġzjedno": 7639,
      "Ġspad": 7640,
      "rost": 7641,
      "new": 7642,
      "leje": 7643,
      "ĠczÅĤo": 7644,
      "ĠAby": 7645,
      "Ġteat": 7646,
      "mierz": 7647,
      "Ġobwo": 7648,
      "paty": 7649,
      "ĠGwiaz": 7650,
      "Ġlicen": 7651,
      "ĠHy": 7652,
      "ĠszczÄĻ": 7653,
      "ĠChin": 7654,
      "Ġduchow": 7655,
      "ĠorganizmÃ³w": 7656,
      "Ġ1955": 7657,
      "Ġstosowana": 7658,
      "Ġsprawy": 7659,
      "ĠstrukturÄĻ": 7660,
      "ĠogÃ³ÅĤ": 7661,
      "NajwiÄĻk": 7662,
      "ĠBrytania": 7663,
      "Ġpokoju": 7664,
      "ĠkomputerÃ³w": 7665,
      "ĠrozwiÄħzania": 7666,
      "Ġemo": 7667,
      "rÃ³ciÄĩ": 7668,
      "ĠuÅĤat": 7669,
      "91": 7670,
      "No": 7671,
      "ÃĹ": 7672,
      "czar": 7673,
      "Ġpota": 7674,
      "stami": 7675,
      "kara": 7676,
      "Ġzatwier": 7677,
      "mir": 7678,
      "kiewicza": 7679,
      "owice": 7680,
      "biÄĩ": 7681,
      "ĠjÄĻzykami": 7682,
      "Ġwarstwy": 7683,
      "Ġ1973": 7684,
      "Ġ1964": 7685,
      "ĠwÅĤasnego": 7686,
      "ĠnaukÄĻ": 7687,
      "Ġpublicznej": 7688,
      "ĠzawierajÄħce": 7689,
      "ĠmniejszoÅĽci": 7690,
      "Ġsprawia": 7691,
      "ĠmÅĤod": 7692,
      "Ġregionie": 7693,
      "Ġwskazuje": 7694,
      "Ġoparciu": 7695,
      "ĠStefan": 7696,
      "ĠwspÃ³ÅĤczesnej": 7697,
      "ĠPierwsze": 7698,
      "ĠdotyczÄħcych": 7699,
      "Ġopinii": 7700,
      "Ġzauwa": 7701,
      "ĠOrganizacji": 7702,
      "Ġhrabstwie": 7703,
      "BSD": 7704,
      "Dla": 7705,
      "smo": 7706,
      "ĠtÄħ": 7707,
      "lec": 7708,
      "Ġzakon": 7709,
      "org": 7710,
      "rzyli": 7711,
      "mali": 7712,
      "Ġpropor": 7713,
      "Ġwzniesi": 7714,
      "Ġczasami": 7715,
      "sponden": 7716,
      "ĠMiÅĤo": 7717,
      "ĠLeg": 7718,
      "ĠsamorzÄħd": 7719,
      "Ġ1972": 7720,
      "mienne": 7721,
      "Ġ1924": 7722,
      "ĠodbyÅĤa": 7723,
      "matycznie": 7724,
      "Jest": 7725,
      "Ġosiedla": 7726,
      "Ġalfabetu": 7727,
      "Ġinicjatywy": 7728,
      "ĠnastÄħpiÅĤo": 7729,
      "ĠzupeÅĤnie": 7730,
      "ĠObywatel": 7731,
      "Ġwez": 7732,
      "nan": 7733,
      "Ġpomimo": 7734,
      "tyku": 7735,
      "cjusza": 7736,
      "Ġlite": 7737,
      "ĠpolskÄħ": 7738,
      "Ġwaria": 7739,
      "niosÅĤy": 7740,
      "Ġ1977": 7741,
      "Ġakcep": 7742,
      "ĠCezara": 7743,
      "ĠÅĽrodowisku": 7744,
      "Pierwsze": 7745,
      "ĠopublikowaÅĤ": 7746,
      "ĠRÃ³wnieÅ¼": 7747,
      "Ġfloty": 7748,
      "ĠKrajowej": 7749,
      "Ġtygodni": 7750,
      "ĠGÃ³ra": 7751,
      "Ġolbrzy": 7752,
      "53": 7753,
      "To": 7754,
      "cri": 7755,
      "gowie": 7756,
      "robo": 7757,
      "ĠAma": 7758,
      "ĠZbroj": 7759,
      "ĠpodÅĤo": 7760,
      "Ġreal": 7761,
      "Ġszer": 7762,
      "Ġkonferen": 7763,
      "Ġdeka": 7764,
      "ĠJean": 7765,
      "Ġrakie": 7766,
      "ĠDopiero": 7767,
      "Ġbadaczy": 7768,
      "Ġ1985": 7769,
      "ĠMedal": 7770,
      "ĠAlba": 7771,
      "ĠzawierajÄħ": 7772,
      "Ġhistorycznych": 7773,
      "ĠwiÄħÅ¼e": 7774,
      "Ġrealizacji": 7775,
      "Ġprzedmiotem": 7776,
      "ĠOstatecznie": 7777,
      "Ġskompli": 7778,
      "Ca": 7779,
      "lory": 7780,
      "Ġ<": 7781,
      "ĠĠĊ": 7782,
      "Ġzmo": 7783,
      "non": 7784,
      "ĠPlu": 7785,
      "Ġadap": 7786,
      "ÅĤom": 7787,
      "ĠKsiÄħÅ¼": 7788,
      "loro": 7789,
      "ĠBir": 7790,
      "ĠIta": 7791,
      "szechni": 7792,
      "Ġmodli": 7793,
      "Ġstatysty": 7794,
      "jÄĻcie": 7795,
      "Ġszlach": 7796,
      "Ġmierze": 7797,
      "Ġtenden": 7798,
      "Ġ1931": 7799,
      "ĠwÅĤasnÄħ": 7800,
      "Ġ1927": 7801,
      "Ġ1929": 7802,
      "Ġmuzyka": 7803,
      "legÅĤych": 7804,
      "ĠsamÄħ": 7805,
      "Ġoparty": 7806,
      "Ġabor": 7807,
      "ĠpamiÄĻÄĩ": 7808,
      "ierar": 7809,
      "Ġkontroli": 7810,
      "ĠpoglÄħdy": 7811,
      "Ġtransportu": 7812,
      "----": 7813,
      "Ġkonkur": 7814,
      "61": 7815,
      "NU": 7816,
      "jnej": 7817,
      "towÄħ": 7818,
      "ĠÄĩ": 7819,
      "Ġkru": 7820,
      "resz": 7821,
      "tyfikowa": 7822,
      "tago": 7823,
      "tacjÄĻ": 7824,
      "ĠWspÃ³l": 7825,
      "Ġkot": 7826,
      "Ġfali": 7827,
      "Ġewangeli": 7828,
      "stycznej": 7829,
      "Ġczyta": 7830,
      "Ġsposo": 7831,
      "Ġ33": 7832,
      "ĠwzgÃ³": 7833,
      "ĠChrist": 7834,
      "Ġmiejscach": 7835,
      "tkowe": 7836,
      "Ġpowodowa": 7837,
      "Ġ1952": 7838,
      "ĠzbiorÃ³w": 7839,
      "Ġ1923": 7840,
      "ĠzaÅĤoÅ¼yÅĤ": 7841,
      "ĠdrogÄħ": 7842,
      "ĠpojawiÅĤ": 7843,
      "ĠwyÅ¼szych": 7844,
      "ĠkrzyÅ¼a": 7845,
      "ĠopisaÅĤ": 7846,
      "ĠHitler": 7847,
      "zjum": 7848,
      "77": 7849,
      "niowych": 7850,
      "Ġpodobie": 7851,
      "ĠKlub": 7852,
      "chosÅĤowa": 7853,
      "Ġdzisiaj": 7854,
      "buna": 7855,
      "ÅĦstwem": 7856,
      "ĠjÄĻzykoznaw": 7857,
      "ĠWydziaÅĤ": 7858,
      "ĠMarka": 7859,
      "Ġ1961": 7860,
      "parta": 7861,
      "ĠpoÅĤÄħczenie": 7862,
      "Ġrzymski": 7863,
      "ĠzakoÅĦczyÅĤa": 7864,
      "Ġchemiczne": 7865,
      "Ġzastosowania": 7866,
      "ĠchciaÅĤ": 7867,
      "ĠÅ¼elaza": 7868,
      "ĠMicroso": 7869,
      "58": 7870,
      "ban": 7871,
      "ksi": 7872,
      "pem": 7873,
      "Ġimieniu": 7874,
      "lara": 7875,
      "dora": 7876,
      "dzieÅĦ": 7877,
      "Ġex": 7878,
      "skach": 7879,
      "Ġszpita": 7880,
      "zujÄħcy": 7881,
      "ĠChrzeÅĽcija": 7882,
      "ĠgranicÄĻ": 7883,
      "ĠnoÅĽ": 7884,
      "dzÄħc": 7885,
      "ktÃ³rzy": 7886,
      "hol": 7887,
      "ĠzwiÄħzana": 7888,
      "ĠzÅĤoÅ¼one": 7889,
      "Ġ1925": 7890,
      "Ġpublikacji": 7891,
      "Ġskupia": 7892,
      "ĠwyraÅºnie": 7893,
      "Ġmetoda": 7894,
      "ĠJanusz": 7895,
      "Ġenerge": 7896,
      "Ġlokalnych": 7897,
      "strzyma": 7898,
      "ĠHitlera": 7899,
      "Si": 7900,
      "kowskiego": 7901,
      "lowo": 7902,
      "sowe": 7903,
      "Ðº": 7904,
      "Ġotrzymuje": 7905,
      "szem": 7906,
      "szona": 7907,
      "ĠSpi": 7908,
      "ĠKal": 7909,
      "Ġodnale": 7910,
      "ĠodlegÅĤoÅĽÄĩ": 7911,
      "Ġmomentu": 7912,
      "ĠpaÅĤa": 7913,
      "ĠokrÄħ": 7914,
      "ĠKomu": 7915,
      "ĠdziewiÄĻ": 7916,
      "ĠMaciej": 7917,
      "Ġmetro": 7918,
      "Ġmuzeum": 7919,
      "Ġoporu": 7920,
      "ĠspoÅĤecze": 7921,
      "ĠNeptu": 7922,
      "ĠrodzajÃ³w": 7923,
      "Ġvan": 7924,
      "ĠpieÅĽni": 7925,
      "ĠpÅĤaszczy": 7926,
      "ĠzapoÅ¼y": 7927,
      "powszechni": 7928,
      "ĠwÃ³d": 7929,
      "stron": 7930,
      "Ġnaczy": 7931,
      "Ġnaft": 7932,
      "Ġ(,": 7933,
      "ĠPis": 7934,
      "Ġzaku": 7935,
      "Ġgnie": 7936,
      "cieÅĦ": 7937,
      "ĠGliwi": 7938,
      "ĠObo": 7939,
      "Ġpraca": 7940,
      "ĠUE": 7941,
      "ĠpowÅĤo": 7942,
      "Ġsynem": 7943,
      "Ġwzmoc": 7944,
      "ĠKatoli": 7945,
      "dzajÄħ": 7946,
      "ĠMarsa": 7947,
      "Ġprocent": 7948,
      "ĠÅ¼onÄħ": 7949,
      "Ġangielskiego": 7950,
      "Ġzjawisk": 7951,
      "Ġakademi": 7952,
      "ĠBergman": 7953,
      "ĠCezar": 7954,
      "ĠStefana": 7955,
      "\".": 7956,
      "AM": 7957,
      "Ġke": 7958,
      "regu": 7959,
      "Ġwych": 7960,
      "ĠWszech": 7961,
      "mac": 7962,
      "lodzy": 7963,
      "wiÅĤo": 7964,
      "ĠBri": 7965,
      "indoeuropej": 7966,
      "ĠTrÃ³j": 7967,
      "bal": 7968,
      "rakta": 7969,
      "gera": 7970,
      "ĠSos": 7971,
      "Ġdroga": 7972,
      "ĠKrakowa": 7973,
      "Ġpublicznych": 7974,
      "ĠLou": 7975,
      "Ġstruktur": 7976,
      "Niemie": 7977,
      "Ġsytuacja": 7978,
      "ĠdokonaÅĤ": 7979,
      "ĠposzczegÃ³lne": 7980,
      "Ġkonfliktu": 7981,
      "Ġkwestii": 7982,
      "ĠSztuki": 7983,
      "ĠIstniejÄħ": 7984,
      "ĠhistoriÄĻ": 7985,
      "bernator": 7986,
      "ĠczÄĻstotliwoÅĽci": 7987,
      "AmerykaÅĦ": 7988,
      "Obecnie": 7989,
      "So": 7990,
      "ak": 7991,
      "dliwoÅĽci": 7992,
      "nwal": 7993,
      "zjÄħ": 7994,
      "niczych": 7995,
      "lat": 7996,
      "zami": 7997,
      "Ġmag": 7998,
      "Ġkawa": 7999,
      "ĠRoma": 8000,
      "ĠJagiel": 8001,
      "ĠMoÅĤ": 8002,
      "ĠSatur": 8003,
      "ĠwspÃ³ÅĤczeÅĽnie": 8004,
      "tychmiast": 8005,
      "Ġterenu": 8006,
      "Ġzmiana": 8007,
      "ksztaÅĤcÄħ": 8008,
      "Ġstraty": 8009,
      "eruje": 8010,
      "ĠmateriaÅĤu": 8011,
      "Ġelektromagne": 8012,
      "kwidowa": 8013,
      "ĠstaroÅ¼ytnoÅĽci": 8014,
      "ĠzdecydowaÅĤ": 8015,
      "ĠJowisza": 8016,
      "ÅĤta": 8017,
      "cznika": 8018,
      "ĠpoÅ¼y": 8019,
      "ĠPowie": 8020,
      "ceta": 8021,
      "Ġagen": 8022,
      "ĠprzynaleÅ¼": 8023,
      "pital": 8024,
      "Ġmiejskie": 8025,
      "ĠKoÅĽcie": 8026,
      "ĠKochan": 8027,
      "Ġradyka": 8028,
      "Poli": 8029,
      "szczeniu": 8030,
      "Ġpreze": 8031,
      "twory": 8032,
      "Ġtworzenie": 8033,
      "Ġryb": 8034,
      "tywnych": 8035,
      "ĠobecnoÅĽÄĩ": 8036,
      "ĠskalÄĻ": 8037,
      "ĠrozpoczÄĻto": 8038,
      "Ġlotniczy": 8039,
      "ĠEdward": 8040,
      "Ġtermodynami": 8041,
      "ĠpodrÃ³Å¼y": 8042,
      "Laureaci": 8043,
      "BM": 8044,
      "OM": 8045,
      "Spo": 8046,
      "mbar": 8047,
      "Ġkrea": 8048,
      "âĢ¦": 8049,
      "king": 8050,
      "ĠprzesÅĤa": 8051,
      "ĠprzeglÄħ": 8052,
      "ĠNowego": 8053,
      "ĠCD": 8054,
      "ĠCmenta": 8055,
      "rÃ³dziem": 8056,
      "Ġpodstawy": 8057,
      "Ġinsta": 8058,
      "Åºli": 8059,
      "Ġspektro": 8060,
      "Ġprowadzenia": 8061,
      "Ġ1953": 8062,
      "spodarka": 8063,
      "Ġpomnik": 8064,
      "Ġserwe": 8065,
      "ĠenergiÄĻ": 8066,
      "ĠotrzymaÅĤa": 8067,
      "tografii": 8068,
      "Ġsukces": 8069,
      "Ġzagranicznych": 8070,
      "Ġtechnologii": 8071,
      "ĠAustralii": 8072,
      "ĠuniemoÅ¼li": 8073,
      "01": 8074,
      "TA": 8075,
      "dru": 8076,
      "imi": 8077,
      "ksa": 8078,
      "tkach": 8079,
      "reo": 8080,
      "cili": 8081,
      "ĠuksztaÅĤ": 8082,
      "Ġudowo": 8083,
      "Ġwypadku": 8084,
      "Ġprzeno": 8085,
      "tologii": 8086,
      "ĠodsÅĤo": 8087,
      "Ġintere": 8088,
      "ciach": 8089,
      "ĠLip": 8090,
      "ĠstanowiÅĤy": 8091,
      "ĠskÃ³ry": 8092,
      "ĠposÅĤÃ³w": 8093,
      "Ġmiastach": 8094,
      "Ġprocedu": 8095,
      "Ġzachodnich": 8096,
      "wentual": 8097,
      "Ġstosunki": 8098,
      "Ġserwer": 8099,
      "ĠWiele": 8100,
      "Ġnarodowej": 8101,
      "ĠautorÃ³w": 8102,
      "Podczas": 8103,
      "iÄĩ": 8104,
      "kse": 8105,
      "Ġwszyscy": 8106,
      "owanÄħ": 8107,
      "las": 8108,
      "Ġujaw": 8109,
      "Ġwyspa": 8110,
      "Ġwyobra": 8111,
      "macji": 8112,
      "zyka": 8113,
      "patrz": 8114,
      "ĠliniÄĻ": 8115,
      "skami": 8116,
      "Ġwoli": 8117,
      "ĠKolum": 8118,
      "ĠMate": 8119,
      "ĠMaksy": 8120,
      "Ġmelo": 8121,
      "Ġspor": 8122,
      "zowaÄĩ": 8123,
      "sÅĤow": 8124,
      "Ġture": 8125,
      "Ġwalce": 8126,
      "Ġ1928": 8127,
      "Ġfizyczne": 8128,
      "Ġpartia": 8129,
      "ĠKrzywo": 8130,
      "Ġrzymskokatoli": 8131,
      "Ġpolityczny": 8132,
      "ĠzawartoÅĽÄĩ": 8133,
      "Ġnorwe": 8134,
      "ĠosiÄħgniÄĻcia": 8135,
      "Ġdemon": 8136,
      "Ġminister": 8137,
      "ĠprzedsiÄĻbiorstwa": 8138,
      "ĠSzczegÃ³l": 8139,
      "Ġwykorzystuje": 8140,
      "ĠPKB": 8141,
      "ĠKiedy": 8142,
      "52": 8143,
      "Cy": 8144,
      "ken": 8145,
      "ĠÅ¼Äħda": 8146,
      "Ġds": 8147,
      "Ġpopiera": 8148,
      "ĠprzepÅĤy": 8149,
      "ĠScho": 8150,
      "szyÅĦski": 8151,
      "Ġmoder": 8152,
      "Ġhel": 8153,
      "stole": 8154,
      "rowane": 8155,
      "ĠpowiÄĻk": 8156,
      "urie": 8157,
      "logicznie": 8158,
      "ĠLiczba": 8159,
      "ĠBabi": 8160,
      "ografii": 8161,
      "ĠsamobÃ³j": 8162,
      "Ġstyl": 8163,
      "Ġ1971": 8164,
      "Ġserca": 8165,
      "Ġgwiazda": 8166,
      "Ġaksjo": 8167,
      "ĠpojawiÅĤa": 8168,
      "ÅĽwiÄĻt": 8169,
      "Ġprzewidy": 8170,
      "ĠWyspy": 8171,
      "Ġkonsekwen": 8172,
      "ĠGrudziÄħdz": 8173,
      "51": 8174,
      "56": 8175,
      "fal": 8176,
      "gowy": 8177,
      "Î¹": 8178,
      "ĠwstÄĻp": 8179,
      "kali": 8180,
      "ĠzajÄħÅĤ": 8181,
      "ĠdostÄĻpu": 8182,
      "Ġudzie": 8183,
      "Ġwyrzu": 8184,
      "ĠDal": 8185,
      "Ġinwesty": 8186,
      "sion": 8187,
      "niusza": 8188,
      "ĠEdu": 8189,
      "Ġmiejskich": 8190,
      "rowania": 8191,
      "ĠnajbliÅ¼": 8192,
      "cyjnymi": 8193,
      "Ġmedia": 8194,
      "Ġwarstwa": 8195,
      "ĠpuÅĤk": 8196,
      "ĠskaÅĤ": 8197,
      "ĠoÅĽrodek": 8198,
      "ĠkilkanaÅĽcie": 8199,
      "ĠpunktÃ³w": 8200,
      "ĠPrus": 8201,
      "Ġfunkcjonuje": 8202,
      "imnazjum": 8203,
      "powo": 8204,
      "iego": 8205,
      "Ġotacza": 8206,
      "ĠdotÄħd": 8207,
      "ori": 8208,
      "Ġustaw": 8209,
      "wiony": 8210,
      "ĠZnaj": 8211,
      "Ġeli": 8212,
      "ĠÅĽle": 8213,
      "owicza": 8214,
      "Ġchwi": 8215,
      "zujÄħc": 8216,
      "ĠJeÅ¼eli": 8217,
      "Ġbaro": 8218,
      "ÅĽciem": 8219,
      "czasem": 8220,
      "Ġdykta": 8221,
      "Ġforte": 8222,
      "Ġgranice": 8223,
      "Ġcar": 8224,
      "nowane": 8225,
      "odow": 8226,
      "Ġsystemem": 8227,
      "minacji": 8228,
      "ĠBerlinie": 8229,
      "Ġprzedstawiciele": 8230,
      "Ġgreckiego": 8231,
      "ĠzaczÄĻli": 8232,
      "Ġzaawansowa": 8233,
      "ĠPiechoty": 8234,
      "ĠCzerwonej": 8235,
      "lszewi": 8236,
      "Ġzarejestrowa": 8237,
      "gowe": 8238,
      "plan": 8239,
      "Ġwyzwo": 8240,
      "torze": 8241,
      "mienio": 8242,
      "czyÅĦski": 8243,
      "pan": 8244,
      "ĠNag": 8245,
      "ĠwziÄħ": 8246,
      "ĠKata": 8247,
      "ĠJaku": 8248,
      "nictwem": 8249,
      "ĠWojen": 8250,
      "Ġodpor": 8251,
      "mÃ³wie": 8252,
      "ĠciepÅĤa": 8253,
      "ĠWaÅĤÄĻ": 8254,
      "ĠczynnoÅĽci": 8255,
      "ĠJohna": 8256,
      "Ġopisuje": 8257,
      "ĠWisÅĤy": 8258,
      "ĠCyceron": 8259,
      "tno": 8260,
      "niÅĤo": 8261,
      "laty": 8262,
      "ĠPal": 8263,
      "Ġzabezpie": 8264,
      "ceÅĦ": 8265,
      "Ġubo": 8266,
      "Ġprzynajmniej": 8267,
      "Ġmasie": 8268,
      "Ġwierz": 8269,
      "sus": 8270,
      "ĠkadÅĤu": 8271,
      "rowany": 8272,
      "Ġpowstaniu": 8273,
      "ĠWyso": 8274,
      "ĠbiorÄħ": 8275,
      "Ġniemiecka": 8276,
      "erspe": 8277,
      "Ġekspo": 8278,
      "syjne": 8279,
      "ĠÅĤÄħczy": 8280,
      "Ġnazywana": 8281,
      "Ġsymfo": 8282,
      "ĠuwaÅ¼any": 8283,
      "Ġsekreta": 8284,
      "ĠtekstÃ³w": 8285,
      "ĠdostÄĻpne": 8286,
      "ĠczÄħstecz": 8287,
      "Ġwykonywania": 8288,
      "Ġhym": 8289,
      "Ġcyklu": 8290,
      "ĠStrona": 8291,
      "ĠodrÃ³Å¼nieniu": 8292,
      "Ġportugal": 8293,
      "Ġzarazem": 8294,
      "Tu": 8295,
      "Å«": 8296,
      "ĠzÄĻ": 8297,
      "Ġzanu": 8298,
      "Ġwypad": 8299,
      "ĠZgroma": 8300,
      "westi": 8301,
      "pienie": 8302,
      "Ġcele": 8303,
      "ĠdzielÄħ": 8304,
      "ĠPacyfi": 8305,
      "ĠpowstajÄħ": 8306,
      "Ġbizanty": 8307,
      "Ġ64": 8308,
      "Ġpowojen": 8309,
      "ĠSopo": 8310,
      "ĠNajbardziej": 8311,
      "Ġterro": 8312,
      "ĠwskazujÄħ": 8313,
      "ĠFeli": 8314,
      "ĠpolitykÄĻ": 8315,
      "ĠÅ¼ydowskiej": 8316,
      "ĠInterna": 8317,
      "ĠTracy": 8318,
      "Ġwszelkie": 8319,
      "Wi": 8320,
      "brew": 8321,
      "owers": 8322,
      "liwe": 8323,
      "Ġpomi": 8324,
      "Ġnaby": 8325,
      "ÅĤam": 8326,
      "Ġzawodni": 8327,
      "kola": 8328,
      "Ġniebezpie": 8329,
      "ĠCu": 8330,
      "Ġmoral": 8331,
      "moÅĽÄĩ": 8332,
      "ĠstaÅĤej": 8333,
      "puÅĽci": 8334,
      "ĠwodÄħ": 8335,
      "ĠchcÄħ": 8336,
      "Ġlasy": 8337,
      "ĠKoper": 8338,
      "ĠuÅ¼ycie": 8339,
      "ĠWacÅĤa": 8340,
      "Ġseku": 8341,
      "Ġ1965": 8342,
      "ĠJose": 8343,
      "Ġrazie": 8344,
      "legÅĤe": 8345,
      "Ġpartner": 8346,
      "ĠÅ¼ony": 8347,
      "ĠchrzeÅĽcijaÅĦstwa": 8348,
      "Ġpoeta": 8349,
      "Ġobszarach": 8350,
      "Ġkonflikt": 8351,
      "ĠwyjaÅĽnie": 8352,
      "zempla": 8353,
      "ĠLublin": 8354,
      "ĠStowarzyszenie": 8355,
      "ĠKrzywou": 8356,
      "AP": 8357,
      "kcie": 8358,
      "Ġpery": 8359,
      "Ġznie": 8360,
      "Ġsma": 8361,
      "szÄĻ": 8362,
      "jawia": 8363,
      "ĠWraz": 8364,
      "ĠMS": 8365,
      "Ġprzymio": 8366,
      "steina": 8367,
      "ĠStaro": 8368,
      "ĠstanowiÅĤa": 8369,
      "Ġ1978": 8370,
      "ĠkoÅĦc": 8371,
      "Ġstosowanie": 8372,
      "ĠpeÅĤniÄħ": 8373,
      "ĠwyborÃ³w": 8374,
      "Ġwielki": 8375,
      "ĠmieszkaÅĦcy": 8376,
      "Ġefekcie": 8377,
      "ĠÅ¼adnego": 8378,
      "ĠNewton": 8379,
      "System": 8380,
      "ĠRzeszÃ³w": 8381,
      "ĠprzywrÃ³": 8382,
      "ĠchorÃ³b": 8383,
      "Ġkompila": 8384,
      "KS": 8385,
      "nny": 8386,
      "Ġqu": 8387,
      "Ġpw": 8388,
      "nicznej": 8389,
      "Ġnatychmiast": 8390,
      "ĠzasÅĤu": 8391,
      "Ġwydoby": 8392,
      "ĠBr": 8393,
      "ĠBio": 8394,
      "ĠGrzego": 8395,
      "Ġtymi": 8396,
      "Ġrekor": 8397,
      "Ġnowym": 8398,
      "ĠktÃ³remu": 8399,
      "ĠKongres": 8400,
      "ĠTesta": 8401,
      "truktura": 8402,
      "ĠÅĽmierciÄħ": 8403,
      "Ġwprowadzenia": 8404,
      "Ġwielkiego": 8405,
      "...)": 8406,
      "ĠwspÃ³lnego": 8407,
      "Ġuzyskania": 8408,
      "ĠKsiÄĻstwa": 8409,
      "ĠPierwszym": 8410,
      "ĠJezus": 8411,
      "ĠSpoÅĤe": 8412,
      "Ġorganizacje": 8413,
      "ĠzajmowaÅĤ": 8414,
      "IV": 8415,
      "Ju": 8416,
      "Rze": 8417,
      "dka": 8418,
      "ffi": 8419,
      "ini": 8420,
      "nnych": 8421,
      "tme": 8422,
      "Ġsch": 8423,
      "Ġpodo": 8424,
      "wajÄħc": 8425,
      "Ġwygra": 8426,
      "ĠSier": 8427,
      "Ġprzyjmowa": 8428,
      "piry": 8429,
      "ĠOn": 8430,
      "Ġlaurea": 8431,
      "nujÄħc": 8432,
      "ĠBoÅ¼ej": 8433,
      "ĠokrÄĻgu": 8434,
      "ĠWale": 8435,
      "Ġ1966": 8436,
      "ĠzdoÅĤa": 8437,
      "ĠDei": 8438,
      "Ġsztuk": 8439,
      "Ġwybory": 8440,
      "Ġutworzono": 8441,
      "Ġszaba": 8442,
      "Ġwojennego": 8443,
      "ĠwaÅ¼ne": 8444,
      "Ġangielskim": 8445,
      "Ġbudynku": 8446,
      "Ġobywatele": 8447,
      "ĠstudentÃ³w": 8448,
      "ĠdÅºwiÄĻku": 8449,
      "Ġchemii": 8450,
      "sny": 8451,
      "Ġzwana": 8452,
      "Ġsum": 8453,
      "ĠswÄħ": 8454,
      "Ġskonstru": 8455,
      "reli": 8456,
      "Ġuj": 8457,
      "Ġwystawi": 8458,
      "konomi": 8459,
      "ĠMezopota": 8460,
      "ĠTru": 8461,
      "Ġtajem": 8462,
      "conych": 8463,
      "Ġnowa": 8464,
      "ĠPolskÄħ": 8465,
      "ĠuÅ¼yte": 8466,
      "ĠduÅ¼a": 8467,
      "Ġskoru": 8468,
      "dzonej": 8469,
      "ĠprowadziÄĩ": 8470,
      "ĠwpÅĤywy": 8471,
      "Ġ1959": 8472,
      "Ġ1963": 8473,
      "Ġmiejscem": 8474,
      "ĠchrzeÅĽcijan": 8475,
      "ÅĽwiata": 8476,
      "Ġbiblioteki": 8477,
      "Miasto": 8478,
      "Ġwniosek": 8479,
      "solwenci": 8480,
      "Ġdwukrotnie": 8481,
      "zona": 8482,
      "ÏĤ": 8483,
      "niowego": 8484,
      "nea": 8485,
      "Ġnam": 8486,
      "Ġzapis": 8487,
      "tytu": 8488,
      "Ġumoc": 8489,
      "ĠKli": 8490,
      "Ġnieba": 8491,
      "ĠGer": 8492,
      "dujÄħ": 8493,
      "sili": 8494,
      "dnikÃ³w": 8495,
      "mentach": 8496,
      "logicznym": 8497,
      "ĠPaul": 8498,
      "Ġpewien": 8499,
      "PrzykÅĤady": 8500,
      "Ã³dÅº": 8501,
      "Ġosoba": 8502,
      "ĠDanie": 8503,
      "talion": 8504,
      "ĠuzyskaÄĩ": 8505,
      "ĠJednym": 8506,
      "ĠÅ»ydzi": 8507,
      "Ġzwierz": 8508,
      "Ġintele": 8509,
      "ĠpochodzÄħce": 8510,
      "ĠzwyciÄĻstwo": 8511,
      "ĠKonstantynopo": 8512,
      "ĠuzupeÅĤnia": 8513,
      "ĠogÃ³le": 8514,
      "ĠPortuga": 8515,
      "Ġarcybisku": 8516,
      "Ġgminie": 8517,
      "Kultu": 8518,
      "US": 8519,
      "mowe": 8520,
      "wro": 8521,
      "niemie": 8522,
      "ord": 8523,
      "Ġjesie": 8524,
      "korzy": 8525,
      "ĠkoÅĤa": 8526,
      "Ġkolek": 8527,
      "Ġniewol": 8528,
      "gium": 8529,
      "ĠGie": 8530,
      "ĠTran": 8531,
      "Ġhierar": 8532,
      "Åºnia": 8533,
      "ĠEk": 8534,
      "Ġdes": 8535,
      "ĠTam": 8536,
      "Ġobiektu": 8537,
      "ĠpeÅĤniÅĤ": 8538,
      "Kolej": 8539,
      "ĠpopularnoÅĽÄĩ": 8540,
      "ĠPolacy": 8541,
      "ĠpojawiajÄħ": 8542,
      "Ġprywatne": 8543,
      "Ġcuk": 8544,
      "Ġdziennika": 8545,
      "Ġminut": 8546,
      "ĠkoÅĽciele": 8547,
      "ĠMerku": 8548,
      "Ġuruchomi": 8549,
      "ĠTomasz": 8550,
      "Ġpatrio": 8551,
      "cetamo": 8552,
      "Osoby": 8553,
      "oka": 8554,
      "sÅĤÃ³w": 8555,
      "Ġwpisa": 8556,
      "gogi": 8557,
      "Ġnabo": 8558,
      "Ġbran": 8559,
      "Ġdostar": 8560,
      "Ġate": 8561,
      "jak": 8562,
      "Ġutru": 8563,
      "ĠwygÅĤo": 8564,
      "Ġodbior": 8565,
      "ĠAbra": 8566,
      "emo": 8567,
      "âĢĿ;": 8568,
      "mysÅĤu": 8569,
      "Ġprecy": 8570,
      "ĠnastÄĻpnych": 8571,
      "Ġ1958": 8572,
      "ĠzachodzÄħ": 8573,
      "Ġzachodnio": 8574,
      "ĠpieniÄĻ": 8575,
      "ĠpieniÄħ": 8576,
      "Ġsilne": 8577,
      "ĠpoÅĤoÅ¼ony": 8578,
      "Ġspecjalne": 8579,
      "ĠSÅĤoÅĦce": 8580,
      "Ġadministracji": 8581,
      "Ġstwierdza": 8582,
      "Ġkolonia": 8583,
      "Geografia": 8584,
      "Ġdiece": 8585,
      "Ġpropaga": 8586,
      "Ġziemiach": 8587,
      "ĠSzwajcarii": 8588,
      "ĠutoÅ¼sa": 8589,
      "Ġoczeki": 8590,
      "ero": 8591,
      "gn": 8592,
      "wczeÅĽniej": 8593,
      "nicza": 8594,
      "Ġzo": 8595,
      "rzbie": 8596,
      "ras": 8597,
      "rady": 8598,
      "Ġos": 8599,
      "lika": 8600,
      "Ġzarzu": 8601,
      "Ġapo": 8602,
      "ĠprzewaÅ¼nie": 8603,
      "Ġrodu": 8604,
      "inte": 8605,
      "Ġrozstrzy": 8606,
      "Ġ44": 8607,
      "ĠkomÃ³rek": 8608,
      "ĠSalo": 8609,
      "ĠOddziaÅĤ": 8610,
      "ĠwspÃ³ÅĤczyn": 8611,
      "Ġkarie": 8612,
      "Ġpubliczne": 8613,
      "ĠwielkÄħ": 8614,
      "ĠsprawÄħ": 8615,
      "Ġfrancuskiego": 8616,
      "ĠamerykaÅĦskiej": 8617,
      "ĠSzkoÅĤy": 8618,
      "ĠroÅĽliny": 8619,
      "Reli": 8620,
      "ĠChinach": 8621,
      "kÃ³j": 8622,
      "nowy": 8623,
      "pp": 8624,
      "ww": 8625,
      "Ã§": 8626,
      "ĠzÅĤama": 8627,
      "lekular": 8628,
      "tykÃ³w": 8629,
      "ĠprzeciÄĻ": 8630,
      "Ġropy": 8631,
      "kier": 8632,
      "szyÄĩ": 8633,
      "ong": 8634,
      "Ġewentual": 8635,
      "Ġref": 8636,
      "styki": 8637,
      "Ġlegi": 8638,
      "towali": 8639,
      "ĠVa": 8640,
      "Ġzachowanie": 8641,
      "ĠÅĽwiÄĻto": 8642,
      "ĠwyrazÃ³w": 8643,
      "Ġniewielkie": 8644,
      "ĠdowÃ³dcy": 8645,
      "ĠRepublika": 8646,
      "ĠEgiptu": 8647,
      "ĠIzraela": 8648,
      "ĠCycerona": 8649,
      "ĠCheÅĤ": 8650,
      "Ġoprogramowania": 8651,
      "ĠJagiello": 8652,
      "Ã¸": 8653,
      "Ð»": 8654,
      "chowie": 8655,
      "Ġotwo": 8656,
      "Ġolimpi": 8657,
      "Ġzakaz": 8658,
      "tacje": 8659,
      "ÅĤoby": 8660,
      "Ġprzyj": 8661,
      "ĠIza": 8662,
      "Ġszuka": 8663,
      "ĠÅ¼eby": 8664,
      "ĠcoÅĽ": 8665,
      "Ġpowiecie": 8666,
      "ĠMoÅĽci": 8667,
      "Ġfabu": 8668,
      "ĠTechni": 8669,
      "rytyjski": 8670,
      "ĠzmianÄĻ": 8671,
      "Ġnarodowych": 8672,
      "ĠksiÄħÅ¼ce": 8673,
      "ĠtwÃ³rcÃ³w": 8674,
      "ĠwaÅ¼nym": 8675,
      "ĠdoprowadziÅĤy": 8676,
      "Ġhomofo": 8677,
      "Ġegzempla": 8678,
      "Ġkapitu": 8679,
      "ĠtwÃ³rczoÅĽÄĩ": 8680,
      "ĠupamiÄĻtnie": 8681,
      "Ġreformy": 8682,
      "ĠIgnacy": 8683,
      "08": 8684,
      "Fa": 8685,
      "HP": 8686,
      "dnego": 8687,
      "hn": 8688,
      "sjÄħ": 8689,
      "zin": 8690,
      "Î½": 8691,
      "ront": 8692,
      "szar": 8693,
      "Ġwynikiem": 8694,
      "Ġwyprawy": 8695,
      "Ġgr": 8696,
      "pora": 8697,
      "czest": 8698,
      "tÃ³r": 8699,
      "ĠOkoÅĤo": 8700,
      "moni": 8701,
      "deo": 8702,
      "Ġinwa": 8703,
      "Ġstatku": 8704,
      "Ġroztw": 8705,
      "Ġkomer": 8706,
      "ĠWest": 8707,
      "Ġprowadzone": 8708,
      "Ġmniejszych": 8709,
      "Ġklasycznej": 8710,
      "Ġsztuka": 8711,
      "Ġrodzinie": 8712,
      "Ġterminu": 8713,
      "frykaÅĦ": 8714,
      "Ġcykl": 8715,
      "ĠnagrodÄĻ": 8716,
      "Ġimiona": 8717,
      "Ġodebra": 8718,
      "Ġfotosynte": 8719,
      "ĠmÅĤodych": 8720,
      "ĠWorld": 8721,
      "ĠPÃ³ÅĤwy": 8722,
      "72": 8723,
      "QL": 8724,
      "dnoÅĽÄĩ": 8725,
      "Ġ$": 8726,
      "Ġzli": 8727,
      "Ġodz": 8728,
      "Ġocenia": 8729,
      "Ġpogrze": 8730,
      "szÅĤa": 8731,
      "ĠuporzÄħdkowa": 8732,
      "ĠWkrÃ³tce": 8733,
      "ĠprzeÅĽla": 8734,
      "ĠKil": 8735,
      "ĠOt": 8736,
      "Ġrecep": 8737,
      "Ġstatek": 8738,
      "wedÅĤug": 8739,
      "Ġ34": 8740,
      "Ġstoi": 8741,
      "ckimi": 8742,
      "ĠJedy": 8743,
      "Ġlekar": 8744,
      "nti": 8745,
      "ĠMora": 8746,
      "ĠpÃ³Åºniejszym": 8747,
      "ĠwpÅĤywu": 8748,
      "Ġbudowie": 8749,
      "ĠGaleria": 8750,
      "Ġstosowania": 8751,
      "Ġkwasu": 8752,
      "ĠpracownikÃ³w": 8753,
      "Ġaktora": 8754,
      "Ġautorem": 8755,
      "Ġmiliona": 8756,
      "ĠstudiÃ³w": 8757,
      "Ġsiedziba": 8758,
      "ĠrÄĻko": 8759,
      "ĠWÅĤoszech": 8760,
      "Ġkompozytor": 8761,
      "Ġkatastro": 8762,
      "Ġdodatkowe": 8763,
      "Ġtransforma": 8764,
      "ĠzasiÄĻgu": 8765,
      "ĠCharles": 8766,
      "ĠzobowiÄħza": 8767,
      "tÅĤuma": 8768,
      "ĠMickiewicza": 8769,
      "nr": 8770,
      "wny": 8771,
      "ÃŁ": 8772,
      "Ġilu": 8773,
      "szczu": 8774,
      "Ġucho": 8775,
      "ĠwynoszÄħ": 8776,
      "cyna": 8777,
      "ĠSA": 8778,
      "Ġgmach": 8779,
      "ĠMc": 8780,
      "Ġmatka": 8781,
      "Ġmazowie": 8782,
      "ĠTor": 8783,
      "ĠTek": 8784,
      "mum": 8785,
      "ĠludÃ³w": 8786,
      "Ġprag": 8787,
      "biegu": 8788,
      "meta": 8789,
      "media": 8790,
      "rzÄħdu": 8791,
      "Ġ48": 8792,
      "Ġwydaje": 8793,
      "ĠproduktÃ³w": 8794,
      "ĠBytom": 8795,
      "ĠÅģÄħ": 8796,
      "finicja": 8797,
      "ĠurodziÅĤ": 8798,
      "Ġfrancuskiej": 8799,
      "ĠskÅĤadajÄħ": 8800,
      "Ġoparta": 8801,
      "ĠEuropejskiego": 8802,
      "Polskie": 8803,
      "ĠskÅĤadzie": 8804,
      "ĠwystÄĻpowania": 8805,
      "ĠLondon": 8806,
      "sfer": 8807,
      "ĠIndii": 8808,
      "ĠmaÅĤÅ¼eÅĦstwa": 8809,
      "Ġdefiniu": 8810,
      "ĠWilhelm": 8811,
      "Ġaplikacji": 8812,
      "-_": 8813,
      "Ter": 8814,
      "cku": 8815,
      "grzym": 8816,
      "ls": 8817,
      "osob": 8818,
      "niczny": 8819,
      "Ġolej": 8820,
      "Ġpobytu": 8821,
      "Ġupro": 8822,
      "ĠKle": 8823,
      "ĠApol": 8824,
      "Ġ1915": 8825,
      "ĠÅĽlu": 8826,
      "Ġindek": 8827,
      "met": 8828,
      "czÄħc": 8829,
      "zowana": 8830,
      "Ġrycer": 8831,
      "Ġprogramy": 8832,
      "Ġtrzeba": 8833,
      "Ġkrysta": 8834,
      "ĠpaÅĦstwowych": 8835,
      "Ġwyboru": 8836,
      "ĠNiemcami": 8837,
      "Ġwyznacza": 8838,
      "Ġspecjalnych": 8839,
      "Ġadministracyjny": 8840,
      "Ġchromo": 8841,
      "ĠMÅĤodzie": 8842,
      "Ġkanonu": 8843,
      "ĠÅ¼ywnoÅĽci": 8844,
      "cti": 8845,
      "ĠÏ": 8846,
      "Ġwra": 8847,
      "chnika": 8848,
      "ĠzÅĤa": 8849,
      "ĠskÄħd": 8850,
      "licznych": 8851,
      "Ġmni": 8852,
      "dzen": 8853,
      "lepiej": 8854,
      "ĠPen": 8855,
      "Ġzak": 8856,
      "ĠwysyÅĤa": 8857,
      "luje": 8858,
      "Ġ1900": 8859,
      "doÅĽÄĩ": 8860,
      "Ġegip": 8861,
      "ĠsÄħd": 8862,
      "ĠUkrai": 8863,
      "ndard": 8864,
      "Ġgodzi": 8865,
      "ĠZasÅĤugi": 8866,
      "Ġminera": 8867,
      "Ġcer": 8868,
      "ĠNet": 8869,
      "ĠwysokoÅĽÄĩ": 8870,
      "Ġtrzecie": 8871,
      "Ġklasyfikacji": 8872,
      "Ġnarodowego": 8873,
      "Ġstworzenia": 8874,
      "ĠRozpo": 8875,
      "Ġtrudno": 8876,
      "ĠGdaÅĦska": 8877,
      "Ġkierow": 8878,
      "Ġfragment": 8879,
      "ĠgeneraÅĤ": 8880,
      "ĠStarego": 8881,
      "Ġrobotni": 8882,
      "Ġstrefie": 8883,
      "ĠprzyszÅĤoÅĽci": 8884,
      "Ġcesarstwa": 8885,
      "ĠSpecja": 8886,
      "ĠWikipedii": 8887,
      "Absolwenci": 8888,
      "Ġudowodni": 8889,
      "Op": 8890,
      "Pier": 8891,
      "niÅĽci": 8892,
      "Ġswym": 8893,
      "Ġodznaczeni": 8894,
      "dzki": 8895,
      "Ġzapi": 8896,
      "Ġwypraw": 8897,
      "Ġmal": 8898,
      "Ġjakiej": 8899,
      "Ġnajprawdopodobniej": 8900,
      "bom": 8901,
      "Ġarmia": 8902,
      "Ġ65": 8903,
      "ĠÅĤac": 8904,
      "Ġziemie": 8905,
      "ĠzÅĤota": 8906,
      "ĠzaÅĤogi": 8907,
      "Ġbrat": 8908,
      "ĠpÅĤyty": 8909,
      "ĠYor": 8910,
      "ĠelektronÃ³w": 8911,
      "ĠobjÄĻtoÅĽci": 8912,
      "Ġinterpretacji": 8913,
      "ĠFrancis": 8914,
      "ĠTadeusza": 8915,
      "ĠSamoo": 8916,
      "ĠJÄĻzyki": 8917,
      "ĠCity": 8918,
      "dziesiÄħt": 8919,
      "ĠzaproponowaÅĤ": 8920,
      "Ġeduka": 8921,
      "ĠprzebywaÅĤ": 8922,
      "lokalizowa": 8923,
      "%).": 8924,
      "04": 8925,
      "Kra": 8926,
      "Sto": 8927,
      "ting": 8928,
      "zowanie": 8929,
      "zwala": 8930,
      "Ġ00": 8931,
      "Ġzrze": 8932,
      "ĠskÅĤadu": 8933,
      "Ġpodz": 8934,
      "Ġpobiera": 8935,
      "Ġzaim": 8936,
      "ĠukÅĤada": 8937,
      "ĠwypeÅĤ": 8938,
      "ĠprzesuniÄĻ": 8939,
      "daÄĩ": 8940,
      "rym": 8941,
      "ĠDon": 8942,
      "ĠGerma": 8943,
      "Ġmoni": 8944,
      "Ġlikwi": 8945,
      "ĠNational": 8946,
      "Ġlabora": 8947,
      "zur": 8948,
      "Ġgrupie": 8949,
      "sera": 8950,
      "Ġcausa": 8951,
      "Ġjednoli": 8952,
      "mierÄĩ": 8953,
      "polskiego": 8954,
      "ĠsiÅĤÄĻ": 8955,
      "ĠdrogÄĻ": 8956,
      "ĠRuch": 8957,
      "Ġtamtej": 8958,
      "Jego": 8959,
      "Ġ1905": 8960,
      "ĠKatowic": 8961,
      "ĠformÄħ": 8962,
      "ĠÅļwiata": 8963,
      "ĠJorku": 8964,
      "Ġkult": 8965,
      "ĠJÄĻzyk": 8966,
      "Ġokupacji": 8967,
      "ĠporzÄħdku": 8968,
      "ĠDÅĤugo": 8969,
      "Ry": 8970,
      "kg": 8971,
      "mÅĤo": 8972,
      "ris": 8973,
      "sna": 8974,
      "ies": 8975,
      "czkÄĻ": 8976,
      "rada": 8977,
      "tyzmu": 8978,
      "Ġudo": 8979,
      "ĠKing": 8980,
      "Ġnieroz": 8981,
      "ĠodmÃ³w": 8982,
      "ĠAra": 8983,
      "Ġflu": 8984,
      "miest": 8985,
      "Ġjakich": 8986,
      "Ġprostu": 8987,
      "biny": 8988,
      "basa": 8989,
      "Ġznaczne": 8990,
      "Ġ39": 8991,
      "sowanie": 8992,
      "Ġduszy": 8993,
      "Ġkraje": 8994,
      "ĠpaÅĦstwie": 8995,
      "Ġimple": 8996,
      "Ġfaktu": 8997,
      "Ġdawnych": 8998,
      "ĠÅ¼oÅĤnierze": 8999,
      "ĠobrazÃ³w": 9000,
      "ĠtytuÅĤem": 9001,
      "Ġzamku": 9002,
      "Ġemigra": 9003,
      "Ġpowinna": 9004,
      "ĠÅļrodkowej": 9005,
      "Gospodarka": 9006,
      "ĠPascal": 9007,
      "Gru": 9008,
      "Klasy": 9009,
      "ire": 9010,
      "uszy": 9011,
      "Ġzbro": 9012,
      "ciÅĤy": 9013,
      "niania": 9014,
      "ĠurzÄĻdu": 9015,
      "los": 9016,
      "ĠDan": 9017,
      "Ġesperan": 9018,
      "Ġmogli": 9019,
      "ĠrozkÅĤad": 9020,
      "Ġhor": 9021,
      "ĠEsto": 9022,
      "Ġ42": 9023,
      "Ġpusty": 9024,
      "Ġuzysku": 9025,
      "ĠÅļwiÄĻtej": 9026,
      "ĠZespÃ³ÅĤ": 9027,
      "Ġbiegu": 9028,
      "ĠChoj": 9029,
      "ĠtwierdziÅĤ": 9030,
      "ĠwpÅĤywÃ³w": 9031,
      "Ġludzkiej": 9032,
      "ĠCzech": 9033,
      "Ġpoznania": 9034,
      "ĠJednakÅ¼e": 9035,
      "ĠdowÃ³dca": 9036,
      "Ġtranspor": 9037,
      "ĠwyjaÅĽni": 9038,
      "Ġcmentarzu": 9039,
      "Ġzagadnie": 9040,
      "SolidarnoÅĽÄĩ": 9041,
      "Bi": 9042,
      "oro": 9043,
      "yal": 9044,
      "Ġji": 9045,
      "ning": 9046,
      "niono": 9047,
      "cht": 9048,
      "ranie": 9049,
      "Ġswe": 9050,
      "iad": 9051,
      "Ġzali": 9052,
      "Ġut": 9053,
      "ĠprzeszedÅĤ": 9054,
      "kura": 9055,
      "ĠKlu": 9056,
      "dyjski": 9057,
      "Ġman": 9058,
      "mula": 9059,
      "ĠstatkÃ³w": 9060,
      "Ġrozgry": 9061,
      "ĠsÄħsia": 9062,
      "ĠUÅ¼y": 9063,
      "istÃ³w": 9064,
      "Ġrach": 9065,
      "ĠSzta": 9066,
      "ĠIntel": 9067,
      "ĠWol": 9068,
      "ĠokreÅĽlone": 9069,
      "ĠspoÅĤeczno": 9070,
      "Ġreligia": 9071,
      "burg": 9072,
      "listycznych": 9073,
      "Ġlokalne": 9074,
      "Ġludzkiego": 9075,
      "Ġpodejmowa": 9076,
      "ĠdoÅĽwiadczenia": 9077,
      "Ġmisji": 9078,
      "Ġbohater": 9079,
      "Ġhonoris": 9080,
      "ĠbroÅĦ": 9081,
      "ĠbÅĤÄĻd": 9082,
      "ĠZbigniew": 9083,
      "Ni": 9084,
      "bem": 9085,
      "hen": 9086,
      "mma": 9087,
      "ĠmiÄĻk": 9088,
      "ĠgÅĤowy": 9089,
      "ĠniemoÅ¼li": 9090,
      "witz": 9091,
      "ĠCan": 9092,
      "ĠRzÄħ": 9093,
      "chodzenie": 9094,
      "Ġnajpopular": 9095,
      "jusza": 9096,
      "Ġstoczni": 9097,
      "dzania": 9098,
      "taria": 9099,
      "chemi": 9100,
      "ĠWene": 9101,
      "Ġzachodu": 9102,
      "ĠMieszko": 9103,
      "Ġformalnie": 9104,
      "ĠChorzÃ³w": 9105,
      "ĠDucha": 9106,
      "Ġrzeczywistych": 9107,
      "Ġarchitek": 9108,
      "ĠspowodowaÅĤo": 9109,
      "ĠÅ¼ydowskiego": 9110,
      "ĠstaroÅ¼ytnych": 9111,
      "ĠIndian": 9112,
      "ĠÅĽredniowieczu": 9113,
      "ĠuÅ¼ytkownika": 9114,
      "ĠWrocÅĤawiu": 9115,
      "ĠzwolennikÃ³w": 9116,
      "ĠDodatkowo": 9117,
      "bre": 9118,
      "gle": 9119,
      "tsu": 9120,
      "ĠpÅĤk": 9121,
      "Ġperspe": 9122,
      "Ġsche": 9123,
      "lica": 9124,
      "ĠPC": 9125,
      "Ġuzasa": 9126,
      "tent": 9127,
      "Ġglu": 9128,
      "ĠAri": 9129,
      "Ġobsa": 9130,
      "dziesiÄĻ": 9131,
      "system": 9132,
      "szewski": 9133,
      "siÅĤa": 9134,
      "Ġhodow": 9135,
      "ĠpamiÄħ": 9136,
      "Ġchrzest": 9137,
      "ĠMari": 9138,
      "ĠMars": 9139,
      "Ġfazy": 9140,
      "party": 9141,
      "Ġwschodu": 9142,
      "Ġpartie": 9143,
      "Ġdziedziny": 9144,
      "ĠzadaÅĦ": 9145,
      "ĠZachodniej": 9146,
      "Ġznisz": 9147,
      "ĠokreÅĽlonych": 9148,
      "Ġulic": 9149,
      "ĠupamiÄĻtnia": 9150,
      "Ġjeziora": 9151,
      "Ġstrategi": 9152,
      "Ġugrupowania": 9153,
      ".âĢĿ": 9154,
      "78": 9155,
      "aktyw": 9156,
      "Ñĥ": 9157,
      "nedy": 9158,
      "Ġpomie": 9159,
      "ĠPeru": 9160,
      "Ġzaka": 9161,
      "Ġwywar": 9162,
      "ĠSÅĤa": 9163,
      "ĠodnoszÄħ": 9164,
      "Ġstary": 9165,
      "ĠLie": 9166,
      "ĠFu": 9167,
      "Ġchory": 9168,
      "gujÄħ": 9169,
      "num": 9170,
      "cuje": 9171,
      "ĠRobo": 9172,
      "ĠdziaÅĤaczy": 9173,
      "Ġdruku": 9174,
      "okre": 9175,
      "wiercie": 9176,
      "federa": 9177,
      "ĠspoÅĤecznego": 9178,
      "Ġprzeciwnika": 9179,
      "ĠHawa": 9180,
      "Ġkryter": 9181,
      "Ġdawniej": 9182,
      "Ġgreckiej": 9183,
      "ĠudaÅĤ": 9184,
      "ĠJezio": 9185,
      "niesienie": 9186,
      "jazdu": 9187,
      "Ġfesti": 9188,
      "Ġnazwiska": 9189,
      "Ġarysto": 9190,
      "ĠZygmunt": 9191,
      "ĠRumunii": 9192,
      "ĠChorwa": 9193,
      "02": 9194,
      "07": 9195,
      "Ku": 9196,
      "ira": 9197,
      "scha": 9198,
      "wka": 9199,
      "ĠwnÄĻ": 9200,
      "leusz": 9201,
      "Ġzakaza": 9202,
      "Ġdobro": 9203,
      "ĠwytwÃ³r": 9204,
      "ĠSokra": 9205,
      "Ġgrzy": 9206,
      "ĠMur": 9207,
      "ĠAmerica": 9208,
      "sarz": 9209,
      "stycznÄħ": 9210,
      "Ġpraindoeuropej": 9211,
      "ĠzewnÄħtrz": 9212,
      "ĠUkÅĤadu": 9213,
      "logicznÄħ": 9214,
      "ĠMorze": 9215,
      "ĠwpÅĤywa": 9216,
      "Ġstosunek": 9217,
      "Ġzdanie": 9218,
      "ĠpoÅĤÄħczone": 9219,
      "Ġwykonania": 9220,
      "Ġpsychia": 9221,
      "ĠamerykaÅĦskie": 9222,
      "Ġkatolicki": 9223,
      "Przez": 9224,
[...]
